{
  "version": "1.0",
  "truncation": null,
  "padding": null,
  "added_tokens": [
    {
      "id": 0,
      "content": "[UNK]",
      "single_word": false,
      "lstrip": false,
      "rstrip": false,
      "normalized": false,
      "special": true
    },
    {
      "id": 1,
      "content": "[PAD]",
      "single_word": false,
      "lstrip": false,
      "rstrip": false,
      "normalized": false,
      "special": true
    },
    {
      "id": 2,
      "content": "[CLS]",
      "single_word": false,
      "lstrip": false,
      "rstrip": false,
      "normalized": false,
      "special": true
    },
    {
      "id": 3,
      "content": "[SEP]",
      "single_word": false,
      "lstrip": false,
      "rstrip": false,
      "normalized": false,
      "special": true
    },
    {
      "id": 4,
      "content": "[MASK]",
      "single_word": false,
      "lstrip": false,
      "rstrip": false,
      "normalized": false,
      "special": true
    }
  ],
  "normalizer": {
    "type": "Sequence",
    "normalizers": [
      {
        "type": "Strip",
        "strip_left": true,
        "strip_right": true
      },
      {
        "type": "Lowercase"
      }
    ]
  },
  "pre_tokenizer": {
    "type": "Whitespace"
  },
  "post_processor": null,
  "decoder": null,
  "model": {
    "type": "BPE",
    "dropout": null,
    "unk_token": "[UNK]",
    "continuing_subword_prefix": null,
    "end_of_word_suffix": null,
    "fuse_unk": false,
    "byte_fallback": false,
    "ignore_merges": false,
    "vocab": {
      "[UNK]": 0,
      "[PAD]": 1,
      "[CLS]": 2,
      "[SEP]": 3,
      "[MASK]": 4,
      "!": 5,
      "\"": 6,
      "#": 7,
      "$": 8,
      "%": 9,
      "&": 10,
      "'": 11,
      "(": 12,
      ")": 13,
      "*": 14,
      "+": 15,
      ",": 16,
      "-": 17,
      ".": 18,
      "/": 19,
      "0": 20,
      "1": 21,
      "2": 22,
      "3": 23,
      "4": 24,
      "5": 25,
      "6": 26,
      "7": 27,
      "8": 28,
      "9": 29,
      ":": 30,
      ";": 31,
      "<": 32,
      "=": 33,
      ">": 34,
      "?": 35,
      "@": 36,
      "[": 37,
      "\\": 38,
      "]": 39,
      "^": 40,
      "_": 41,
      "`": 42,
      "a": 43,
      "b": 44,
      "c": 45,
      "d": 46,
      "e": 47,
      "f": 48,
      "g": 49,
      "h": 50,
      "i": 51,
      "j": 52,
      "k": 53,
      "l": 54,
      "m": 55,
      "n": 56,
      "o": 57,
      "p": 58,
      "q": 59,
      "r": 60,
      "s": 61,
      "t": 62,
      "u": 63,
      "v": 64,
      "w": 65,
      "x": 66,
      "y": 67,
      "z": 68,
      "{": 69,
      "|": 70,
      "}": 71,
      "~": 72,
      "£": 73,
      "©": 74,
      "«": 75,
      "¬": 76,
      "®": 77,
      "°": 78,
      "·": 79,
      "»": 80,
      "¿": 81,
      "×": 82,
      "à": 83,
      "á": 84,
      "ã": 85,
      "ä": 86,
      "æ": 87,
      "ç": 88,
      "è": 89,
      "é": 90,
      "ê": 91,
      "í": 92,
      "ï": 93,
      "ñ": 94,
      "ò": 95,
      "ó": 96,
      "ô": 97,
      "õ": 98,
      "ö": 99,
      "÷": 100,
      "ú": 101,
      "ü": 102,
      "ā": 103,
      "ī": 104,
      "ō": 105,
      "ŏ": 106,
      "ś": 107,
      "ū": 108,
      "ˇ": 109,
      "́": 110,
      "̄": 111,
      "̇": 112,
      "ά": 113,
      "α": 114,
      "β": 115,
      "κ": 116,
      "λ": 117,
      "μ": 118,
      "ν": 119,
      "τ": 120,
      "ا": 121,
      "ب": 122,
      "ت": 123,
      "خ": 124,
      "د": 125,
      "ز": 126,
      "س": 127,
      "ع": 128,
      "ف": 129,
      "ك": 130,
      "ل": 131,
      "م": 132,
      "ن": 133,
      "ه": 134,
      "ي": 135,
      "ं": 136,
      "आ": 137,
      "उ": 138,
      "क": 139,
      "ज": 140,
      "ट": 141,
      "ड": 142,
      "ण": 143,
      "त": 144,
      "द": 145,
      "ध": 146,
      "न": 147,
      "प": 148,
      "ब": 149,
      "भ": 150,
      "म": 151,
      "य": 152,
      "र": 153,
      "ल": 154,
      "व": 155,
      "श": 156,
      "ष": 157,
      "स": 158,
      "ह": 159,
      "ा": 160,
      "ि": 161,
      "ी": 162,
      "ु": 163,
      "ू": 164,
      "े": 165,
      "ै": 166,
      "ो": 167,
      "्": 168,
      "।": 169,
      "আ": 170,
      "ক": 171,
      "চ": 172,
      "ট": 173,
      "ড": 174,
      "ন": 175,
      "প": 176,
      "ফ": 177,
      "র": 178,
      "ল": 179,
      "া": 180,
      "ি": 181,
      "ে": 182,
      "্": 183,
      "அ": 184,
      "ஆ": 185,
      "இ": 186,
      "ஈ": 187,
      "உ": 188,
      "எ": 189,
      "ஏ": 190,
      "ஒ": 191,
      "க": 192,
      "ங": 193,
      "ச": 194,
      "ட": 195,
      "ண": 196,
      "த": 197,
      "ந": 198,
      "ன": 199,
      "ப": 200,
      "ம": 201,
      "ய": 202,
      "ர": 203,
      "ற": 204,
      "ல": 205,
      "ள": 206,
      "ழ": 207,
      "வ": 208,
      "ஷ": 209,
      "ஸ": 210,
      "ஹ": 211,
      "ா": 212,
      "ி": 213,
      "ீ": 214,
      "ு": 215,
      "ூ": 216,
      "ெ": 217,
      "ே": 218,
      "ை": 219,
      "ொ": 220,
      "ோ": 221,
      "்": 222,
      "ಠ": 223,
      "ං": 224,
      "අ": 225,
      "ආ": 226,
      "ඇ": 227,
      "ඉ": 228,
      "උ": 229,
      "ඏ": 230,
      "ඐ": 231,
      "එ": 232,
      "ඒ": 233,
      "ඔ": 234,
      "ඕ": 235,
      "ක": 236,
      "ඛ": 237,
      "ග": 238,
      "ච": 239,
      "ජ": 240,
      "ට": 241,
      "ඩ": 242,
      "ණ": 243,
      "ත": 244,
      "ද": 245,
      "ධ": 246,
      "න": 247,
      "ඳ": 248,
      "ප": 249,
      "බ": 250,
      "භ": 251,
      "ම": 252,
      "ඹ": 253,
      "ය": 254,
      "ර": 255,
      "ල": 256,
      "ව": 257,
      "ශ": 258,
      "ෂ": 259,
      "ස": 260,
      "හ": 261,
      "ළ": 262,
      "ෆ": 263,
      "්": 264,
      "ා": 265,
      "ැ": 266,
      "ෑ": 267,
      "ි": 268,
      "ී": 269,
      "ු": 270,
      "ෘ": 271,
      "ෙ": 272,
      "ේ": 273,
      "ො": 274,
      "ෝ": 275,
      "ෞ": 276,
      "෧": 277,
      "෨": 278,
      "෩": 279,
      "෬": 280,
      "෭": 281,
      "෮": 282,
      "෯": 283,
      "෴": 284,
      "໖": 285,
      "ི": 286,
      "ྀ": 287,
      "ᄀ": 288,
      "ሁ": 289,
      "ለ": 290,
      "ላ": 291,
      "መ": 292,
      "ም": 293,
      "ሰ": 294,
      "ና": 295,
      "አ": 296,
      "ግ": 297,
      "ḷ": 298,
      "ḻ": 299,
      "ṁ": 300,
      "ṃ": 301,
      "ṅ": 302,
      "ṇ": 303,
      "ṉ": 304,
      "ṟ": 305,
      "ṭ": 306,
      "​": 307,
      "‒": 308,
      "―": 309,
      "‚": 310,
      "„": 311,
      "•": 312,
      "′": 313,
      "‿": 314,
      "⁄": 315,
      "₦": 316,
      "€": 317,
      "₹": 318,
      "⃣": 319,
      "→": 320,
      "↔": 321,
      "↕": 322,
      "≈": 323,
      "⌚": 324,
      "⌛": 325,
      "⎯": 326,
      "⏰": 327,
      "in": 328,
      "th": 329,
      "an": 330,
      "re": 331,
      "on": 332,
      "the": 333,
      "er": 334,
      "to": 335,
      "is": 336,
      "ou": 337,
      "at": 338,
      "ing": 339,
      "or": 340,
      "en": 341,
      "al": 342,
      "es": 343,
      "it": 344,
      "and": 345,
      "ed": 346,
      "om": 347,
      "ar": 348,
      "st": 349,
      "ri": 350,
      "as": 351,
      "le": 352,
      "wh": 353,
      "no": 354,
      "for": 355,
      "ve": 356,
      "am": 357,
      "ic": 358,
      "of": 359,
      "ion": 360,
      "el": 361,
      "ac": 362,
      "ank": 363,
      "ha": 364,
      "ly": 365,
      "be": 366,
      "se": 367,
      "do": 368,
      "lo": 369,
      "any": 370,
      "ch": 371,
      "wi": 372,
      "ay": 373,
      "are": 374,
      "bu": 375,
      "you": 376,
      "ent": 377,
      "lank": 378,
      "ad": 379,
      "one": 380,
      "sri": 381,
      "et": 382,
      "me": 383,
      "li": 384,
      "not": 385,
      "ld": 386,
      "my": 387,
      "id": 388,
      "go": 389,
      "ro": 390,
      "ho": 391,
      "ver": 392,
      "ab": 393,
      "have": 394,
      "su": 395,
      "he": 396,
      "this": 397,
      "ke": 398,
      "so": 399,
      "ce": 400,
      "com": 401,
      "we": 402,
      "lanka": 403,
      "ne": 404,
      "out": 405,
      "with": 406,
      "tr": 407,
      "if": 408,
      "that": 409,
      "gh": 410,
      "ir": 411,
      "un": 412,
      "ll": 413,
      "pl": 414,
      "ould": 415,
      "what": 416,
      "ol": 417,
      "ation": 418,
      "ap": 419,
      "bo": 420,
      "ome": 421,
      "can": 422,
      "est": 423,
      "now": 424,
      "pe": 425,
      "ur": 426,
      "ter": 427,
      "mo": 428,
      "fe": 429,
      "ex": 430,
      "king": 431,
      "us": 432,
      "but": 433,
      "some": 434,
      "fr": 435,
      "ts": 436,
      "end": 437,
      "ti": 438,
      "de": 439,
      "ag": 440,
      "oun": 441,
      "ple": 442,
      "from": 443,
      "per": 444,
      "get": 445,
      "how": 446,
      "po": 447,
      "con": 448,
      "all": 449,
      "hi": 450,
      "pro": 451,
      "ther": 452,
      "od": 453,
      "wor": 454,
      "know": 455,
      "ust": 456,
      "ind": 457,
      "like": 458,
      "ally": 459,
      "ate": 460,
      "il": 461,
      "ment": 462,
      "there": 463,
      "ant": 464,
      "ct": 465,
      "te": 466,
      "about": 467,
      "im": 468,
      "would": 469,
      "was": 470,
      "they": 471,
      "ma": 472,
      "col": 473,
      "thing": 474,
      "pre": 475,
      "ta": 476,
      "anyone": 477,
      "ess": 478,
      "gu": 479,
      "ci": 480,
      "ght": 481,
      "hel": 482,
      "ice": 483,
      "qu": 484,
      "day": 485,
      "ombo": 486,
      "sh": 487,
      "ers": 488,
      "ig": 489,
      "ine": 490,
      "will": 491,
      "whe": 492,
      "ity": 493,
      "ul": 494,
      "ard": 495,
      "por": 496,
      "good": 497,
      "art": 498,
      "colombo": 499,
      "your": 500,
      "loo": 501,
      "up": 502,
      "just": 503,
      "co": 504,
      "our": 505,
      "who": 506,
      "ell": 507,
      "ear": 508,
      "af": 509,
      "lankan": 510,
      "need": 511,
      "very": 512,
      "comm": 513,
      "plac": 514,
      "where": 515,
      "ound": 516,
      "fo": 517,
      "ack": 518,
      "has": 519,
      "red": 520,
      "ide": 521,
      "adv": 522,
      "port": 523,
      "ren": 524,
      "au": 525,
      "ions": 526,
      "want": 527,
      "help": 528,
      "age": 529,
      "00": 530,
      "able": 531,
      "tu": 532,
      "sin": 533,
      "other": 534,
      "peo": 535,
      "em": 536,
      "stu": 537,
      "op": 538,
      "ies": 539,
      "ain": 540,
      "coun": 541,
      "sl": 542,
      "ase": 543,
      "ys": 544,
      "looking": 545,
      "does": 546,
      "ast": 547,
      "people": 548,
      "ps": 549,
      "der": 550,
      "way": 551,
      "ist": 552,
      "try": 553,
      "time": 554,
      "ill": 555,
      "work": 556,
      "gr": 557,
      "here": 558,
      "ations": 559,
      "ev": 560,
      "ough": 561,
      "sa": 562,
      "buy": 563,
      "year": 564,
      "ive": 565,
      "ass": 566,
      "gre": 567,
      "ss": 568,
      "ge": 569,
      "vis": 570,
      "by": 571,
      "sit": 572,
      "ence": 573,
      "ck": 574,
      "tor": 575,
      "ving": 576,
      "..": 577,
      "ance": 578,
      "pri": 579,
      "thin": 580,
      "when": 581,
      "ting": 582,
      "jo": 583,
      "thank": 584,
      "peri": 585,
      "fri": 586,
      "new": 587,
      "ave": 588,
      "been": 589,
      "cl": 590,
      "pp": 591,
      "ame": 592,
      "mb": 593,
      "stud": 594,
      "recomm": 595,
      "best": 596,
      "ph": 597,
      "recommend": 598,
      "every": 599,
      "ich": 600,
      "ated": 601,
      "should": 602,
      "which": 603,
      "them": 604,
      "rent": 605,
      "ong": 606,
      "ut": 607,
      "vi": 608,
      "sp": 609,
      "friend": 610,
      "ous": 611,
      "also": 612,
      "ning": 613,
      "experi": 614,
      "ok": 615,
      "comp": 616,
      "find": 617,
      "their": 618,
      "place": 619,
      "wn": 620,
      "ans": 621,
      "mon": 622,
      "did": 623,
      "di": 624,
      "guys": 625,
      "even": 626,
      "mar": 627,
      "mu": 628,
      "tri": 629,
      "please": 630,
      "around": 631,
      "eng": 632,
      "cur": 633,
      "sc": 634,
      "du": 635,
      "spe": 636,
      "br": 637,
      "gg": 638,
      "more": 639,
      "20": 640,
      "uni": 641,
      "off": 642,
      "low": 643,
      "why": 644,
      "ser": 645,
      "fore": 646,
      "ight": 647,
      "these": 648,
      "got": 649,
      "after": 650,
      "ach": 651,
      "pay": 652,
      "advice": 653,
      "ble": 654,
      "cho": 655,
      "cent": 656,
      "cau": 657,
      "ia": 658,
      "think": 659,
      "inter": 660,
      "much": 661,
      "ish": 662,
      "really": 663,
      "see": 664,
      "act": 665,
      "man": 666,
      "vers": 667,
      "pr": 668,
      "could": 669,
      "fi": 670,
      "her": 671,
      "app": 672,
      "ak": 673,
      "plan": 674,
      "av": 675,
      "trave": 676,
      "cause": 677,
      "had": 678,
      "she": 679,
      "most": 680,
      "back": 681,
      "ces": 682,
      "ign": 683,
      "only": 684,
      "rest": 685,
      "feel": 686,
      "tw": 687,
      "aw": 688,
      "over": 689,
      "ick": 690,
      "ary": 691,
      "start": 692,
      "month": 693,
      "ty": 694,
      "line": 695,
      "say": 696,
      "air": 697,
      "ail": 698,
      "sto": 699,
      "dis": 700,
      "someone": 701,
      "med": 702,
      "fir": 703,
      "job": 704,
      "part": 705,
      "bet": 706,
      "ru": 707,
      "ile": 708,
      "che": 709,
      "because": 710,
      "loc": 711,
      "degre": 712,
      "going": 713,
      "its": 714,
      "thanks": 715,
      "cu": 716,
      "ala": 717,
      "son": 718,
      "experience": 719,
      "ely": 720,
      "quest": 721,
      "come": 722,
      "sho": 723,
      "ry": 724,
      "car": 725,
      "ical": 726,
      "his": 727,
      "take": 728,
      "iz": 729,
      "make": 730,
      "fu": 731,
      "chan": 732,
      "sugg": 733,
      "suggest": 734,
      "too": 735,
      "post": 736,
      "country": 737,
      "places": 738,
      "ering": 739,
      "fre": 740,
      "rel": 741,
      "well": 742,
      "int": 743,
      "visit": 744,
      "ks": 745,
      "travel": 746,
      "degree": 747,
      "let": 748,
      "under": 749,
      "days": 750,
      "res": 751,
      "online": 752,
      "something": 753,
      "years": 754,
      "first": 755,
      "oney": 756,
      "mber": 757,
      "ily": 758,
      "used": 759,
      "person": 760,
      "intern": 761,
      "read": 762,
      "form": 763,
      "happ": 764,
      "bl": 765,
      "preci": 766,
      "fin": 767,
      "current": 768,
      "life": 769,
      "nu": 770,
      "than": 771,
      "appreci": 772,
      "irl": 773,
      "fac": 774,
      "into": 775,
      "ved": 776,
      "dri": 777,
      "girl": 778,
      "money": 779,
      "pass": 780,
      "book": 781,
      "use": 782,
      "ep": 783,
      "ful": 784,
      "ating": 785,
      "cont": 786,
      "ite": 787,
      "wat": 788,
      "recommendations": 789,
      "als": 790,
      "ens": 791,
      "though": 792,
      "na": 793,
      "still": 794,
      "ments": 795,
      "ade": 796,
      "wee": 797,
      "cess": 798,
      "pol": 799,
      "issu": 800,
      "cial": 801,
      "ra": 802,
      "ya": 803,
      "gen": 804,
      "everyone": 805,
      "pt": 806,
      "bit": 807,
      "lear": 808,
      "lect": 809,
      "cannot": 810,
      "mal": 811,
      "hip": 812,
      "serv": 813,
      "rough": 814,
      "love": 815,
      "since": 816,
      ").": 817,
      "few": 818,
      "road": 819,
      "cre": 820,
      "fam": 821,
      "were": 822,
      "ose": 823,
      "sur": 824,
      "doing": 825,
      "student": 826,
      "ask": 827,
      "bank": 828,
      "min": 829,
      "par": 830,
      "ific": 831,
      "ms": 832,
      "then": 833,
      "getting": 834,
      "top": 835,
      "many": 836,
      "call": 837,
      "sub": 838,
      "inv": 839,
      "cus": 840,
      "pa": 841,
      "aren": 842,
      "old": 843,
      "sha": 844,
      "recent": 845,
      "high": 846,
      "care": 847,
      "down": 848,
      "phone": 849,
      "through": 850,
      "inst": 851,
      "og": 852,
      "sing": 853,
      "friends": 854,
      "being": 855,
      "kand": 856,
      "gal": 857,
      "versity": 858,
      "engine": 859,
      "sal": 860,
      "ue": 861,
      "cer": 862,
      "long": 863,
      "dif": 864,
      "before": 865,
      "ics": 866,
      "university": 867,
      "ot": 868,
      "opt": 869,
      "ture": 870,
      "sim": 871,
      "things": 872,
      "kandy": 873,
      "while": 874,
      "je": 875,
      "hey": 876,
      "sinh": 877,
      "sid": 878,
      "better": 879,
      "planning": 880,
      "tal": 881,
      "dit": 882,
      "tour": 883,
      "tax": 884,
      "chool": 885,
      "school": 886,
      "des": 887,
      "won": 888,
      "ber": 889,
      "sel": 890,
      "reg": 891,
      "pur": 892,
      "working": 893,
      "wa": 894,
      "seem": 895,
      "202": 896,
      "visa": 897,
      "card": 898,
      "without": 899,
      "bas": 900,
      "ought": 901,
      "iv": 902,
      "ket": 903,
      "ible": 904,
      "cor": 905,
      "may": 906,
      "lot": 907,
      "ities": 908,
      "ff": 909,
      "inte": 910,
      "??": 911,
      "right": 912,
      "mat": 913,
      "kind": 914,
      "sure": 915,
      "accoun": 916,
      "bi": 917,
      "ild": 918,
      "ding": 919,
      "same": 920,
      "10": 921,
      "log": 922,
      "siness": 923,
      "stand": 924,
      "business": 925,
      "vie": 926,
      "give": 927,
      "sm": 928,
      "dr": 929,
      "him": 930,
      "eli": 931,
      "bud": 932,
      "pack": 933,
      "ways": 934,
      "using": 935,
      "advance": 936,
      "srilanka": 937,
      "sup": 938,
      "lk": 939,
      "stay": 940,
      "interest": 941,
      "fer": 942,
      "ure": 943,
      "side": 944,
      "vide": 945,
      "um": 946,
      "local": 947,
      "recently": 948,
      "ational": 949,
      "dat": 950,
      "family": 951,
      "lankans": 952,
      "market": 953,
      "exp": 954,
      "cy": 955,
      "those": 956,
      "mor": 957,
      "anything": 958,
      "gam": 959,
      "play": 960,
      "ise": 961,
      "clo": 962,
      "currently": 963,
      "cts": 964,
      "mis": 965,
      "happen": 966,
      "wonder": 967,
      "two": 968,
      "mit": 969,
      "ial": 970,
      "trying": 971,
      "question": 972,
      "poss": 973,
      "again": 974,
      "ason": 975,
      "said": 976,
      "study": 977,
      "found": 978,
      "tur": 979,
      "row": 980,
      "paren": 981,
      "land": 982,
      "own": 983,
      "etc": 984,
      "web": 985,
      "company": 986,
      "thoughts": 987,
      "nex": 988,
      "cost": 989,
      "fun": 990,
      "wr": 991,
      "watch": 992,
      "sell": 993,
      "cul": 994,
      "diffe": 995,
      "ian": 996,
      "dy": 997,
      "train": 998,
      "priv": 999,
      "war": 1000,
      "real": 1001,
      "week": 1002,
      "self": 1003,
      "arch": 1004,
      "val": 1005,
      "trans": 1006,
      "share": 1007,
      "home": 1008,
      "suggestions": 1009,
      "fl": 1010,
      "pu": 1011,
      "ran": 1012,
      "great": 1013,
      "cour": 1014,
      "gover": 1015,
      "free": 1016,
      "ced": 1017,
      "hic": 1018,
      "last": 1019,
      "ds": 1020,
      "food": 1021,
      "000": 1022,
      "sk": 1023,
      "qual": 1024,
      "wan": 1025,
      "ctor": 1026,
      "ction": 1027,
      "tre": 1028,
      "sinhala": 1029,
      "parents": 1030,
      "worth": 1031,
      "site": 1032,
      "experien": 1033,
      "govern": 1034,
      "price": 1035,
      "hand": 1036,
      "lish": 1037,
      "view": 1038,
      "clu": 1039,
      "invest": 1040,
      "cr": 1041,
      "sy": 1042,
      "hot": 1043,
      "next": 1044,
      "bad": 1045,
      "att": 1046,
      "months": 1047,
      "done": 1048,
      "account": 1049,
      "nor": 1050,
      "look": 1051,
      "les": 1052,
      "ious": 1053,
      "made": 1054,
      "vel": 1055,
      "ama": 1056,
      "lit": 1057,
      "uring": 1058,
      "exam": 1059,
      "data": 1060,
      "night": 1061,
      "never": 1062,
      "service": 1063,
      "actu": 1064,
      "ins": 1065,
      "show": 1066,
      "dec": 1067,
      "idea": 1068,
      "foreign": 1069,
      "government": 1070,
      "sof": 1071,
      "kes": 1072,
      "fol": 1073,
      "ger": 1074,
      "tell": 1075,
      "sci": 1076,
      "produ": 1077,
      "possible": 1078,
      "ouse": 1079,
      "trip": 1080,
      "ward": 1081,
      "ner": 1082,
      "reason": 1083,
      "ai": 1084,
      "cou": 1085,
      "less": 1086,
      "ones": 1087,
      "ages": 1088,
      "ort": 1089,
      "class": 1090,
      "open": 1091,
      "stre": 1092,
      "engineering": 1093,
      "private": 1094,
      "put": 1095,
      "else": 1096,
      "check": 1097,
      "bus": 1098,
      "ever": 1099,
      "english": 1100,
      "might": 1101,
      "conne": 1102,
      "vehic": 1103,
      "don": 1104,
      "guy": 1105,
      "sul": 1106,
      "abroad": 1107,
      "hard": 1108,
      "wanted": 1109,
      "ready": 1110,
      "search": 1111,
      "import": 1112,
      "thinking": 1113,
      "bro": 1114,
      "wondering": 1115,
      "tech": 1116,
      "qui": 1117,
      "wer": 1118,
      "ghts": 1119,
      "another": 1120,
      "set": 1121,
      "brand": 1122,
      "reli": 1123,
      "hello": 1124,
      "tory": 1125,
      "coming": 1126,
      "ices": 1127,
      "da": 1128,
      "lin": 1129,
      "ense": 1130,
      "tried": 1131,
      "wom": 1132,
      "comple": 1133,
      "ted": 1134,
      "having": 1135,
      "appreciate": 1136,
      "ash": 1137,
      "situ": 1138,
      "tim": 1139,
      "--": 1140,
      "during": 1141,
      "proble": 1142,
      "process": 1143,
      "15": 1144,
      "change": 1145,
      "ates": 1146,
      "body": 1147,
      "!!": 1148,
      "ather": 1149,
      "mus": 1150,
      "ef": 1151,
      "char": 1152,
      "opin": 1153,
      "30": 1154,
      "ella": 1155,
      "ves": 1156,
      "sou": 1157,
      "avail": 1158,
      "lap": 1159,
      "level": 1160,
      "sol": 1161,
      "point": 1162,
      "tive": 1163,
      "tain": 1164,
      "issue": 1165,
      "house": 1166,
      "ital": 1167,
      "appreciated": 1168,
      "consid": 1169,
      "edu": 1170,
      "heard": 1171,
      "tit": 1172,
      "such": 1173,
      "live": 1174,
      "learn": 1175,
      "today": 1176,
      "elect": 1177,
      "gener": 1178,
      "gram": 1179,
      "video": 1180,
      "commun": 1181,
      "hear": 1182,
      "both": 1183,
      "always": 1184,
      "grad": 1185,
      "science": 1186,
      "tle": 1187,
      "tips": 1188,
      "tware": 1189,
      "area": 1190,
      "leg": 1191,
      "software": 1192,
      "dial": 1193,
      "bre": 1194,
      "scam": 1195,
      "galle": 1196,
      "apply": 1197,
      "vo": 1198,
      "inform": 1199,
      "options": 1200,
      "keep": 1201,
      "spec": 1202,
      "plain": 1203,
      "cially": 1204,
      "actually": 1205,
      "mean": 1206,
      "stuff": 1207,
      "passport": 1208,
      "different": 1209,
      "custo": 1210,
      "understand": 1211,
      "available": 1212,
      "slt": 1213,
      "alth": 1214,
      "near": 1215,
      "cri": 1216,
      "big": 1217,
      "hotel": 1218,
      "ons": 1219,
      "ically": 1220,
      "uk": 1221,
      "seems": 1222,
      "ional": 1223,
      "men": 1224,
      "fort": 1225,
      "press": 1226,
      "ative": 1227,
      "200": 1228,
      "cam": 1229,
      "reddit": 1230,
      "ists": 1231,
      "rece": 1232,
      "interested": 1233,
      "dialog": 1234,
      "number": 1235,
      "support": 1236,
      "mind": 1237,
      "situation": 1238,
      "lkr": 1239,
      "add": 1240,
      "head": 1241,
      "quality": 1242,
      "ob": 1243,
      "ident": 1244,
      "went": 1245,
      "face": 1246,
      "salary": 1247,
      "started": 1248,
      "says": 1249,
      "small": 1250,
      "spo": 1251,
      "came": 1252,
      "relations": 1253,
      "phys": 1254,
      "led": 1255,
      "aff": 1256,
      "rs": 1257,
      "main": 1258,
      "buying": 1259,
      "mom": 1260,
      "already": 1261,
      "lic": 1262,
      "living": 1263,
      "rep": 1264,
      "regard": 1265,
      "ang": 1266,
      "social": 1267,
      "saw": 1268,
      "sun": 1269,
      "ten": 1270,
      "name": 1271,
      "prices": 1272,
      "issues": 1273,
      "kid": 1274,
      "students": 1275,
      "follow": 1276,
      "rout": 1277,
      "ably": 1278,
      "title": 1279,
      "light": 1280,
      "limit": 1281,
      "publ": 1282,
      "grou": 1283,
      "budget": 1284,
      "stru": 1285,
      "tam": 1286,
      "del": 1287,
      "ilar": 1288,
      "cle": 1289,
      "vehicle": 1290,
      "told": 1291,
      "similar": 1292,
      "india": 1293,
      "curi": 1294,
      "thought": 1295,
      "asked": 1296,
      "turn": 1297,
      "information": 1298,
      "sed": 1299,
      "ship": 1300,
      "seen": 1301,
      "ets": 1302,
      "date": 1303,
      "experiences": 1304,
      "howe": 1305,
      "however": 1306,
      "hour": 1307,
      "tick": 1308,
      "tamil": 1309,
      "move": 1310,
      "enough": 1311,
      "gy": 1312,
      "polit": 1313,
      "ween": 1314,
      "website": 1315,
      "velo": 1316,
      "50": 1317,
      "beach": 1318,
      "personal": 1319,
      "whether": 1320,
      "law": 1321,
      "maybe": 1322,
      "purch": 1323,
      "laptop": 1324,
      "appro": 1325,
      "ese": 1326,
      "health": 1327,
      "ext": 1328,
      "south": 1329,
      "mi": 1330,
      "order": 1331,
      "develo": 1332,
      "doctor": 1333,
      "prof": 1334,
      "educ": 1335,
      "cted": 1336,
      "stem": 1337,
      "ath": 1338,
      "hair": 1339,
      "ft": 1340,
      "program": 1341,
      "pret": 1342,
      "far": 1343,
      "ents": 1344,
      "join": 1345,
      "ju": 1346,
      "between": 1347,
      "world": 1348,
      "talk": 1349,
      "tourist": 1350,
      "due": 1351,
      "pick": 1352,
      "mig": 1353,
      "ately": 1354,
      "pi": 1355,
      "build": 1356,
      "room": 1357,
      "lling": 1358,
      "resul": 1359,
      "posit": 1360,
      "ustr": 1361,
      "future": 1362,
      "public": 1363,
      "proper": 1364,
      "),": 1365,
      "ye": 1366,
      "cred": 1367,
      "spend": 1368,
      "mer": 1369,
      "system": 1370,
      "career": 1371,
      "visiting": 1372,
      "bring": 1373,
      "girls": 1374,
      "sent": 1375,
      "curious": 1376,
      "compan": 1377,
      "hon": 1378,
      "hope": 1379,
      "prefer": 1380,
      "past": 1381,
      "called": 1382,
      "ights": 1383,
      "meet": 1384,
      "ace": 1385,
      "cept": 1386,
      "shop": 1387,
      "19": 1388,
      "ara": 1389,
      "wel": 1390,
      "child": 1391,
      "mess": 1392,
      "icul": 1393,
      "migr": 1394,
      "asking": 1395,
      "opport": 1396,
      "ried": 1397,
      "opportun": 1398,
      "fel": 1399,
      "bal": 1400,
      "cheap": 1401,
      "questions": 1402,
      "package": 1403,
      "rect": 1404,
      "myself": 1405,
      "wanna": 1406,
      "send": 1407,
      "eas": 1408,
      "international": 1409,
      "male": 1410,
      "ither": 1411,
      "expe": 1412,
      "tuk": 1413,
      "vid": 1414,
      "requi": 1415,
      "ants": 1416,
      "full": 1417,
      "jobs": 1418,
      "mid": 1419,
      "ister": 1420,
      "tiv": 1421,
      "women": 1422,
      "city": 1423,
      "tries": 1424,
      "police": 1425,
      "tors": 1426,
      "manage": 1427,
      "based": 1428,
      "fiel": 1429,
      "allow": 1430,
      "couple": 1431,
      "det": 1432,
      "sli": 1433,
      "plic": 1434,
      "companies": 1435,
      "ping": 1436,
      "legal": 1437,
      "ford": 1438,
      "list": 1439,
      "making": 1440,
      "option": 1441,
      "ls": 1442,
      "shi": 1443,
      "12": 1444,
      "cit": 1445,
      "wed": 1446,
      "ici": 1447,
      "pretty": 1448,
      "hu": 1449,
      "econ": 1450,
      "weeks": 1451,
      "saying": 1452,
      "emp": 1453,
      "related": 1454,
      "eve": 1455,
      "pping": 1456,
      "problem": 1457,
      "ago": 1458,
      "tem": 1459,
      "100": 1460,
      "path": 1461,
      "happened": 1462,
      "regarding": 1463,
      "little": 1464,
      "run": 1465,
      "ility": 1466,
      "safe": 1467,
      "away": 1468,
      "ca": 1469,
      "gb": 1470,
      "everything": 1471,
      "afford": 1472,
      "sign": 1473,
      "countries": 1474,
      "band": 1475,
      "ib": 1476,
      "arri": 1477,
      "ject": 1478,
      "vs": 1479,
      "either": 1480,
      "ester": 1481,
      "ount": 1482,
      "econom": 1483,
      "ism": 1484,
      "normal": 1485,
      "least": 1486,
      "ared": 1487,
      "expens": 1488,
      "wait": 1489,
      "ings": 1490,
      "times": 1491,
      "dont": 1492,
      "lan": 1493,
      "den": 1494,
      "teach": 1495,
      "2024": 1496,
      "gradu": 1497,
      "specific": 1498,
      "nd": 1499,
      "pho": 1500,
      "power": 1501,
      "rid": 1502,
      "cond": 1503,
      "espe": 1504,
      "culture": 1505,
      "aur": 1506,
      "especially": 1507,
      "net": 1508,
      "compu": 1509,
      "media": 1510,
      "ats": 1511,
      "sam": 1512,
      "mob": 1513,
      "vious": 1514,
      "airport": 1515,
      "nam": 1516,
      "usu": 1517,
      "relationship": 1518,
      "knows": 1519,
      "within": 1520,
      "ual": 1521,
      "tra": 1522,
      "license": 1523,
      "offer": 1524,
      "course": 1525,
      "community": 1526,
      "iya": 1527,
      "bs": 1528,
      "seeking": 1529,
      "deal": 1530,
      "ills": 1531,
      "lu": 1532,
      "neg": 1533,
      "restaur": 1534,
      "indust": 1535,
      "oc": 1536,
      "ors": 1537,
      "driving": 1538,
      "cing": 1539,
      "ken": 1540,
      "dro": 1541,
      "test": 1542,
      "paid": 1543,
      "considering": 1544,
      "wrong": 1545,
      "remo": 1546,
      "group": 1547,
      "mir": 1548,
      "ram": 1549,
      "18": 1550,
      "goog": 1551,
      "ress": 1552,
      "soon": 1553,
      "ling": 1554,
      "lead": 1555,
      "ross": 1556,
      "serious": 1557,
      "cal": 1558,
      "cs": 1559,
      "load": 1560,
      "ideas": 1561,
      "reliable": 1562,
      "research": 1563,
      "ird": 1564,
      "ports": 1565,
      "beau": 1566,
      "sco": 1567,
      "ale": 1568,
      "conf": 1569,
      "giv": 1570,
      "shops": 1571,
      "mobile": 1572,
      "ety": 1573,
      "true": 1574,
      "ized": 1575,
      "yet": 1576,
      "short": 1577,
      "mast": 1578,
      "str": 1579,
      "tv": 1580,
      "inclu": 1581,
      "nothing": 1582,
      "products": 1583,
      "photo": 1584,
      "super": 1585,
      "finan": 1586,
      "opinion": 1587,
      "bar": 1588,
      "tif": 1589,
      "left": 1590,
      "limited": 1591,
      "ize": 1592,
      "iri": 1593,
      "travelling": 1594,
      "internet": 1595,
      "bought": 1596,
      "second": 1597,
      "recei": 1598,
      "emplo": 1599,
      "ree": 1600,
      "trust": 1601,
      "field": 1602,
      "whats": 1603,
      "shit": 1604,
      "ste": 1605,
      "uwa": 1606,
      "resp": 1607,
      "driver": 1608,
      "stream": 1609,
      "beli": 1610,
      "lat": 1611,
      "speed": 1612,
      "amount": 1613,
      "mention": 1614,
      "google": 1615,
      "party": 1616,
      "cap": 1617,
      "ging": 1618,
      "math": 1619,
      "hours": 1620,
      "ged": 1621,
      "ven": 1622,
      "needed": 1623,
      "water": 1624,
      "ah": 1625,
      "nat": 1626,
      "results": 1627,
      "ised": 1628,
      "member": 1629,
      "ters": 1630,
      "others": 1631,
      "met": 1632,
      "wear": 1633,
      "ails": 1634,
      "hold": 1635,
      "link": 1636,
      "income": 1637,
      "honest": 1638,
      "ele": 1639,
      "credit": 1640,
      "austr": 1641,
      "tia": 1642,
      "austral": 1643,
      "uber": 1644,
      "taking": 1645,
      "logy": 1646,
      "lar": 1647,
      "national": 1648,
      "cas": 1649,
      "sites": 1650,
      "ana": 1651,
      "solut": 1652,
      "bat": 1653,
      "presid": 1654,
      "starting": 1655,
      "ned": 1656,
      "lost": 1657,
      "dam": 1658,
      "la": 1659,
      "board": 1660,
      "prom": 1661,
      "ses": 1662,
      "jap": 1663,
      "education": 1664,
      "wal": 1665,
      "25": 1666,
      "saf": 1667,
      "ari": 1668,
      "youn": 1669,
      "cert": 1670,
      "expect": 1671,
      "computer": 1672,
      "quite": 1673,
      "lon": 1674,
      "iced": 1675,
      "whole": 1676,
      "traveling": 1677,
      "gin": 1678,
      "issa": 1679,
      "fix": 1680,
      "clear": 1681,
      "som": 1682,
      "books": 1683,
      "non": 1684,
      "once": 1685,
      "case": 1686,
      "state": 1687,
      "stop": 1688,
      "decent": 1689,
      "wedding": 1690,
      "ties": 1691,
      "tran": 1692,
      "music": 1693,
      ":)": 1694,
      "strugg": 1695,
      "bel": 1696,
      "&#": 1697,
      "ada": 1698,
      "studying": 1699,
      "youtu": 1700,
      "pul": 1701,
      "ries": 1702,
      "each": 1703,
      "itch": 1704,
      "mother": 1705,
      "til": 1706,
      "opportunities": 1707,
      "leave": 1708,
      "kids": 1709,
      "anybody": 1710,
      "works": 1711,
      "hal": 1712,
      "applic": 1713,
      "almost": 1714,
      "cover": 1715,
      "industry": 1716,
      "contact": 1717,
      "har": 1718,
      "mill": 1719,
      "nel": 1720,
      "fee": 1721,
      "provid": 1722,
      "dist": 1723,
      "indian": 1724,
      "sw": 1725,
      "ict": 1726,
      "cket": 1727,
      "general": 1728,
      "ition": 1729,
      "trad": 1730,
      "design": 1731,
      "usd": 1732,
      "comes": 1733,
      "develop": 1734,
      "president": 1735,
      "item": 1736,
      "news": 1737,
      "mbers": 1738,
      "grap": 1739,
      "payment": 1740,
      "fa": 1741,
      "24": 1742,
      "rence": 1743,
      "hind": 1744,
      "mail": 1745,
      "dating": 1746,
      "aim": 1747,
      "fect": 1748,
      "maj": 1749,
      "bor": 1750,
      "gon": 1751,
      "gif": 1752,
      "sliit": 1753,
      "ben": 1754,
      "lad": 1755,
      "ming": 1756,
      "sen": 1757,
      "que": 1758,
      "fully": 1759,
      "activ": 1760,
      "x200": 1761,
      "services": 1762,
      "against": 1763,
      "blo": 1764,
      "x200b": 1765,
      "mil": 1766,
      "psy": 1767,
      "mirissa": 1768,
      "16": 1769,
      "ied": 1770,
      "nt": 1771,
      "budd": 1772,
      "genu": 1773,
      "views": 1774,
      "sex": 1775,
      "profess": 1776,
      "os": 1777,
      "election": 1778,
      "gan": 1779,
      "hy": 1780,
      "noticed": 1781,
      "store": 1782,
      "provide": 1783,
      "details": 1784,
      "nice": 1785,
      "connect": 1786,
      "dig": 1787,
      "pal": 1788,
      "office": 1789,
      "pract": 1790,
      "ased": 1791,
      "wards": 1792,
      "close": 1793,
      "somet": 1794,
      "vir": 1795,
      "song": 1796,
      "special": 1797,
      "pap": 1798,
      "bike": 1799,
      "expensive": 1800,
      "ded": 1801,
      "yes": 1802,
      "remember": 1803,
      "basically": 1804,
      "certific": 1805,
      "gonna": 1806,
      "become": 1807,
      "discus": 1808,
      "tickets": 1809,
      "citiz": 1810,
      "ik": 1811,
      "inste": 1812,
      "insights": 1813,
      "ness": 1814,
      "----": 1815,
      "pm": 1816,
      "happy": 1817,
      "instead": 1818,
      "transfer": 1819,
      "australia": 1820,
      "youtube": 1821,
      "fast": 1822,
      "pic": 1823,
      "hosp": 1824,
      "sch": 1825,
      "break": 1826,
      "nic": 1827,
      "explain": 1828,
      "ow": 1829,
      "phones": 1830,
      "single": 1831,
      "ush": 1832,
      "univer": 1833,
      "beautif": 1834,
      "beautiful": 1835,
      "cut": 1836,
      "iphone": 1837,
      "major": 1838,
      "weather": 1839,
      "knowled": 1840,
      "studies": 1841,
      "range": 1842,
      "must": 1843,
      "pped": 1844,
      "scre": 1845,
      "speak": 1846,
      "langu": 1847,
      "until": 1848,
      "early": 1849,
      "iner": 1850,
      "secur": 1851,
      "concer": 1852,
      "connection": 1853,
      "writ": 1854,
      "management": 1855,
      "stock": 1856,
      "higher": 1857,
      "deli": 1858,
      "abo": 1859,
      "type": 1860,
      "reach": 1861,
      "took": 1862,
      "cli": 1863,
      "fil": 1864,
      "miss": 1865,
      "ute": 1866,
      "across": 1867,
      "choose": 1868,
      "incre": 1869,
      "popul": 1870,
      "medical": 1871,
      "rain": 1872,
      "grow": 1873,
      "believe": 1874,
      "fair": 1875,
      "action": 1876,
      "channel": 1877,
      "feeling": 1878,
      "earn": 1879,
      "finding": 1880,
      "offic": 1881,
      "talking": 1882,
      "joy": 1883,
      "universit": 1884,
      "universities": 1885,
      "info": 1886,
      "purchase": 1887,
      "decid": 1888,
      "manag": 1889,
      "legit": 1890,
      "mul": 1891,
      "sig": 1892,
      "soci": 1893,
      "lla": 1894,
      "repair": 1895,
      "knowledge": 1896,
      "pot": 1897,
      "eat": 1898,
      "fail": 1899,
      "forward": 1900,
      "team": 1901,
      "bir": 1902,
      "ris": 1903,
      "orig": 1904,
      "treat": 1905,
      "lied": 1906,
      "posts": 1907,
      "amaz": 1908,
      "oid": 1909,
      "iriya": 1910,
      "eu": 1911,
      "fine": 1912,
      "14": 1913,
      "itiner": 1914,
      "liter": 1915,
      "jects": 1916,
      "origin": 1917,
      "gi": 1918,
      "plat": 1919,
      "drive": 1920,
      "opinions": 1921,
      "cash": 1922,
      "story": 1923,
      "ont": 1924,
      "cel": 1925,
      "bt": 1926,
      "express": 1927,
      "direct": 1928,
      "learning": 1929,
      "ban": 1930,
      "colle": 1931,
      "usually": 1932,
      "given": 1933,
      "cident": 1934,
      "mental": 1935,
      "star": 1936,
      "medi": 1937,
      "rant": 1938,
      "boy": 1939,
      "bed": 1940,
      "imes": 1941,
      "din": 1942,
      "fit": 1943,
      "fall": 1944,
      "asing": 1945,
      "apart": 1946,
      "million": 1947,
      "itinerary": 1948,
      "tea": 1949,
      "require": 1950,
      "security": 1951,
      "cat": 1952,
      "model": 1953,
      "17": 1954,
      "fav": 1955,
      "ali": 1956,
      "dition": 1957,
      "affordable": 1958,
      "maths": 1959,
      "father": 1960,
      "ground": 1961,
      "bio": 1962,
      "aking": 1963,
      "chat": 1964,
      "unlimited": 1965,
      "contin": 1966,
      "classes": 1967,
      "game": 1968,
      "ko": 1969,
      "enjoy": 1970,
      "docu": 1971,
      "makes": 1972,
      "following": 1973,
      "rate": 1974,
      "select": 1975,
      "internship": 1976,
      "greatly": 1977,
      "kinda": 1978,
      "ges": 1979,
      "srilankan": 1980,
      "ability": 1981,
      "iit": 1982,
      "common": 1983,
      "pursu": 1984,
      "sometimes": 1985,
      "contro": 1986,
      "vac": 1987,
      "prob": 1988,
      "physical": 1989,
      "11": 1990,
      "](": 1991,
      "sour": 1992,
      "accept": 1993,
      "seeing": 1994,
      "ns": 1995,
      "canada": 1996,
      "project": 1997,
      "commer": 1998,
      "pet": 1999,
      "skin": 2000,
      "wife": 2001,
      "fellow": 2002,
      "late": 2003,
      "pat": 2004,
      "report": 2005,
      "enti": 2006,
      "okay": 2007,
      "drin": 2008,
      "rup": 2009,
      "sound": 2010,
      "begin": 2011,
      "comment": 2012,
      "partner": 2013,
      "bitel": 2014,
      "mobitel": 2015,
      "jan": 2016,
      "uary": 2017,
      "morning": 2018,
      "win": 2019,
      "return": 2020,
      "aya": 2021,
      "medic": 2022,
      "eliya": 2023,
      "dog": 2024,
      "boo": 2025,
      "transport": 2026,
      "rict": 2027,
      "bur": 2028,
      "host": 2029,
      "comments": 2030,
      "ives": 2031,
      "ify": 2032,
      "daily": 2033,
      "later": 2034,
      "sat": 2035,
      "drop": 2036,
      "claim": 2037,
      "lol": 2038,
      "nuwar": 2039,
      "birth": 2040,
      "dm": 2041,
      "sinhal": 2042,
      "cricket": 2043,
      "financial": 2044,
      "npp": 2045,
      "female": 2046,
      "needs": 2047,
      "schools": 2048,
      "2025": 2049,
      "gym": 2050,
      "gent": 2051,
      "mac": 2052,
      "sle": 2053,
      "paying": 2054,
      "alter": 2055,
      "ars": 2056,
      "spect": 2057,
      "dad": 2058,
      "platform": 2059,
      "sor": 2060,
      "packages": 2061,
      "discuss": 2062,
      "vert": 2063,
      "comfort": 2064,
      "via": 2065,
      "taxes": 2066,
      "pend": 2067,
      "consider": 2068,
      "moving": 2069,
      "impro": 2070,
      "explo": 2071,
      "often": 2072,
      "tru": 2073,
      "avoid": 2074,
      "flu": 2075,
      "tely": 2076,
      "wants": 2077,
      "brother": 2078,
      "nuwara": 2079,
      "gone": 2080,
      "history": 2081,
      "above": 2082,
      "married": 2083,
      "instit": 2084,
      "ith": 2085,
      "posed": 2086,
      "dev": 2087,
      "previous": 2088,
      "language": 2089,
      "hoping": 2090,
      "ended": 2091,
      "ranil": 2092,
      "investment": 2093,
      "toge": 2094,
      "box": 2095,
      "sinhalese": 2096,
      "fill": 2097,
      "rand": 2098,
      "lies": 2099,
      "helpful": 2100,
      "application": 2101,
      "fur": 2102,
      "regu": 2103,
      "scri": 2104,
      "freel": 2105,
      "looks": 2106,
      "feels": 2107,
      "engineer": 2108,
      "levels": 2109,
      "received": 2110,
      "together": 2111,
      "three": 2112,
      "stores": 2113,
      "diff": 2114,
      "tourists": 2115,
      "friendly": 2116,
      "decided": 2117,
      "cking": 2118,
      "cards": 2119,
      ")?": 2120,
      "bill": 2121,
      "hate": 2122,
      "prote": 2123,
      "regis": 2124,
      "hospital": 2125,
      "hit": 2126,
      "digital": 2127,
      "matter": 2128,
      "negombo": 2129,
      "event": 2130,
      "aver": 2131,
      "insur": 2132,
      "router": 2133,
      "young": 2134,
      "suc": 2135,
      "skills": 2136,
      "probably": 2137,
      "games": 2138,
      "happening": 2139,
      "zy": 2140,
      "organ": 2141,
      "term": 2142,
      "tt": 2143,
      "key": 2144,
      "typ": 2145,
      "relig": 2146,
      "era": 2147,
      "appoint": 2148,
      "clean": 2149,
      "multi": 2150,
      "quick": 2151,
      "marri": 2152,
      "items": 2153,
      "areas": 2154,
      "complain": 2155,
      "unch": 2156,
      "extra": 2157,
      "gift": 2158,
      "access": 2159,
      "shir": 2160,
      "selling": 2161,
      "pc": 2162,
      "ays": 2163,
      "apo": 2164,
      "park": 2165,
      "custom": 2166,
      "plus": 2167,
      "guess": 2168,
      "random": 2169,
      "sigiriya": 2170,
      "euro": 2171,
      "island": 2172,
      "ura": 2173,
      "rele": 2174,
      "renew": 2175,
      "finish": 2176,
      "half": 2177,
      "si": 2178,
      "difficul": 2179,
      "pain": 2180,
      "tou": 2181,
      "scen": 2182,
      "decis": 2183,
      "white": 2184,
      "13": 2185,
      "feed": 2186,
      "worked": 2187,
      "40": 2188,
      "gn": 2189,
      "pls": 2190,
      "gaming": 2191,
      "guid": 2192,
      "staying": 2193,
      "marketing": 2194,
      "bac": 2195,
      "mand": 2196,
      "ures": 2197,
      "bay": 2198,
      "cry": 2199,
      "dou": 2200,
      "certain": 2201,
      "switch": 2202,
      "cked": 2203,
      "request": 2204,
      "weird": 2205,
      "certificate": 2206,
      "ential": 2207,
      "outside": 2208,
      "ption": 2209,
      "checked": 2210,
      "ror": 2211,
      "exact": 2212,
      "mine": 2213,
      "product": 2214,
      "brands": 2215,
      "insurance": 2216,
      "mostly": 2217,
      "hotels": 2218,
      "sung": 2219,
      "anymore": 2220,
      "front": 2221,
      "tered": 2222,
      "ult": 2223,
      "cool": 2224,
      "dle": 2225,
      "chem": 2226,
      "cording": 2227,
      "logist": 2228,
      "problems": 2229,
      "ctive": 2230,
      "gar": 2231,
      "60": 2232,
      "east": 2233,
      "email": 2234,
      "yo": 2235,
      "gave": 2236,
      "23": 2237,
      "ax": 2238,
      "ball": 2239,
      "plans": 2240,
      "depend": 2241,
      "wise": 2242,
      "preferably": 2243,
      "restaurants": 2244,
      "screen": 2245,
      "yall": 2246,
      "ney": 2247,
      "towards": 2248,
      "istry": 2249,
      "alone": 2250,
      "apps": 2251,
      "stories": 2252,
      "spots": 2253,
      "physics": 2254,
      "ip": 2255,
      "jaff": 2256,
      "chin": 2257,
      "takes": 2258,
      "political": 2259,
      "known": 2260,
      "taken": 2261,
      "ticket": 2262,
      "popular": 2263,
      "active": 2264,
      "aware": 2265,
      "building": 2266,
      "graduate": 2267,
      "average": 2268,
      "jaffna": 2269,
      "gets": 2270,
      "facebook": 2271,
      "along": 2272,
      "experienced": 2273,
      "thod": 2274,
      "figu": 2275,
      "vote": 2276,
      "jour": 2277,
      "wish": 2278,
      "costs": 2279,
      "important": 2280,
      "easy": 2281,
      "slow": 2282,
      "arent": 2283,
      "including": 2284,
      "struggling": 2285,
      "below": 2286,
      "seas": 2287,
      "woman": 2288,
      "sort": 2289,
      "coast": 2290,
      "akd": 2291,
      "masters": 2292,
      "extre": 2293,
      "ples": 2294,
      "applied": 2295,
      "charge": 2296,
      "electri": 2297,
      "willing": 2298,
      "download": 2299,
      "mas": 2300,
      "cuz": 2301,
      "anal": 2302,
      "dece": 2303,
      "rupe": 2304,
      "paper": 2305,
      "interview": 2306,
      "courses": 2307,
      "ride": 2308,
      "moment": 2309,
      "worried": 2310,
      "difference": 2311,
      "felt": 2312,
      "2nd": 2313,
      "una": 2314,
      "honestly": 2315,
      "banks": 2316,
      "success": 2317,
      "ani": 2318,
      "pickme": 2319,
      "hang": 2320,
      "station": 2321,
      "goes": 2322,
      "cc": 2323,
      "ency": 2324,
      "locals": 2325,
      "21": 2326,
      "lying": 2327,
      "original": 2328,
      "ze": 2329,
      "marriage": 2330,
      "hut": 2331,
      "py": 2332,
      "ond": 2333,
      "middle": 2334,
      "degrees": 2335,
      "cars": 2336,
      "tic": 2337,
      "focus": 2338,
      "2023": 2339,
      "japan": 2340,
      "tin": 2341,
      "drivers": 2342,
      "parts": 2343,
      "camp": 2344,
      "mentioned": 2345,
      "reco": 2346,
      "chance": 2347,
      "indiv": 2348,
      "overseas": 2349,
      "musli": 2350,
      "individ": 2351,
      "\".": 2352,
      "gust": 2353,
      "oud": 2354,
      "urgent": 2355,
      "dered": 2356,
      "migration": 2357,
      "address": 2358,
      "doctors": 2359,
      "flight": 2360,
      "apple": 2361,
      "period": 2362,
      "watching": 2363,
      "grade": 2364,
      "lines": 2365,
      "position": 2366,
      "europe": 2367,
      "ships": 2368,
      "anywhere": 2369,
      "ches": 2370,
      "motor": 2371,
      "girlfriend": 2372,
      "subreddit": 2373,
      "benef": 2374,
      "cha": 2375,
      "gl": 2376,
      "ny": 2377,
      "ton": 2378,
      "acy": 2379,
      "behind": 2380,
      "employe": 2381,
      "stat": 2382,
      "members": 2383,
      "giving": 2384,
      "bag": 2385,
      "utes": 2386,
      "ream": 2387,
      "ention": 2388,
      "sister": 2389,
      "method": 2390,
      "message": 2391,
      "allowed": 2392,
      "dest": 2393,
      "init": 2394,
      "suit": 2395,
      "offers": 2396,
      "finally": 2397,
      "solo": 2398,
      "somewhere": 2399,
      "delivery": 2400,
      "rupt": 2401,
      "december": 2402,
      "iss": 2403,
      "exchange": 2404,
      "location": 2405,
      "rather": 2406,
      "fund": 2407,
      "confused": 2408,
      "brid": 2409,
      "hor": 2410,
      "fees": 2411,
      "samsung": 2412,
      "remote": 2413,
      "literally": 2414,
      "intro": 2415,
      "agram": 2416,
      "awat": 2417,
      "children": 2418,
      "restaurant": 2419,
      "wast": 2420,
      "according": 2421,
      "cks": 2422,
      "instagram": 2423,
      "techno": 2424,
      "io": 2425,
      "mass": 2426,
      "word": 2427,
      "economic": 2428,
      "batter": 2429,
      "multiple": 2430,
      "80": 2431,
      "tomor": 2432,
      "present": 2433,
      "500": 2434,
      "ior": 2435,
      "oper": 2436,
      "movie": 2437,
      "huge": 2438,
      "professional": 2439,
      "sorry": 2440,
      "yala": 2441,
      "thes": 2442,
      "black": 2443,
      "content": 2444,
      "create": 2445,
      "videos": 2446,
      "employ": 2447,
      "chi": 2448,
      "value": 2449,
      "ril": 2450,
      "enter": 2451,
      "holi": 2452,
      "final": 2453,
      "complete": 2454,
      "official": 2455,
      "booking": 2456,
      "wester": 2457,
      "thor": 2458,
      "answer": 2459,
      "respons": 2460,
      "development": 2461,
      "explore": 2462,
      "ba": 2463,
      "compared": 2464,
      "tomorrow": 2465,
      "reasonable": 2466,
      "customer": 2467,
      "receive": 2468,
      "fake": 2469,
      "difficult": 2470,
      "cra": 2471,
      "mes": 2472,
      "surf": 2473,
      "foundation": 2474,
      "cand": 2475,
      "saving": 2476,
      "exams": 2477,
      "citizens": 2478,
      "eth": 2479,
      "lab": 2480,
      "club": 2481,
      "plom": 2482,
      "appe": 2483,
      "diplom": 2484,
      "transl": 2485,
      "smo": 2486,
      "ification": 2487,
      "pix": 2488,
      "activities": 2489,
      "western": 2490,
      "ery": 2491,
      "example": 2492,
      "applying": 2493,
      "ka": 2494,
      "tar": 2495,
      "moved": 2496,
      "guide": 2497,
      "completely": 2498,
      "fortun": 2499,
      "fan": 2500,
      "ni": 2501,
      "rist": 2502,
      "respect": 2503,
      "icular": 2504,
      "exist": 2505,
      "payments": 2506,
      "monthly": 2507,
      "fact": 2508,
      "websites": 2509,
      "route": 2510,
      "depart": 2511,
      "particular": 2512,
      "weekend": 2513,
      "customs": 2514,
      "pixel": 2515,
      "doll": 2516,
      "cey": 2517,
      "mod": 2518,
      "genuine": 2519,
      "bab": 2520,
      "rates": 2521,
      "ues": 2522,
      "dom": 2523,
      "lea": 2524,
      "goda": 2525,
      "events": 2526,
      "recommendation": 2527,
      "decision": 2528,
      "aries": 2529,
      "idk": 2530,
      "convers": 2531,
      "ising": 2532,
      "aru": 2533,
      "cant": 2534,
      "actions": 2535,
      "correct": 2536,
      "psycho": 2537,
      "glo": 2538,
      "inside": 2539,
      "consul": 2540,
      "cof": 2541,
      "among": 2542,
      "choice": 2543,
      "shoes": 2544,
      "curren": 2545,
      "vehicles": 2546,
      "network": 2547,
      "entire": 2548,
      "influ": 2549,
      "april": 2550,
      "morat": 2551,
      "lack": 2552,
      "folks": 2553,
      "effe": 2554,
      "welcome": 2555,
      "gold": 2556,
      "improve": 2557,
      "moratuwa": 2558,
      "elf": 2559,
      "hips": 2560,
      "therap": 2561,
      "firm": 2562,
      "aring": 2563,
      "minim": 2564,
      "investing": 2565,
      "apparent": 2566,
      "smart": 2567,
      "1st": 2568,
      "condition": 2569,
      "augh": 2570,
      "space": 2571,
      "context": 2572,
      "clothes": 2573,
      "bachel": 2574,
      "guidance": 2575,
      "22": 2576,
      "dream": 2577,
      "yester": 2578,
      "tron": 2579,
      "completed": 2580,
      "specifically": 2581,
      "comfortable": 2582,
      "ped": 2583,
      "foot": 2584,
      "invol": 2585,
      "yesterday": 2586,
      "sil": 2587,
      "ug": 2588,
      "cele": 2589,
      "college": 2590,
      "ring": 2591,
      "hell": 2592,
      "compet": 2593,
      "desp": 2594,
      "campus": 2595,
      "fami": 2596,
      "warrant": 2597,
      "lik": 2598,
      "ark": 2599,
      "hom": 2600,
      "vin": 2601,
      "vent": 2602,
      "oring": 2603,
      "collect": 2604,
      "candid": 2605,
      "rac": 2606,
      "unfortun": 2607,
      "save": 2608,
      "elec": 2609,
      "coffee": 2610,
      "pose": 2611,
      "leaving": 2612,
      "native": 2613,
      "chall": 2614,
      "means": 2615,
      "stuck": 2616,
      "whatsapp": 2617,
      "loan": 2618,
      "apparently": 2619,
      "fish": 2620,
      "ying": 2621,
      "looked": 2622,
      "pan": 2623,
      "ually": 2624,
      "draw": 2625,
      "obvious": 2626,
      "warranty": 2627,
      "missing": 2628,
      "pte": 2629,
      "spot": 2630,
      "currency": 2631,
      "crow": 2632,
      "gain": 2633,
      "igh": 2634,
      "stress": 2635,
      "potential": 2636,
      "despite": 2637,
      "ders": 2638,
      "reviews": 2639,
      "fiber": 2640,
      "standard": 2641,
      "directly": 2642,
      "sever": 2643,
      "sum": 2644,
      "pers": 2645,
      "hire": 2646,
      "writing": 2647,
      "sad": 2648,
      "ances": 2649,
      "users": 2650,
      "earning": 2651,
      "clubs": 2652,
      "approach": 2653,
      "running": 2654,
      "cru": 2655,
      "yle": 2656,
      "lif": 2657,
      "dead": 2658,
      "obtain": 2659,
      "medicine": 2660,
      "electron": 2661,
      "rag": 2662,
      "basic": 2663,
      "feedback": 2664,
      "hutch": 2665,
      "accom": 2666,
      "changed": 2667,
      "reading": 2668,
      "clothing": 2669,
      "cons": 2670,
      "shipping": 2671,
      "kill": 2672,
      "ination": 2673,
      "necess": 2674,
      "depress": 2675,
      "demand": 2676,
      "arrival": 2677,
      "background": 2678,
      "handle": 2679,
      "strong": 2680,
      "town": 2681,
      "except": 2682,
      "mix": 2683,
      "master": 2684,
      "born": 2685,
      "nights": 2686,
      "tha": 2687,
      "letter": 2688,
      "shy": 2689,
      "eleph": 2690,
      "fli": 2691,
      "acad": 2692,
      "antly": 2693,
      "calls": 2694,
      "cultur": 2695,
      ".\"": 2696,
      "lak": 2697,
      "page": 2698,
      "vp": 2699,
      "eric": 2700,
      "rich": 2701,
      "ads": 2702,
      "tele": 2703,
      "igama": 2704,
      "cell": 2705,
      "author": 2706,
      "required": 2707,
      "schol": 2708,
      "celebr": 2709,
      "several": 2710,
      "academ": 2711,
      "cir": 2712,
      "dress": 2713,
      "ined": 2714,
      "bun": 2715,
      "till": 2716,
      "advise": 2717,
      "auto": 2718,
      "further": 2719,
      "chemistry": 2720,
      "rd": 2721,
      "asia": 2722,
      "calling": 2723,
      "listen": 2724,
      "90": 2725,
      "incident": 2726,
      "ural": 2727,
      "usa": 2728,
      "economy": 2729,
      "walk": 2730,
      "amazing": 2731,
      "january": 2732,
      "freelan": 2733,
      ".)": 2734,
      "ines": 2735,
      "wifi": 2736,
      "gov": 2737,
      "resour": 2738,
      "cord": 2739,
      "seriously": 2740,
      "rupees": 2741,
      "vol": 2742,
      "replace": 2743,
      "notice": 2744,
      "roll": 2745,
      "green": 2746,
      "answ": 2747,
      "older": 2748,
      "unfortunately": 2749,
      "az": 2750,
      "cast": 2751,
      "const": 2752,
      "pres": 2753,
      "surpr": 2754,
      "cris": 2755,
      "actual": 2756,
      "july": 2757,
      "tf": 2758,
      "stra": 2759,
      "americ": 2760,
      "selves": 2761,
      "documents": 2762,
      "gf": 2763,
      "pto": 2764,
      "sess": 2765,
      "recommended": 2766,
      "dub": 2767,
      "topic": 2768,
      "continue": 2769,
      "eless": 2770,
      "sud": 2771,
      "deep": 2772,
      "worse": 2773,
      "polic": 2774,
      "tradit": 2775,
      "sleep": 2776,
      "hus": 2777,
      "kot": 2778,
      "install": 2779,
      "favor": 2780,
      "cine": 2781,
      "ordered": 2782,
      "playing": 2783,
      "waiting": 2784,
      "exactly": 2785,
      "eta": 2786,
      "max": 2787,
      "brit": 2788,
      "accounts": 2789,
      "supposed": 2790,
      "buses": 2791,
      "property": 2792,
      "table": 2793,
      "interesting": 2794,
      "cheaper": 2795,
      "straight": 2796,
      "vot": 2797,
      "anyway": 2798,
      "hood": 2799,
      "ending": 2800,
      "worst": 2801,
      "lower": 2802,
      "parties": 2803,
      "mainly": 2804,
      "ceylon": 2805,
      "hd": 2806,
      "septe": 2807,
      "note": 2808,
      "ilities": 2809,
      "cook": 2810,
      "groups": 2811,
      "signific": 2812,
      "regular": 2813,
      "figure": 2814,
      "jith": 2815,
      "mach": 2816,
      "swi": 2817,
      "prior": 2818,
      "march": 2819,
      "personally": 2820,
      "luck": 2821,
      "journey": 2822,
      "september": 2823,
      "terms": 2824,
      "june": 2825,
      "diploma": 2826,
      "unit": 2827,
      "battery": 2828,
      "trou": 2829,
      "wash": 2830,
      "fixed": 2831,
      "nal": 2832,
      "season": 2833,
      "ently": 2834,
      "role": 2835,
      "deposit": 2836,
      "code": 2837,
      "august": 2838,
      "rug": 2839,
      "extrem": 2840,
      "sn": 2841,
      "vill": 2842,
      "reput": 2843,
      "minutes": 2844,
      "shows": 2845,
      "crazy": 2846,
      "hs": 2847,
      "ku": 2848,
      "sports": 2849,
      "anim": 2850,
      "door": 2851,
      "lives": 2852,
      "weight": 2853,
      "longer": 2854,
      "bsc": 2855,
      "visited": 2856,
      "subjects": 2857,
      "dates": 2858,
      "rice": 2859,
      "sold": 2860,
      "ules": 2861,
      "solution": 2862,
      "recogn": 2863,
      "eps": 2864,
      "grand": 2865,
      "foreigners": 2866,
      "arugam": 2867,
      "scholar": 2868,
      "caf": 2869,
      "hist": 2870,
      "rom": 2871,
      "tel": 2872,
      "anno": 2873,
      "passed": 2874,
      "street": 2875,
      "politics": 2876,
      "--------": 2877,
      "ier": 2878,
      "staff": 2879,
      "secre": 2880,
      "feat": 2881,
      "icians": 2882,
      "sudden": 2883,
      "anx": 2884,
      "lets": 2885,
      "nove": 2886,
      "sector": 2887,
      "heart": 2888,
      "ury": 2889,
      "redu": 2890,
      "relationships": 2891,
      "drink": 2892,
      "husband": 2893,
      "cab": 2894,
      "vic": 2895,
      "tho": 2896,
      "tourism": 2897,
      "buddhist": 2898,
      "risk": 2899,
      "pursue": 2900,
      "baby": 2901,
      "flo": 2902,
      "trin": 2903,
      "imp": 2904,
      "spending": 2905,
      "cultural": 2906,
      "5k": 2907,
      "peace": 2908,
      "reasons": 2909,
      "shirts": 2910,
      "kept": 2911,
      "reddi": 2912,
      "worthy": 2913,
      "crit": 2914,
      "300": 2915,
      "tober": 2916,
      "stup": 2917,
      "poor": 2918,
      "gress": 2919,
      "finance": 2920,
      "attack": 2921,
      "source": 2922,
      "extremely": 2923,
      "70": 2924,
      "xic": 2925,
      "boys": 2926,
      "defin": 2927,
      "conside": 2928,
      "happens": 2929,
      "names": 2930,
      "usual": 2931,
      "considered": 2932,
      "update": 2933,
      "appointment": 2934,
      "dan": 2935,
      "dara": 2936,
      "ie": 2937,
      "lt": 2938,
      "oo": 2939,
      "inely": 2940,
      "liam": 2941,
      "audi": 2942,
      "flag": 2943,
      "26": 2944,
      "broad": 2945,
      "gest": 2946,
      "hid": 2947,
      "envir": 2948,
      "bot": 2949,
      "perform": 2950,
      "ibility": 2951,
      "initi": 2952,
      "wild": 2953,
      "surve": 2954,
      "cyber": 2955,
      "october": 2956,
      "bes": 2957,
      "west": 2958,
      "thre": 2959,
      "perfect": 2960,
      "proced": 2961,
      "paypal": 2962,
      "opportunity": 2963,
      "genuinely": 2964,
      "words": 2965,
      "simp": 2966,
      "balance": 2967,
      "environ": 2968,
      "ired": 2969,
      "attr": 2970,
      "suff": 2971,
      "traff": 2972,
      "dire": 2973,
      "choo": 2974,
      "fresh": 2975,
      "minister": 2976,
      "corrupt": 2977,
      "simple": 2978,
      "taxi": 2979,
      "searching": 2980,
      "respon": 2981,
      "majority": 2982,
      "dinner": 2983,
      "birthday": 2984,
      "technology": 2985,
      "els": 2986,
      "fered": 2987,
      "assist": 2988,
      "mbps": 2989,
      "match": 2990,
      "rooms": 2991,
      "weligama": 2992,
      "increase": 2993,
      "touch": 2994,
      "british": 2995,
      "dut": 2996,
      "gem": 2997,
      "vies": 2998,
      "assu": 2999,
      "daraz": 3000,
      "mic": 3001,
      "memor": 3002,
      "frustr": 3003,
      "scared": 3004,
      "numbers": 3005,
      "ibly": 3006,
      "stupid": 3007,
      "cers": 3008,
      "acking": 3009,
      "agree": 3010,
      "faced": 3011,
      "safety": 3012,
      "ker": 3013,
      "mad": 3014,
      "entry": 3015,
      "engineers": 3016,
      "meaning": 3017,
      "traffic": 3018,
      "gotten": 3019,
      "surger": 3020,
      "singapo": 3021,
      "valid": 3022,
      "singapore": 3023,
      "ient": 3024,
      "requirements": 3025,
      "cup": 3026,
      "ners": 3027,
      "track": 3028,
      "movies": 3029,
      "speaking": 3030,
      "score": 3031,
      "analy": 3032,
      "consult": 3033,
      "choosing": 3034,
      "pen": 3035,
      "secu": 3036,
      "neigh": 3037,
      "ified": 3038,
      "uru": 3039,
      "cture": 3040,
      "premi": 3041,
      "rajap": 3042,
      "answers": 3043,
      "wo": 3044,
      "zer": 3045,
      "immigration": 3046,
      "passion": 3047,
      "sale": 3048,
      "programs": 3049,
      "failed": 3050,
      "3rd": 3051,
      "vil": 3052,
      "authen": 3053,
      "register": 3054,
      "dubai": 3055,
      "27": 3056,
      "ians": 3057,
      "poin": 3058,
      "necessary": 3059,
      "resources": 3060,
      "november": 3061,
      "liament": 3062,
      "btw": 3063,
      "total": 3064,
      "highly": 3065,
      "muslim": 3066,
      "hun": 3067,
      "ral": 3068,
      "sense": 3069,
      "tration": 3070,
      "tures": 3071,
      "parliament": 3072,
      "safari": 3073,
      "registered": 3074,
      "savings": 3075,
      "ref": 3076,
      "stri": 3077,
      "manager": 3078,
      "challeng": 3079,
      "traditional": 3080,
      "kad": 3081,
      "lately": 3082,
      "rap": 3083,
      "round": 3084,
      "aged": 3085,
      "permit": 3086,
      "subject": 3087,
      "crypto": 3088,
      "employees": 3089,
      "waste": 3090,
      "authentic": 3091,
      "bm": 3092,
      "whatever": 3093,
      "reply": 3094,
      "commerce": 3095,
      "mp": 3096,
      "achi": 3097,
      "display": 3098,
      "fuck": 3099,
      "posting": 3100,
      "valu": 3101,
      "soft": 3102,
      "communic": 3103,
      "migrate": 3104,
      "human": 3105,
      "commercial": 3106,
      "step": 3107,
      "booked": 3108,
      "teacher": 3109,
      "alternative": 3110,
      "eye": 3111,
      "immedi": 3112,
      "mag": 3113,
      "stick": 3114,
      "sajith": 3115,
      "vision": 3116,
      "funds": 3117,
      "solutely": 3118,
      "society": 3119,
      "global": 3120,
      "nar": 3121,
      "projects": 3122,
      "facing": 3123,
      "mater": 3124,
      "control": 3125,
      "simply": 3126,
      "aid": 3127,
      "absolutely": 3128,
      "ols": 3129,
      "affect": 3130,
      "dumb": 3131,
      "treatment": 3132,
      "expenses": 3133,
      "aliexpress": 3134,
      "selected": 3135,
      "hir": 3136,
      "excit": 3137,
      "owners": 3138,
      "apartment": 3139,
      "bridge": 3140,
      "redditors": 3141,
      "bri": 3142,
      "len": 3143,
      "attem": 3144,
      "atives": 3145,
      "contr": 3146,
      "tail": 3147,
      "shopping": 3148,
      "tops": 3149,
      "arely": 3150,
      "citizen": 3151,
      "hr": 3152,
      "size": 3153,
      "cies": 3154,
      "istic": 3155,
      "rental": 3156,
      "ifications": 3157,
      "jud": 3158,
      "nature": 3159,
      "ator": 3160,
      "ham": 3161,
      "rail": 3162,
      "beha": 3163,
      "prep": 3164,
      "platforms": 3165,
      "bon": 3166,
      "rus": 3167,
      "peak": 3168,
      "tik": 3169,
      "photograp": 3170,
      "map": 3171,
      "toxic": 3172,
      "idence": 3173,
      "hop": 3174,
      "stopped": 3175,
      "businesses": 3176,
      "itor": 3177,
      "anti": 3178,
      "expl": 3179,
      "illegal": 3180,
      "crimin": 3181,
      "beaches": 3182,
      "holiday": 3183,
      "minimum": 3184,
      "san": 3185,
      "ution": 3186,
      "telling": 3187,
      "truly": 3188,
      "nb": 3189,
      "rules": 3190,
      "acts": 3191,
      "accident": 3192,
      "cig": 3193,
      "ups": 3194,
      "awa": 3195,
      "cafe": 3196,
      "lux": 3197,
      "crisis": 3198,
      "secret": 3199,
      "rajapak": 3200,
      "independ": 3201,
      "fire": 3202,
      "carry": 3203,
      "understanding": 3204,
      "large": 3205,
      "exper": 3206,
      "posted": 3207,
      "laws": 3208,
      "younger": 3209,
      "benefits": 3210,
      "cin": 3211,
      "bey": 3212,
      "moder": 3213,
      "death": 3214,
      "evening": 3215,
      "foreigner": 3216,
      "hearing": 3217,
      "approved": 3218,
      "gives": 3219,
      "milk": 3220,
      "mission": 3221,
      "definit": 3222,
      "survey": 3223,
      "rock": 3224,
      "version": 3225,
      "prin": 3226,
      "institute": 3227,
      "kel": 3228,
      "mechan": 3229,
      "ceed": 3230,
      "confirm": 3231,
      "dude": 3232,
      "sales": 3233,
      "result": 3234,
      "vacation": 3235,
      "4g": 3236,
      "anura": 3237,
      "edit": 3238,
      "copy": 3239,
      "relax": 3240,
      "cycle": 3241,
      "decide": 3242,
      "lawy": 3243,
      "surgery": 3244,
      "swe": 3245,
      "withdraw": 3246,
      "debit": 3247,
      "imag": 3248,
      "broke": 3249,
      "influen": 3250,
      "bunch": 3251,
      "cod": 3252,
      "nav": 3253,
      "uses": 3254,
      "ilt": 3255,
      "owner": 3256,
      "sampath": 3257,
      "london": 3258,
      "senior": 3259,
      "document": 3260,
      "batt": 3261,
      "fb": 3262,
      "bul": 3263,
      "north": 3264,
      "alee": 3265,
      "graphic": 3266,
      "hidden": 3267,
      "hur": 3268,
      "uals": 3269,
      "training": 3270,
      "transit": 3271,
      "effective": 3272,
      "dark": 3273,
      "facul": 3274,
      "amazon": 3275,
      "religion": 3276,
      "china": 3277,
      "definitely": 3278,
      "bass": 3279,
      "dated": 3280,
      "argu": 3281,
      "chill": 3282,
      "advert": 3283,
      "easily": 3284,
      "ga": 3285,
      "gro": 3286,
      "third": 3287,
      "tok": 3288,
      "formed": 3289,
      "comb": 3290,
      "upcoming": 3291,
      "commit": 3292,
      "overall": 3293,
      "izing": 3294,
      "attention": 3295,
      "obviously": 3296,
      "trouble": 3297,
      "impact": 3298,
      "ric": 3299,
      "force": 3300,
      "offered": 3301,
      "lots": 3302,
      "ference": 3303,
      "workers": 3304,
      "citizenship": 3305,
      "excel": 3306,
      "print": 3307,
      "shot": 3308,
      "corpor": 3309,
      "healthy": 3310,
      "pie": 3311,
      "songs": 3312,
      "medium": 3313,
      "favorite": 3314,
      "?)": 3315,
      "series": 3316,
      "banking": 3317,
      "charges": 3318,
      "temple": 3319,
      "practice": 3320,
      "ization": 3321,
      "camera": 3322,
      "sexual": 3323,
      "text": 3324,
      "arrest": 3325,
      "addit": 3326,
      "teen": 3327,
      "airlines": 3328,
      "court": 3329,
      "conversation": 3330,
      "ws": 3331,
      "plant": 3332,
      "sharing": 3333,
      "clar": 3334,
      "aka": 3335,
      "boyfriend": 3336,
      "protein": 3337,
      "behavi": 3338,
      "oil": 3339,
      "skill": 3340,
      "1000": 3341,
      "cmb": 3342,
      "lunch": 3343,
      "tren": 3344,
      "loss": 3345,
      "chick": 3346,
      "god": 3347,
      "marry": 3348,
      "fibre": 3349,
      "submit": 3350,
      "channels": 3351,
      "pursuing": 3352,
      "awatuna": 3353,
      "procedure": 3354,
      "adult": 3355,
      "salaries": 3356,
      "department": 3357,
      "trincom": 3358,
      "environment": 3359,
      "rier": 3360,
      "unable": 3361,
      "mods": 3362,
      "vibe": 3363,
      "unique": 3364,
      "central": 3365,
      "malays": 3366,
      "purchased": 3367,
      "teachers": 3368,
      "finished": 3369,
      "exploring": 3370,
      "pin": 3371,
      "supp": 3372,
      "prescri": 3373,
      "manu": 3374,
      "fucking": 3375,
      "beginner": 3376,
      "ja": 3377,
      "thail": 3378,
      "asa": 3379,
      "becoming": 3380,
      "hol": 3381,
      "unawatuna": 3382,
      "def": 3383,
      "cocon": 3384,
      "everyday": 3385,
      "gama": 3386,
      "annoying": 3387,
      "fash": 3388,
      "rat": 3389,
      "var": 3390,
      "ini": 3391,
      "vered": 3392,
      "tired": 3393,
      "likely": 3394,
      "swim": 3395,
      "trincomalee": 3396,
      "thailand": 3397,
      "28": 3398,
      "abu": 3399,
      "va": 3400,
      "yal": 3401,
      "trc": 3402,
      "studied": 3403,
      "politicians": 3404,
      "aun": 3405,
      "drug": 3406,
      "ises": 3407,
      "trade": 3408,
      "coll": 3409,
      "bachelor": 3410,
      "academic": 3411,
      "additional": 3412,
      "remove": 3413,
      "refund": 3414,
      "rible": 3415,
      "civil": 3416,
      "20s": 3417,
      "aves": 3418,
      "50k": 3419,
      "presidential": 3420,
      "ikman": 3421,
      "associ": 3422,
      "lled": 3423,
      "laptops": 3424,
      "ragging": 3425,
      "fashion": 3426,
      "cse": 3427,
      "hnd": 3428,
      "acting": 3429,
      "ideally": 3430,
      "curry": 3431,
      "techn": 3432,
      "properly": 3433,
      "sending": 3434,
      "promo": 3435,
      "buddhis": 3436,
      "elephant": 3437,
      "2000": 3438,
      "hous": 3439,
      "constru": 3440,
      "progress": 3441,
      "advices": 3442,
      "everywhere": 3443,
      "trustworthy": 3444,
      "catch": 3445,
      "involved": 3446,
      "spective": 3447,
      "expected": 3448,
      "ladies": 3449,
      "secure": 3450,
      "fc": 3451,
      "ud": 3452,
      "loved": 3453,
      "spir": 3454,
      "surge": 3455,
      "added": 3456,
      "linked": 3457,
      "bing": 3458,
      "ware": 3459,
      "itiya": 3460,
      "condu": 3461,
      "brought": 3462,
      "cream": 3463,
      "famous": 3464,
      "psychi": 3465,
      "religious": 3466,
      "individuals": 3467,
      "psychiat": 3468,
      "jay": 3469,
      "alco": 3470,
      "lier": 3471,
      "mot": 3472,
      "arrive": 3473,
      "gate": 3474,
      "ime": 3475,
      "tat": 3476,
      "ane": 3477,
      "relative": 3478,
      "undergraduate": 3479,
      "attend": 3480,
      "film": 3481,
      "anxi": 3482,
      "bc": 3483,
      "lock": 3484,
      "viol": 3485,
      "natives": 3486,
      "ado": 3487,
      "rank": 3488,
      "ases": 3489,
      "cold": 3490,
      "themselves": 3491,
      "subscri": 3492,
      "pura": 3493,
      "write": 3494,
      "anxiety": 3495,
      "lay": 3496,
      "admin": 3497,
      "artic": 3498,
      "importing": 3499,
      "imported": 3500,
      "maintain": 3501,
      "receiving": 3502,
      "profession": 3503,
      "connections": 3504,
      "introdu": 3505,
      "duty": 3506,
      "tota": 3507,
      "venue": 3508,
      "scene": 3509,
      "faculty": 3510,
      "ee": 3511,
      "fs": 3512,
      "isra": 3513,
      "ory": 3514,
      "count": 3515,
      "changing": 3516,
      "glass": 3517,
      "response": 3518,
      "gun": 3519,
      "nation": 3520,
      "review": 3521,
      "liar": 3522,
      "ends": 3523,
      "arden": 3524,
      "offering": 3525,
      "itself": 3526,
      "sunday": 3527,
      "positive": 3528,
      "significant": 3529,
      "dish": 3530,
      "jvp": 3531,
      "gegoda": 3532,
      "nugegoda": 3533,
      "bikes": 3534,
      "turning": 3535,
      "picture": 3536,
      "models": 3537,
      "eating": 3538,
      "wala": 3539,
      "anur": 3540,
      "lose": 3541,
      "roid": 3542,
      "moon": 3543,
      "ideal": 3544,
      "priced": 3545,
      "marks": 3546,
      "created": 3547,
      "2022": 3548,
      "yeah": 3549,
      "meeting": 3550,
      "vat": 3551,
      "center": 3552,
      "restrict": 3553,
      "changes": 3554,
      "cousin": 3555,
      "setting": 3556,
      "clearly": 3557,
      "customers": 3558,
      "status": 3559,
      "ppl": 3560,
      "wtf": 3561,
      "seat": 3562,
      "image": 3563,
      "specially": 3564,
      "fuel": 3565,
      "qualifications": 3566,
      "150": 3567,
      "suitable": 3568,
      "vince": 3569,
      "cafes": 3570,
      "chicken": 3571,
      "dent": 3572,
      "mc": 3573,
      "thus": 3574,
      "ateg": 3575,
      "tribut": 3576,
      "brain": 3577,
      "trains": 3578,
      "biology": 3579,
      "japanese": 3580,
      "fle": 3581,
      "none": 3582,
      "push": 3583,
      "style": 3584,
      "aces": 3585,
      "addition": 3586,
      "agama": 3587,
      "mba": 3588,
      "turned": 3589,
      "relev": 3590,
      "electricity": 3591,
      "input": 3592,
      "ergy": 3593,
      "febr": 3594,
      "ender": 3595,
      "intel": 3596,
      "insight": 3597,
      "growth": 3598,
      "registration": 3599,
      "premium": 3600,
      "february": 3601,
      "fight": 3602,
      "flying": 3603,
      "built": 3604,
      "adha": 3605,
      "lid": 3606,
      "aging": 3607,
      "planned": 3608,
      "blue": 3609,
      "suppor": 3610,
      "showing": 3611,
      "nearby": 3612,
      "blood": 3613,
      "concerned": 3614,
      "dogs": 3615,
      "particularly": 3616,
      "accommod": 3617,
      "ulla": 3618,
      "buff": 3619,
      "pow": 3620,
      "tuition": 3621,
      "keeping": 3622,
      "systems": 3623,
      "graduates": 3624,
      "damn": 3625,
      "ltte": 3626,
      "anced": 3627,
      "export": 3628,
      "user": 3629,
      "ished": 3630,
      "internships": 3631,
      "markets": 3632,
      "casual": 3633,
      "solutions": 3634,
      "macbook": 3635,
      "alternatives": 3636,
      "discussion": 3637,
      "points": 3638,
      "luxury": 3639,
      "coconut": 3640,
      "35": 3641,
      "aus": 3642,
      "cross": 3643,
      "knew": 3644,
      "reci": 3645,
      "taste": 3646,
      "astic": 3647,
      "frequ": 3648,
      "reality": 3649,
      "bringing": 3650,
      "scoo": 3651,
      "american": 3652,
      "machine": 3653,
      "ster": 3654,
      "amp": 3655,
      "adhd": 3656,
      "heav": 3657,
      "pread": 3658,
      "rences": 3659,
      "messages": 3660,
      "district": 3661,
      "dollars": 3662,
      "suddenly": 3663,
      "threat": 3664,
      "excited": 3665,
      "various": 3666,
      "trcsl": 3667,
      "rad": 3668,
      "ences": 3669,
      "alot": 3670,
      "asks": 3671,
      "christ": 3672,
      "agent": 3673,
      "promot": 3674,
      "types": 3675,
      "votes": 3676,
      "hob": 3677,
      "served": 3678,
      "developer": 3679,
      "removed": 3680,
      "natural": 3681,
      "double": 3682,
      "individual": 3683,
      "familiar": 3684,
      "immediately": 3685,
      "relevant": 3686,
      "base": 3687,
      "km": 3688,
      "lgb": 3689,
      "uc": 3690,
      "inno": 3691,
      "clin": 3692,
      "lecture": 3693,
      "hands": 3694,
      "kok": 3695,
      "ature": 3696,
      "dear": 3697,
      "renting": 3698,
      "mark": 3699,
      "locally": 3700,
      "voting": 3701,
      "easier": 3702,
      "calcul": 3703,
      "sounds": 3704,
      "satur": 3705,
      "beyond": 3706,
      "lgbt": 3707,
      "29": 3708,
      "edexcel": 3709,
      "perman": 3710,
      "yourself": 3711,
      "mistake": 3712,
      "beauty": 3713,
      "papers": 3714,
      "favour": 3715,
      "shirt": 3716,
      "broadband": 3717,
      "malaysia": 3718,
      "tb": 3719,
      "atm": 3720,
      "eniya": 3721,
      "wanting": 3722,
      "spent": 3723,
      "div": 3724,
      "creating": 3725,
      "negative": 3726,
      "easter": 3727,
      "tiktok": 3728,
      "laugh": 3729,
      "rance": 3730,
      "ude": 3731,
      "pool": 3732,
      "shif": 3733,
      "ultra": 3734,
      "advant": 3735,
      "dual": 3736,
      "startup": 3737,
      "instru": 3738,
      "approval": 3739,
      "leads": 3740,
      "imagine": 3741,
      "throw": 3742,
      "ison": 3743,
      "asian": 3744,
      "hik": 3745,
      "pros": 3746,
      "embass": 3747,
      "whenever": 3748,
      "biggest": 3749,
      "candidate": 3750,
      "attempt": 3751,
      "tattoo": 3752,
      "phar": 3753,
      "awala": 3754,
      "inten": 3755,
      "germany": 3756,
      "steps": 3757,
      "cases": 3758,
      "lady": 3759,
      "99": 3760,
      "bang": 3761,
      "hack": 3762,
      "regre": 3763,
      "separ": 3764,
      "fear": 3765,
      "upon": 3766,
      "covered": 3767,
      "assign": 3768,
      "trading": 3769,
      "practical": 3770,
      "cused": 3771,
      "dur": 3772,
      "vap": 3773,
      "ann": 3774,
      "forget": 3775,
      "perfu": 3776,
      "contribut": 3777,
      "twice": 3778,
      "ump": 3779,
      "icient": 3780,
      "alcohol": 3781,
      "?\"": 3782,
      "afr": 3783,
      "dehi": 3784,
      "hill": 3785,
      "mini": 3786,
      "scammed": 3787,
      "photos": 3788,
      "growing": 3789,
      "eventually": 3790,
      "android": 3791,
      "earlier": 3792,
      "spic": 3793,
      "cheers": 3794,
      "izz": 3795,
      "ension": 3796,
      "tamils": 3797,
      "purchasing": 3798,
      "methods": 3799,
      "anuradha": 3800,
      "restrictions": 3801,
      "afraid": 3802,
      "ae": 3803,
      "gala": 3804,
      "ler": 3805,
      "keeps": 3806,
      "solid": 3807,
      "somehow": 3808,
      "ults": 3809,
      "didnt": 3810,
      "broken": 3811,
      "continu": 3812,
      "sources": 3813,
      "anuradhapura": 3814,
      "bour": 3815,
      "sick": 3816,
      "delive": 3817,
      "childhood": 3818,
      "hangout": 3819,
      "valuable": 3820,
      "cim": 3821,
      "eats": 3822,
      "tan": 3823,
      "remain": 3824,
      "itive": 3825,
      "proof": 3826,
      "clus": 3827,
      "facilities": 3828,
      "generation": 3829,
      "profit": 3830,
      "typical": 3831,
      "challenges": 3832,
      "christmas": 3833,
      "ucsc": 3834,
      "ahead": 3835,
      "flow": 3836,
      "spread": 3837,
      "lived": 3838,
      "monitor": 3839,
      "file": 3840,
      "locations": 3841,
      "delivered": 3842,
      ":(": 3843,
      "mers": 3844,
      "thu": 3845,
      "liqu": 3846,
      "agency": 3847,
      "purpose": 3848,
      "joining": 3849,
      "launch": 3850,
      "55": 3851,
      "fly": 3852,
      "honey": 3853,
      "hum": 3854,
      "anda": 3855,
      "thern": 3856,
      "walking": 3857,
      "concerns": 3858,
      "filled": 3859,
      "tough": 3860,
      "russ": 3861,
      "embassy": 3862,
      "gay": 3863,
      "informed": 3864,
      "ony": 3865,
      "perad": 3866,
      "knowing": 3867,
      "checking": 3868,
      "funny": 3869,
      "attach": 3870,
      "tuktuk": 3871,
      "leading": 3872,
      "distance": 3873,
      "accepted": 3874,
      "eyes": 3875,
      "fans": 3876,
      "stor": 3877,
      "tex": 3878,
      "thri": 3879,
      "although": 3880,
      "icbt": 3881,
      "mato": 3882,
      "grate": 3883,
      "airtel": 3884,
      "ordering": 3885,
      "tempor": 3886,
      "zero": 3887,
      "corporate": 3888,
      "fat": 3889,
      "han": 3890,
      "kit": 3891,
      "stable": 3892,
      "coz": 3893,
      "placed": 3894,
      "2019": 3895,
      "closed": 3896,
      "generally": 3897,
      "replacement": 3898,
      "pressure": 3899,
      "dry": 3900,
      "ecu": 3901,
      "sea": 3902,
      "terror": 3903,
      "debt": 3904,
      "counter": 3905,
      "apped": 3906,
      "relatives": 3907,
      "players": 3908,
      "teaching": 3909,
      "dambu": 3910,
      "windo": 3911,
      "electronics": 3912,
      "cro": 3913,
      "emot": 3914,
      "thats": 3915,
      "held": 3916,
      "helps": 3917,
      "caught": 3918,
      "missed": 3919,
      "legally": 3920,
      "voice": 3921,
      "100k": 3922,
      "provided": 3923,
      "truth": 3924,
      "chinese": 3925,
      "telegram": 3926,
      "kottu": 3927,
      "peradeniya": 3928,
      "45": 3929,
      "lor": 3930,
      "rights": 3931,
      "wealth": 3932,
      "conven": 3933,
      "connected": 3934,
      "solar": 3935,
      "fields": 3936,
      "deliver": 3937,
      "performance": 3938,
      "achieve": 3939,
      "ators": 3940,
      "kal": 3941,
      "rn": 3942,
      "xy": 3943,
      "helping": 3944,
      "resident": 3945,
      "ival": 3946,
      "crush": 3947,
      "charged": 3948,
      "icip": 3949,
      "include": 3950,
      "financially": 3951,
      "provider": 3952,
      "written": 3953,
      "managed": 3954,
      "400": 3955,
      "jer": 3956,
      "tot": 3957,
      "useful": 3958,
      "hopefully": 3959,
      "dealing": 3960,
      "iction": 3961,
      "hnb": 3962,
      "mel": 3963,
      "mate": 3964,
      "pair": 3965,
      "losing": 3966,
      "unsure": 3967,
      "motiv": 3968,
      "perspective": 3969,
      "impress": 3970,
      "pictures": 3971,
      "successful": 3972,
      "divor": 3973,
      "four": 3974,
      "pun": 3975,
      "slight": 3976,
      "aran": 3977,
      "consu": 3978,
      "emer": 3979,
      "serve": 3980,
      "shared": 3981,
      "heading": 3982,
      "renewal": 3983,
      "bags": 3984,
      "corruption": 3985,
      "equ": 3986,
      "las": 3987,
      "van": 3988,
      "angama": 3989,
      "ller": 3990,
      "friday": 3991,
      "privacy": 3992,
      "wearing": 3993,
      "constantly": 3994,
      "micro": 3995,
      "cigare": 3996,
      "bills": 3997,
      "veget": 3998,
      "became": 3999,
      "adults": 4000,
      "mble": 4001,
      "bran": 4002,
      "freed": 4003,
      "watched": 4004,
      "putting": 4005,
      "ayake": 4006,
      "dollar": 4007,
      "electronic": 4008,
      "lakhs": 4009,
      "buddhism": 4010,
      "dambulla": 4011,
      "pak": 4012,
      "atleast": 4013,
      "ague": 4014,
      "condit": 4015,
      "advent": 4016,
      "settle": 4017,
      "struggle": 4018,
      "nsbm": 4019,
      "psychology": 4020,
      "psychiatrist": 4021,
      "heavy": 4022,
      "avi": 4023,
      "daugh": 4024,
      "reje": 4025,
      "clients": 4026,
      "regul": 4027,
      "destination": 4028,
      "surfing": 4029,
      "crowded": 4030,
      "kaduwa": 4031,
      "thusi": 4032,
      "?!": 4033,
      "barely": 4034,
      "fest": 4035,
      "mall": 4036,
      "sir": 4037,
      "tend": 4038,
      "adam": 4039,
      "heat": 4040,
      "agno": 4041,
      "goods": 4042,
      "sitting": 4043,
      "chocol": 4044,
      "backpack": 4045,
      "chances": 4046,
      "elections": 4047,
      "speeds": 4048,
      "developed": 4049,
      "bentota": 4050,
      "freelance": 4051,
      "football": 4052,
      "mixed": 4053,
      "modern": 4054,
      "grateful": 4055,
      "fing": 4056,
      "pts": 4057,
      "rated": 4058,
      "thi": 4059,
      "orts": 4060,
      "libr": 4061,
      "quit": 4062,
      "elling": 4063,
      "affe": 4064,
      "advis": 4065,
      "helped": 4066,
      "ously": 4067,
      "minor": 4068,
      "deser": 4069,
      "matara": 4070,
      "archite": 4071,
      "experiencing": 4072,
      "beginning": 4073,
      "device": 4074,
      "therapy": 4075,
      "technical": 4076,
      "pizz": 4077,
      "toyo": 4078,
      "enthusi": 4079,
      "states": 4080,
      "indians": 4081,
      "10k": 4082,
      "norm": 4083,
      "setup": 4084,
      "scams": 4085,
      "ahangama": 4086,
      "transportation": 4087,
      "session": 4088,
      "scholarship": 4089,
      "egg": 4090,
      "itation": 4091,
      "confl": 4092,
      "imate": 4093,
      "spa": 4094,
      "raised": 4095,
      "descri": 4096,
      "breaking": 4097,
      "fault": 4098,
      "candidates": 4099,
      "policies": 4100,
      "expert": 4101,
      "mechanical": 4102,
      "pharmac": 4103,
      "bath": 4104,
      "mr": 4105,
      "vere": 4106,
      "aming": 4107,
      "worry": 4108,
      "igno": 4109,
      "trips": 4110,
      "latest": 4111,
      "concern": 4112,
      "families": 4113,
      "policy": 4114,
      "annu": 4115,
      "unis": 4116,
      "plement": 4117,
      "roads": 4118,
      "region": 4119,
      "batch": 4120,
      "blocked": 4121,
      "increased": 4122,
      "hes": 4123,
      "incred": 4124,
      "tire": 4125,
      "poses": 4126,
      "hiri": 4127,
      "seemed": 4128,
      "situations": 4129,
      "bars": 4130,
      "trusted": 4131,
      "motorcycle": 4132,
      "construction": 4133,
      "toyota": 4134,
      "\",": 4135,
      "atics": 4136,
      "unless": 4137,
      "20k": 4138,
      "couples": 4139,
      "designer": 4140,
      "kore": 4141,
      "released": 4142,
      "initially": 4143,
      "communication": 4144,
      "totally": 4145,
      "5g": 4146,
      "msc": 4147,
      "nib": 4148,
      "rise": 4149,
      "wall": 4150,
      "inations": 4151,
      "stain": 4152,
      "ablish": 4153,
      "cancell": 4154,
      "diagno": 4155,
      "opening": 4156,
      "replies": 4157,
      "appropri": 4158,
      "employment": 4159,
      "railway": 4160,
      "cinnam": 4161,
      "conditions": 4162,
      "gpt": 4163,
      "tori": 4164,
      "ories": 4165,
      "energy": 4166,
      "establish": 4167,
      "proceed": 4168,
      "advanced": 4169,
      "blame": 4170,
      "logical": 4171,
      "drama": 4172,
      "identify": 4173,
      "signal": 4174,
      "satis": 4175,
      "quickly": 4176,
      "complaint": 4177,
      "therapist": 4178,
      "analyst": 4179,
      "lawyer": 4180,
      "cinnamon": 4181,
      "dj": 4182,
      "recru": 4183,
      "esh": 4184,
      "wide": 4185,
      "meal": 4186,
      "usage": 4187,
      "block": 4188,
      "dehiwala": 4189,
      "freedom": 4190,
      "fy": 4191,
      "kat": 4192,
      "record": 4193,
      "ordin": 4194,
      "covid": 4195,
      "particip": 4196,
      "tooth": 4197,
      "watches": 4198,
      "minded": 4199,
      "muslims": 4200,
      "navig": 4201,
      "scooter": 4202,
      "hikkaduwa": 4203,
      "oh": 4204,
      "ux": 4205,
      "orders": 4206,
      "ager": 4207,
      "therefore": 4208,
      "tah": 4209,
      "upgrade": 4210,
      "parking": 4211,
      "highest": 4212,
      "realized": 4213,
      "courier": 4214,
      "learned": 4215,
      "licence": 4216,
      "delay": 4217,
      "migrating": 4218,
      "gifts": 4219,
      "piece": 4220,
      "linkedin": 4221,
      "\\-": 4222,
      "bers": 4223,
      "cities": 4224,
      "gap": 4225,
      "ening": 4226,
      "trail": 4227,
      "apiit": 4228,
      "updates": 4229,
      "cloud": 4230,
      "offici": 4231,
      "possibly": 4232,
      "investig": 4233,
      "doubt": 4234,
      "target": 4235,
      "wood": 4236,
      "abuse": 4237,
      "accommodation": 4238,
      "gce": 4239,
      "mits": 4240,
      "pure": 4241,
      "tip": 4242,
      "colon": 4243,
      "epf": 4244,
      "matters": 4245,
      "solve": 4246,
      "cake": 4247,
      "arrived": 4248,
      "regret": 4249,
      "temporary": 4250,
      "eff": 4251,
      "kdu": 4252,
      "nit": 4253,
      "lig": 4254,
      "imports": 4255,
      "feelings": 4256,
      "former": 4257,
      "minute": 4258,
      "played": 4259,
      "campa": 4260,
      "joined": 4261,
      "lugg": 4262,
      "depression": 4263,
      "bam": 4264,
      "ky": 4265,
      "loud": 4266,
      "mint": 4267,
      "ron": 4268,
      "vari": 4269,
      "intim": 4270,
      "itals": 4271,
      "stage": 4272,
      "busy": 4273,
      "goal": 4274,
      "somewhat": 4275,
      "hiking": 4276,
      "standing": 4277,
      "warning": 4278,
      "quiet": 4279,
      "completing": 4280,
      "cheapest": 4281,
      "falls": 4282,
      "protect": 4283,
      "appear": 4284,
      "arrested": 4285,
      "saturday": 4286,
      "daughter": 4287,
      "?.": 4288,
      "yed": 4289,
      "repe": 4290,
      "liber": 4291,
      "cancel": 4292,
      "poll": 4293,
      "province": 4294,
      "mathem": 4295,
      "ells": 4296,
      "aud": 4297,
      "discord": 4298,
      "sells": 4299,
      "talked": 4300,
      "fitness": 4301,
      "additionally": 4302,
      "koko": 4303,
      "favourite": 4304,
      "hat": 4305,
      "hall": 4306,
      "uae": 4307,
      "thro": 4308,
      "alu": 4309,
      "esome": 4310,
      "strict": 4311,
      "section": 4312,
      "anyways": 4313,
      "estate": 4314,
      "commiss": 4315,
      "dermato": 4316,
      "desper": 4317,
      "craf": 4318,
      "cambridge": 4319,
      "tests": 4320,
      "flex": 4321,
      "iness": 4322,
      "error": 4323,
      "exter": 4324,
      "mainten": 4325,
      "ards": 4326,
      "tutor": 4327,
      "discrimin": 4328,
      "opened": 4329,
      "devices": 4330,
      "employee": 4331,
      "holidays": 4332,
      "reduce": 4333,
      "campaign": 4334,
      "maintenance": 4335,
      "gs": 4336,
      "tap": 4337,
      "represent": 4338,
      "srilankans": 4339,
      "sole": 4340,
      "canad": 4341,
      "tual": 4342,
      "thinks": 4343,
      "interviews": 4344,
      "nearly": 4345,
      "manufac": 4346,
      "relatively": 4347,
      "israel": 4348,
      "garden": 4349,
      "ire": 4350,
      "ients": 4351,
      "nan": 4352,
      "phi": 4353,
      "abans": 4354,
      "bother": 4355,
      "convert": 4356,
      "ours": 4357,
      "ps5": 4358,
      "appointed": 4359,
      "anime": 4360,
      "professionals": 4361,
      "announ": 4362,
      "deals": 4363,
      "tast": 4364,
      "upper": 4365,
      "workplace": 4366,
      "prime": 4367,
      "mum": 4368,
      "resort": 4369,
      "realize": 4370,
      "expecting": 4371,
      "translation": 4372,
      "racist": 4373,
      "contract": 4374,
      "luggage": 4375,
      "bage": 4376,
      "ered": 4377,
      "theat": 4378,
      "suic": 4379,
      "sugar": 4380,
      "inder": 4381,
      "color": 4382,
      "embar": 4383,
      "suggested": 4384,
      "showed": 4385,
      "communities": 4386,
      "capital": 4387,
      "coverage": 4388,
      "contacted": 4389,
      "practices": 4390,
      "pettah": 4391,
      "kumar": 4392,
      "----------------": 4393,
      "behavior": 4394,
      "recruit": 4395,
      "atory": 4396,
      "bom": 4397,
      "iest": 4398,
      "kar": 4399,
      "moun": 4400,
      "ui": 4401,
      "forced": 4402,
      "bott": 4403,
      "decl": 4404,
      "providers": 4405,
      "breakfast": 4406,
      "cima": 4407,
      "nibm": 4408,
      "fed": 4409,
      "hust": 4410,
      "lam": 4411,
      "une": 4412,
      "aling": 4413,
      "arts": 4414,
      "stack": 4415,
      "lights": 4416,
      "mos": 4417,
      "expo": 4418,
      "quo": 4419,
      "spee": 4420,
      "enses": 4421,
      "topics": 4422,
      "paha": 4423,
      "buds": 4424,
      "cycl": 4425,
      "affair": 4426,
      "stocks": 4427,
      "scholarships": 4428,
      "pizza": 4429,
      "external": 4430,
      "250": 4431,
      "gig": 4432,
      "jav": 4433,
      "mur": 4434,
      "oce": 4435,
      "oking": 4436,
      "thread": 4437,
      "refer": 4438,
      "whom": 4439,
      "somebody": 4440,
      "ctions": 4441,
      "ensive": 4442,
      "raj": 4443,
      "sky": 4444,
      "treated": 4445,
      "german": 4446,
      "remotely": 4447,
      "keyboard": 4448,
      "european": 4449,
      "massive": 4450,
      "bachelors": 4451,
      "tangalle": 4452,
      "honeymoon": 4453,
      "##": 4454,
      "77": 4455,
      "hers": 4456,
      "kers": 4457,
      "ml": 4458,
      "aram": 4459,
      "sey": 4460,
      "idas": 4461,
      "unk": 4462,
      "accounting": 4463,
      "searched": 4464,
      "edule": 4465,
      "honda": 4466,
      "clearance": 4467,
      "population": 4468,
      "standards": 4469,
      "consist": 4470,
      "appropriate": 4471,
      "aa": 4472,
      "cv": 4473,
      "equi": 4474,
      "itors": 4475,
      "pages": 4476,
      "sem": 4477,
      "severe": 4478,
      "notes": 4479,
      "wheel": 4480,
      "phd": 4481,
      "chose": 4482,
      "logies": 4483,
      "educational": 4484,
      "leader": 4485,
      "garbage": 4486,
      "translate": 4487,
      "collection": 4488,
      "surprised": 4489,
      "frustrating": 4490,
      "lgbtq": 4491,
      "kg": 4492,
      "rec": 4493,
      "adidas": 4494,
      "ides": 4495,
      "pos": 4496,
      "focused": 4497,
      "lands": 4498,
      "effort": 4499,
      "educated": 4500,
      "messed": 4501,
      "ridicul": 4502,
      "scope": 4503,
      "shitty": 4504,
      "buffet": 4505,
      "advantage": 4506,
      "pakist": 4507,
      "zz": 4508,
      "ancy": 4509,
      "ongoing": 4510,
      "engage": 4511,
      "awaren": 4512,
      "flash": 4513,
      "investments": 4514,
      "listed": 4515,
      "depressed": 4516,
      "features": 4517,
      "danger": 4518,
      "judge": 4519,
      "tbh": 4520,
      "canadian": 4521,
      "awareness": 4522,
      "dedu": 4523,
      "hons": 4524,
      "oned": 4525,
      "aler": 4526,
      "arag": 4527,
      "terrible": 4528,
      "useless": 4529,
      "prevent": 4530,
      "guest": 4531,
      "joke": 4532,
      "kindly": 4533,
      "gampaha": 4534,
      "transactions": 4535,
      "charging": 4536,
      "spoken": 4537,
      "providing": 4538,
      "material": 4539,
      "houses": 4540,
      "fell": 4541,
      "gri": 4542,
      "anytime": 4543,
      "ayur": 4544,
      "meals": 4545,
      "hook": 4546,
      "neu": 4547,
      "boc": 4548,
      "imax": 4549,
      "ysis": 4550,
      "asts": 4551,
      "spects": 4552,
      "resign": 4553,
      "talent": 4554,
      "flav": 4555,
      "brown": 4556,
      "gyms": 4557,
      "programme": 4558,
      "dropped": 4559,
      "leaders": 4560,
      "wallet": 4561,
      "hospitals": 4562,
      "previously": 4563,
      "lifest": 4564,
      "snack": 4565,
      "swimming": 4566,
      "ayurved": 4567,
      "ials": 4568,
      "itary": 4569,
      "likes": 4570,
      "demo": 4571,
      "upload": 4572,
      "worker": 4573,
      "clue": 4574,
      "wont": 4575,
      "drinks": 4576,
      "passionate": 4577,
      "bin": 4578,
      "cil": 4579,
      "sar": 4580,
      "ught": 4581,
      "infl": 4582,
      "tom": 4583,
      "tower": 4584,
      "execu": 4585,
      "impossible": 4586,
      "pred": 4587,
      "taught": 4588,
      "justice": 4589,
      "grew": 4590,
      "spons": 4591,
      "surround": 4592,
      "otp": 4593,
      "foods": 4594,
      "reaching": 4595,
      "starts": 4596,
      "entially": 4597,
      "recognized": 4598,
      "direction": 4599,
      "powder": 4600,
      "galaxy": 4601,
      "attached": 4602,
      "regulations": 4603,
      "3d": 4604,
      "75": 4605,
      "chair": 4606,
      "five": 4607,
      "yrs": 4608,
      "entre": 4609,
      "roles": 4610,
      "plate": 4611,
      "poke": 4612,
      "gue": 4613,
      "server": 4614,
      "rude": 4615,
      "cuts": 4616,
      "shoot": 4617,
      "gency": 4618,
      "inves": 4619,
      "purposes": 4620,
      "ketiya": 4621,
      "function": 4622,
      "charac": 4623,
      "occas": 4624,
      "govt": 4625,
      "branch": 4626,
      "gender": 4627,
      "uom": 4628,
      "onto": 4629,
      "icing": 4630,
      "beat": 4631,
      "loans": 4632,
      "chur": 4633,
      "deb": 4634,
      "hike": 4635,
      "cooking": 4636,
      "singer": 4637,
      "included": 4638,
      "client": 4639,
      "drinking": 4640,
      "hiring": 4641,
      "article": 4642,
      "permanent": 4643,
      "rejected": 4644,
      "commission": 4645,
      "rare": 4646,
      "arrange": 4647,
      "accent": 4648,
      "urs": 4649,
      "feb": 4650,
      "rule": 4651,
      "basis": 4652,
      "solute": 4653,
      "australian": 4654,
      "psychologist": 4655,
      "freelancing": 4656,
      "villa": 4657,
      "gems": 4658,
      "prepare": 4659,
      "normally": 4660,
      "wit": 4661,
      "zo": 4662,
      "visas": 4663,
      "primar": 4664,
      "pricing": 4665,
      "undergrad": 4666,
      "climb": 4667,
      "ethnic": 4668,
      "flix": 4669,
      "maps": 4670,
      "divorce": 4671,
      "slightly": 4672,
      "mathematics": 4673,
      "bia": 4674,
      "gas": 4675,
      "ios": 4676,
      "wis": 4677,
      "wick": 4678,
      "revenue": 4679,
      "encies": 4680,
      "alleg": 4681,
      "haha": 4682,
      "youth": 4683,
      "verse": 4684,
      "absolute": 4685,
      "trau": 4686,
      "porn": 4687,
      "fili": 4688,
      "mates": 4689,
      "sylla": 4690,
      "schedule": 4691,
      "banned": 4692,
      "cybersecurity": 4693,
      "hiriketiya": 4694,
      "entrepre": 4695,
      "lav": 4696,
      "mount": 4697,
      "adays": 4698,
      "meat": 4699,
      "uncle": 4700,
      "agon": 4701,
      "sham": 4702,
      "shorts": 4703,
      "hassle": 4704,
      "centre": 4705,
      "located": 4706,
      "contacts": 4707,
      "maldi": 4708,
      "reached": 4709,
      "electric": 4710,
      "floor": 4711,
      "dermatologist": 4712,
      "ghost": 4713,
      "mala": 4714,
      "oth": 4715,
      "pes": 4716,
      "sab": 4717,
      "sustain": 4718,
      "nowadays": 4719,
      "fru": 4720,
      "confir": 4721,
      "istics": 4722,
      "gry": 4723,
      "drain": 4724,
      "holding": 4725,
      "officer": 4726,
      "fancy": 4727,
      "influencers": 4728,
      ",\"": 4729,
      "fant": 4730,
      "gers": 4731,
      "ki": 4732,
      "ovo": 4733,
      "intake": 4734,
      "elig": 4735,
      "sets": 4736,
      "plastic": 4737,
      "percent": 4738,
      "coin": 4739,
      "forest": 4740,
      "passports": 4741,
      "expired": 4742,
      "lessons": 4743,
      "southern": 4744,
      "military": 4745,
      "virgin": 4746,
      "six": 4747,
      "benefit": 4748,
      "responsible": 4749,
      "authorities": 4750,
      "volun": 4751,
      "voted": 4752,
      "bottle": 4753,
      "lenovo": 4754,
      "trend": 4755,
      "prescription": 4756,
      "banglad": 4757,
      "annual": 4758,
      "syllabus": 4759,
      "ricul": 4760,
      "entrance": 4761,
      "uncomfortable": 4762,
      "diet": 4763,
      "2020": 4764,
      "wellawat": 4765,
      "branded": 4766,
      "preferred": 4767,
      "confident": 4768,
      "starlink": 4769,
      "analysis": 4770,
      "shift": 4771,
      "speech": 4772,
      "pv": 4773,
      "race": 4774,
      "snor": 4775,
      "tro": 4776,
      "xx": 4777,
      "anc": 4778,
      "army": 4779,
      "icated": 4780,
      "sequ": 4781,
      "artist": 4782,
      "earth": 4783,
      "scale": 4784,
      "transaction": 4785,
      "complex": 4786,
      "italy": 4787,
      "boarding": 4788,
      "claiming": 4789,
      "responses": 4790,
      "chocolate": 4791,
      "gear": 4792,
      "sight": 4793,
      "sms": 4794,
      "recover": 4795,
      "retail": 4796,
      "alright": 4797,
      "itar": 4798,
      "stal": 4799,
      "leaves": 4800,
      "bow": 4801,
      "shown": 4802,
      "30k": 4803,
      "requirement": 4804,
      "liked": 4805,
      "crowd": 4806,
      "romant": 4807,
      "neighbor": 4808,
      "equip": 4809,
      "\"?": 4810,
      "5000": 4811,
      "nom": 4812,
      "spl": 4813,
      "zen": 4814,
      "arm": 4815,
      "bear": 4816,
      "nego": 4817,
      "cancer": 4818,
      "pod": 4819,
      "shut": 4820,
      "coach": 4821,
      "sitive": 4822,
      "click": 4823,
      "seek": 4824,
      "desk": 4825,
      "tree": 4826,
      "approx": 4827,
      "positions": 4828,
      "migrated": 4829,
      "detail": 4830,
      "ttes": 4831,
      "zeal": 4832,
      "initial": 4833,
      "cooked": 4834,
      "sweet": 4835,
      "library": 4836,
      "lifestyle": 4837,
      "bis": 4838,
      "ebay": 4839,
      "gather": 4840,
      "kick": 4841,
      "tion": 4842,
      "pregn": 4843,
      "core": 4844,
      "die": 4845,
      "suggestion": 4846,
      "creative": 4847,
      "attit": 4848,
      "scient": 4849,
      "classic": 4850,
      "expectations": 4851,
      "claims": 4852,
      "respectful": 4853,
      "existing": 4854,
      "surprise": 4855,
      "cinema": 4856,
      "animal": 4857,
      "assume": 4858,
      "kelan": 4859,
      "hurt": 4860,
      "brow": 4861,
      "squ": 4862,
      "ensure": 4863,
      "seats": 4864,
      "counsel": 4865,
      "issued": 4866,
      "raise": 4867,
      "creep": 4868,
      "routes": 4869,
      "respond": 4870,
      "languages": 4871,
      "massage": 4872,
      "animals": 4873,
      "independence": 4874,
      "skilled": 4875,
      "dental": 4876,
      "clusive": 4877,
      "incredibly": 4878,
      "manufacture": 4879,
      "zealand": 4880,
      "ili": 4881,
      "vit": 4882,
      "antha": 4883,
      "reserv": 4884,
      "thetic": 4885,
      "isa": 4886,
      "noon": 4887,
      "vet": 4888,
      "ceb": 4889,
      "plz": 4890,
      "frame": 4891,
      "delet": 4892,
      "agre": 4893,
      "igning": 4894,
      "pays": 4895,
      "aked": 4896,
      "factory": 4897,
      "passes": 4898,
      "jewel": 4899,
      "logic": 4900,
      "seller": 4901,
      "ctors": 4902,
      "vels": 4903,
      "30s": 4904,
      "allows": 4905,
      "rainy": 4906,
      "rupee": 4907,
      "chain": 4908,
      "weekends": 4909,
      "effects": 4910,
      "adminis": 4911,
      "cigarettes": 4912,
      "negoti": 4913,
      "kelaniya": 4914,
      "df": 4915,
      "fare": 4916,
      "rw": 4917,
      "encour": 4918,
      "ician": 4919,
      "verted": 4920,
      "verification": 4921,
      "sucks": 4922,
      "comed": 4923,
      "complic": 4924,
      "reng": 4925,
      "otherwise": 4926,
      "proud": 4927,
      "stolen": 4928,
      "partners": 4929,
      "realistic": 4930,
      "cring": 4931,
      "crime": 4932,
      "computing": 4933,
      "chatgpt": 4934,
      "doub": 4935,
      "extreme": 4936,
      "electrical": 4937,
      "critic": 4938,
      "combined": 4939,
      "associate": 4940,
      "surgeon": 4941,
      "fd": 4942,
      "jack": 4943,
      "pil": 4944,
      "ino": 4945,
      "thal": 4946,
      "rics": 4947,
      "oft": 4948,
      "ela": 4949,
      "accur": 4950,
      "bull": 4951,
      "rote": 4952,
      "updated": 4953,
      "diving": 4954,
      "disgust": 4955,
      "drone": 4956,
      "player": 4957,
      "mindset": 4958,
      "midnight": 4959,
      "graduated": 4960,
      "tify": 4961,
      "distri": 4962,
      "medication": 4963,
      "statistics": 4964,
      "competitive": 4965,
      "elephants": 4966,
      "circu": 4967,
      "attractive": 4968,
      "drugs": 4969,
      "ligence": 4970,
      "java": 4971,
      "witness": 4972,
      "600": 4973,
      "ek": 4974,
      "iel": 4975,
      "tab": 4976,
      "tall": 4977,
      "ink": 4978,
      "anci": 4979,
      "encoun": 4980,
      "aspe": 4981,
      "lem": 4982,
      "amed": 4983,
      "suspic": 4984,
      "tight": 4985,
      "tains": 4986,
      "spare": 4987,
      "carg": 4988,
      "intention": 4989,
      "roughly": 4990,
      "taxed": 4991,
      "developers": 4992,
      "fairly": 4993,
      "successfully": 4994,
      "membership": 4995,
      "competition": 4996,
      "celebrate": 4997,
      "suffering": 4998,
      "independent": 4999,
      "volunte": 5000,
      "pting": 5001,
      "wing": 5002,
      "ited": 5003,
      "whel": 5004,
      "loves": 5005,
      "estic": 5006,
      "explan": 5007,
      "deed": 5008,
      "implement": 5009,
      "mistakes": 5010,
      "arriving": 5011,
      "netflix": 5012,
      "separate": 5013,
      "bottles": 5014,
      "deleted": 5015,
      "nur": 5016,
      "s24": 5017,
      "yog": 5018,
      "soo": 5019,
      "weak": 5020,
      "council": 5021,
      "grab": 5022,
      "ministry": 5023,
      "careful": 5024,
      "sellers": 5025,
      "extension": 5026,
      "patient": 5027,
      "institut": 5028,
      "united": 5029,
      "liquor": 5030,
      "storage": 5031,
      "finger": 5032,
      "fw": 5033,
      "rush": 5034,
      "recor": 5035,
      "retire": 5036,
      "asap": 5037,
      "lease": 5038,
      "acity": 5039,
      "rolling": 5040,
      "mahind": 5041,
      "gotta": 5042,
      "lovely": 5043,
      "wonderful": 5044,
      "solved": 5045,
      "grades": 5046,
      "temples": 5047,
      "applications": 5048,
      "sibl": 5049,
      "switching": 5050,
      "journal": 5051,
      "killed": 5052,
      "flights": 5053,
      "listening": 5054,
      "freelancer": 5055,
      "advertise": 5056,
      "grocer": 5057,
      "windows": 5058,
      "bb": 5059,
      "nes": 5060,
      "sche": 5061,
      "wrote": 5062,
      "anony": 5063,
      "eras": 5064,
      "isnt": 5065,
      "ata": 5066,
      "atic": 5067,
      "esoft": 5068,
      "haps": 5069,
      "chris": 5070,
      "adap": 5071,
      "roof": 5072,
      "trash": 5073,
      "perhaps": 5074,
      "doesnt": 5075,
      "saved": 5076,
      "spaces": 5077,
      "forex": 5078,
      "acted": 5079,
      "overnight": 5080,
      "factors": 5081,
      "effect": 5082,
      "household": 5083,
      "bigger": 5084,
      "identity": 5085,
      "spoke": 5086,
      "economics": 5087,
      "damage": 5088,
      "harass": 5089,
      "burger": 5090,
      "smooth": 5091,
      "assistance": 5092,
      "bonus": 5093,
      "rajapaksa": 5094,
      "emergency": 5095,
      "sponsor": 5096,
      "church": 5097,
      "fab": 5098,
      "mn": 5099,
      "pants": 5100,
      "tics": 5101,
      "ths": 5102,
      "stran": 5103,
      "beer": 5104,
      "iring": 5105,
      "prefe": 5106,
      "tuks": 5107,
      "eved": 5108,
      "monday": 5109,
      "restri": 5110,
      "awesome": 5111,
      "overwhel": 5112,
      "discoun": 5113,
      "insta": 5114,
      "talks": 5115,
      "matches": 5116,
      "owned": 5117,
      "links": 5118,
      "scammers": 5119,
      "spotify": 5120,
      "curios": 5121,
      "named": 5122,
      "automat": 5123,
      "washing": 5124,
      "frequently": 5125,
      "perfume": 5126,
      "entreprene": 5127,
      "romantic": 5128,
      "anonym": 5129,
      "categ": 5130,
      "nand": 5131,
      "strange": 5132,
      "streng": 5133,
      "assa": 5134,
      "whale": 5135,
      "admit": 5136,
      "rol": 5137,
      "abor": 5138,
      "boat": 5139,
      "bored": 5140,
      "boss": 5141,
      "pop": 5142,
      "essential": 5143,
      "compar": 5144,
      "compens": 5145,
      "died": 5146,
      "cute": 5147,
      "parcel": 5148,
      "structure": 5149,
      "steam": 5150,
      "harm": 5151,
      "provides": 5152,
      "acceptable": 5153,
      "employer": 5154,
      "vpn": 5155,
      "maxim": 5156,
      "reputation": 5157,
      "reputable": 5158,
      "dangerous": 5159,
      "ancient": 5160,
      ".,": 5161,
      "tag": 5162,
      "yr": 5163,
      "escap": 5164,
      "itter": 5165,
      "sty": 5166,
      "chand": 5167,
      "ades": 5168,
      "sus": 5169,
      "wered": 5170,
      "artists": 5171,
      "choices": 5172,
      "ruin": 5173,
      "izes": 5174,
      "stayed": 5175,
      "tells": 5176,
      "namal": 5177,
      "typically": 5178,
      "randomly": 5179,
      "village": 5180,
      "materials": 5181,
      "adventure": 5182,
      "hesit": 5183,
      "colonial": 5184,
      "pokemon": 5185,
      "maldives": 5186,
      "christi": 5187,
      "32": 5188,
      "4th": 5189,
      "nil": 5190,
      "rass": 5191,
      "sand": 5192,
      "inia": 5193,
      "reference": 5194,
      "arran": 5195,
      "nobody": 5196,
      "ionally": 5197,
      "entering": 5198,
      "abt": 5199,
      "keells": 5200,
      "colour": 5201,
      "cop": 5202,
      "affili": 5203,
      "compare": 5204,
      "gged": 5205,
      "interior": 5206,
      "fied": 5207,
      "formal": 5208,
      "mins": 5209,
      "highway": 5210,
      "throughout": 5211,
      "availability": 5212,
      "programming": 5213,
      "increasing": 5214,
      "sie": 5215,
      "dishes": 5216,
      "lavinia": 5217,
      "48": 5218,
      "bound": 5219,
      "kuru": 5220,
      "mouse": 5221,
      "pad": 5222,
      "inch": 5223,
      "eral": 5224,
      "oneer": 5225,
      "royal": 5226,
      "agencies": 5227,
      "cipl": 5228,
      "cles": 5229,
      "monsoon": 5230,
      "afternoon": 5231,
      "payoneer": 5232,
      "qualification": 5233,
      "broker": 5234,
      "supported": 5235,
      "profile": 5236,
      "influence": 5237,
      "besides": 5238,
      "equipment": 5239,
      "agreed": 5240,
      "curiosity": 5241,
      "33": 5242,
      "iot": 5243,
      "jun": 5244,
      "ray": 5245,
      "sne": 5246,
      "sport": 5247,
      "ured": 5248,
      "wind": 5249,
      "reserved": 5250,
      "elder": 5251,
      "bum": 5252,
      "subur": 5253,
      "weed": 5254,
      "outdoor": 5255,
      "guitar": 5256,
      "lowest": 5257,
      "males": 5258,
      "closer": 5259,
      "values": 5260,
      "paths": 5261,
      "networking": 5262,
      "strateg": 5263,
      "sensitive": 5264,
      "sometime": 5265,
      "boxing": 5266,
      "billion": 5267,
      "slowly": 5268,
      "tonight": 5269,
      "summer": 5270,
      "reputed": 5271,
      "coding": 5272,
      "aunt": 5273,
      "31": 5274,
      "dance": 5275,
      "kitch": 5276,
      "enroll": 5277,
      "keen": 5278,
      "frag": 5279,
      "agents": 5280,
      "consequ": 5281,
      "imf": 5282,
      "evisa": 5283,
      "studio": 5284,
      "mony": 5285,
      "carto": 5286,
      "harder": 5287,
      "bandaran": 5288,
      "statement": 5289,
      "buddha": 5290,
      "furnit": 5291,
      "introvert": 5292,
      "obtaining": 5293,
      "photography": 5294,
      "clarify": 5295,
      "supporters": 5296,
      "bread": 5297,
      "pup": 5298,
      "vive": 5299,
      "yt": 5300,
      "zone": 5301,
      "revol": 5302,
      "align": 5303,
      "hab": 5304,
      "dele": 5305,
      "consent": 5306,
      "aster": 5307,
      "discount": 5308,
      "carn": 5309,
      "travelers": 5310,
      "smell": 5311,
      "tress": 5312,
      "crack": 5313,
      "insane": 5314,
      "headphones": 5315,
      "mike": 5316,
      "dedicated": 5317,
      "filling": 5318,
      "organiz": 5319,
      "organization": 5320,
      "cleaning": 5321,
      "destro": 5322,
      "deeply": 5323,
      "memories": 5324,
      "supply": 5325,
      "radio": 5326,
      "jewelry": 5327,
      "cargills": 5328,
      "arranged": 5329,
      "!)": 5330,
      "->": 5331,
      "/-": 5332,
      "bic": 5333,
      "bol": 5334,
      "sj": 5335,
      "replaced": 5336,
      "tool": 5337,
      "arian": 5338,
      "meas": 5339,
      "meme": 5340,
      "lie": 5341,
      "height": 5342,
      "contain": 5343,
      "iling": 5344,
      "akes": 5345,
      "twitter": 5346,
      "cheating": 5347,
      "differences": 5348,
      "camping": 5349,
      "heads": 5350,
      "requires": 5351,
      "lane": 5352,
      "hybrid": 5353,
      "selection": 5354,
      "aza": 5355,
      "embarrass": 5356,
      "bangladesh": 5357,
      "65": 5358,
      "ec": 5359,
      "swed": 5360,
      "react": 5361,
      "ites": 5362,
      "rif": 5363,
      "asy": 5364,
      "unders": 5365,
      "conserv": 5366,
      "curricul": 5367,
      "blind": 5368,
      "badulla": 5369,
      "200k": 5370,
      "treatments": 5371,
      "patter": 5372,
      "discussions": 5373,
      "decisions": 5374,
      "smoking": 5375,
      "freelancers": 5376,
      "sessions": 5377,
      "regularly": 5378,
      "conduct": 5379,
      "enthusiasts": 5380,
      "executive": 5381,
      "malabe": 5382,
      "institutions": 5383,
      "88": 5384,
      "gang": 5385,
      "ii": 5386,
      "kn": 5387,
      "uh": 5388,
      "thy": 5389,
      "tools": 5390,
      "arant": 5391,
      "noise": 5392,
      "amoun": 5393,
      "acne": 5394,
      "outs": 5395,
      "tracking": 5396,
      "tial": 5397,
      "poo": 5398,
      "mentally": 5399,
      "theres": 5400,
      "scap": 5401,
      "discipl": 5402,
      "shoo": 5403,
      "shape": 5404,
      "salon": 5405,
      "handling": 5406,
      "sym": 5407,
      "badly": 5408,
      "physically": 5409,
      "regardless": 5410,
      "followed": 5411,
      "empty": 5412,
      "testing": 5413,
      "calm": 5414,
      "metal": 5415,
      "struggles": 5416,
      "neighbour": 5417,
      "printed": 5418,
      "affairs": 5419,
      "eligible": 5420,
      "kuruneg": 5421,
      "nut": 5422,
      "rarely": 5423,
      "lean": 5424,
      "locked": 5425,
      "limits": 5426,
      "hole": 5427,
      "mahar": 5428,
      "upto": 5429,
      "cos": 5430,
      "phy": 5431,
      "hero": 5432,
      "ruined": 5433,
      "logists": 5434,
      "mora": 5435,
      "vesak": 5436,
      "learners": 5437,
      "purchases": 5438,
      "healthcare": 5439,
      "lonely": 5440,
      "scenari": 5441,
      "tarif": 5442,
      "ugc": 5443,
      "homes": 5444,
      "racism": 5445,
      "madasa": 5446,
      "promote": 5447,
      "gateway": 5448,
      "deserve": 5449,
      "architecture": 5450,
      "cancelled": 5451,
      "pakistan": 5452,
      "democr": 5453,
      "inflation": 5454,
      "kitchen": 5455,
      "kurunegala": 5456,
      "dh": 5457,
      "hence": 5458,
      "rit": 5459,
      "thai": 5460,
      "wil": 5461,
      "heavi": 5462,
      "comend": 5463,
      "union": 5464,
      "plements": 5465,
      "portion": 5466,
      "gging": 5467,
      "awath": 5468,
      "shoe": 5469,
      "passeng": 5470,
      "ogf": 5471,
      "marketplace": 5472,
      "aike": 5473,
      "occur": 5474,
      "officers": 5475,
      "smoke": 5476,
      "wildlife": 5477,
      "lawyers": 5478,
      "intelligence": 5479,
      "ocean": 5480,
      "aramulla": 5481,
      "mahinda": 5482,
      ".(": 5483,
      "dies": 5484,
      "mou": 5485,
      "reve": 5486,
      "ena": 5487,
      "adding": 5488,
      "outlets": 5489,
      "ourselves": 5490,
      "disappointed": 5491,
      "parent": 5492,
      "sett": 5493,
      "199": 5494,
      "deter": 5495,
      "streaming": 5496,
      "graph": 5497,
      "speakers": 5498,
      "managing": 5499,
      "motorbike": 5500,
      "destinations": 5501,
      "horrible": 5502,
      "innocent": 5503,
      "ignore": 5504,
      "semester": 5505,
      "ridiculous": 5506,
      "confirmed": 5507,
      "maximum": 5508,
      "furniture": 5509,
      "02": 5510,
      "dge": 5511,
      "fro": 5512,
      "iphones": 5513,
      "mm": 5514,
      "mt": 5515,
      "overs": 5516,
      "tinder": 5517,
      "ley": 5518,
      "doors": 5519,
      "goals": 5520,
      "aband": 5521,
      "cere": 5522,
      "trump": 5523,
      "pera": 5524,
      "poya": 5525,
      "hims": 5526,
      "prospects": 5527,
      "tured": 5528,
      "airline": 5529,
      "paired": 5530,
      "supplements": 5531,
      "skip": 5532,
      "crash": 5533,
      "confidence": 5534,
      "activity": 5535,
      "controvers": 5536,
      "strike": 5537,
      "confirmation": 5538,
      "udawala": 5539,
      "continued": 5540,
      "eggs": 5541,
      "fyi": 5542,
      "discrimination": 5543,
      "podcast": 5544,
      "mikeai": 5545,
      "himself": 5546,
      "800": 5547,
      "bout": 5548,
      "nye": 5549,
      "verify": 5550,
      "agri": 5551,
      "prepar": 5552,
      "quant": 5553,
      "covers": 5554,
      "whose": 5555,
      "marine": 5556,
      "forever": 5557,
      "cheese": 5558,
      "sony": 5559,
      "cargo": 5560,
      "stays": 5561,
      "soul": 5562,
      "specialist": 5563,
      "release": 5564,
      "conversations": 5565,
      "feature": 5566,
      "peaceful": 5567,
      "assistant": 5568,
      "frustrated": 5569,
      "subscription": 5570,
      "vape": 5571,
      "suspicious": 5572,
      "bandaranaike": 5573,
      "maharagama": 5574,
      "udawalawe": 5575,
      "):": 5576,
      "01": 5577,
      "cb": 5578,
      "cats": 5579,
      "fal": 5580,
      "enna": 5581,
      "rides": 5582,
      "acade": 5583,
      "logo": 5584,
      "meant": 5585,
      "exha": 5586,
      "consum": 5587,
      "premadasa": 5588,
      "guard": 5589,
      "coins": 5590,
      "cott": 5591,
      "herit": 5592,
      "traveler": 5593,
      "survive": 5594,
      "interests": 5595,
      "smaller": 5596,
      "turns": 5597,
      "extend": 5598,
      "causing": 5599,
      "asinghe": 5600,
      "assuming": 5601,
      "battaramulla": 5602,
      "russia": 5603,
      "convenient": 5604,
      "festival": 5605,
      "affected": 5606,
      "kumara": 5607,
      "cringe": 5608,
      "fits": 5609,
      "tala": 5610,
      "adjust": 5611,
      "etf": 5612,
      "unfair": 5613,
      "apitiya": 5614,
      "peko": 5615,
      "feet": 5616,
      "butter": 5617,
      "concert": 5618,
      "guarant": 5619,
      "kinds": 5620,
      "expand": 5621,
      "gamers": 5622,
      "invested": 5623,
      "attending": 5624,
      "processing": 5625,
      "supporting": 5626,
      "extended": 5627,
      "developing": 5628,
      "allowing": 5629,
      "slim": 5630,
      "caused": 5631,
      "signed": 5632,
      "connecting": 5633,
      "institution": 5634,
      "ipad": 5635,
      "stressed": 5636,
      "transition": 5637,
      "layover": 5638,
      "russian": 5639,
      "lord": 5640,
      "conflic": 5641,
      "split": 5642,
      "attitude": 5643,
      "exhaust": 5644,
      "07": 5645,
      "abus": 5646,
      "bf": 5647,
      "dun": 5648,
      "oya": 5649,
      "thous": 5650,
      "nowhere": 5651,
      "behalf": 5652,
      "bumble": 5653,
      "absur": 5654,
      "peeps": 5655,
      "pleas": 5656,
      "permission": 5657,
      "poly": 5658,
      "earbuds": 5659,
      "oppo": 5660,
      "scrat": 5661,
      "overpriced": 5662,
      "polon": 5663,
      "possibility": 5664,
      "landscap": 5665,
      "pathway": 5666,
      "belong": 5667,
      "climate": 5668,
      "reported": 5669,
      "complaining": 5670,
      "scenic": 5671,
      "figured": 5672,
      "entertain": 5673,
      "minimal": 5674,
      "anxious": 5675,
      "agreement": 5676,
      "prepared": 5677,
      "submitted": 5678,
      "spirit": 5679,
      "suicide": 5680,
      "hustle": 5681,
      "binance": 5682,
      "wellawatte": 5683,
      "ielts": 5684,
      "sneak": 5685,
      "sjb": 5686,
      "academy": 5687,
      "fai": 5688,
      "ience": 5689,
      "tasks": 5690,
      "vend": 5691,
      "leather": 5692,
      "forgot": 5693,
      "agues": 5694,
      "shame": 5695,
      "portal": 5696,
      "prison": 5697,
      "plants": 5698,
      "shocked": 5699,
      "interns": 5700,
      "bles": 5701,
      "drunk": 5702,
      "fernand": 5703,
      "ski": 5704,
      "ibilities": 5705,
      "sched": 5706,
      "returned": 5707,
      "hostel": 5708,
      "silver": 5709,
      "cabin": 5710,
      "victim": 5711,
      "articles": 5712,
      "glasses": 5713,
      "contribute": 5714,
      "efficient": 5715,
      "alert": 5716,
      "zoom": 5717,
      "pregnant": 5718,
      "bask": 5719,
      "remind": 5720,
      "los": 5721,
      "enty": 5722,
      "rot": 5723,
      "plug": 5724,
      "tives": 5725,
      "pocket": 5726,
      "afri": 5727,
      "newly": 5728,
      "pra": 5729,
      "suggests": 5730,
      "jewell": 5731,
      "2021": 5732,
      "lotus": 5733,
      "pull": 5734,
      "touristy": 5735,
      "wela": 5736,
      "mirror": 5737,
      "includes": 5738,
      "skincare": 5739,
      "improving": 5740,
      "paint": 5741,
      "requested": 5742,
      "experts": 5743,
      "promoting": 5744,
      "housing": 5745,
      "innov": 5746,
      "remaining": 5747,
      "punish": 5748,
      "diagnosed": 5749,
      "snacks": 5750,
      "accurate": 5751,
      "heavily": 5752,
      "pekoe": 5753,
      "absurd": 5754,
      "!?": 5755,
      "\\\\": 5756,
      "dir": 5757,
      "gor": 5758,
      "lma": 5759,
      "shel": 5760,
      "ums": 5761,
      "aled": 5762,
      "aside": 5763,
      "leasing": 5764,
      "ched": 5765,
      "cosm": 5766,
      "braces": 5767,
      "mani": 5768,
      "lectures": 5769,
      "bie": 5770,
      "landing": 5771,
      "warm": 5772,
      "cameras": 5773,
      "runs": 5774,
      "stray": 5775,
      "skinny": 5776,
      "finishing": 5777,
      "ethical": 5778,
      "circle": 5779,
      "audio": 5780,
      "refused": 5781,
      "desperate": 5782,
      "snorkel": 5783,
      "explanation": 5784,
      "scheme": 5785,
      "suburbs": 5786,
      "consequences": 5787,
      "fernando": 5788,
      "cosmet": 5789,
      ".?": 5790,
      ":-": 5791,
      "fig": 5792,
      "imo": 5793,
      "jum": 5794,
      "rt": 5795,
      "tes": 5796,
      "uts": 5797,
      "infr": 5798,
      "wire": 5799,
      "mode": 5800,
      "index": 5801,
      "images": 5802,
      "loose": 5803,
      "cops": 5804,
      "wake": 5805,
      "production": 5806,
      "extent": 5807,
      "confusing": 5808,
      "capacity": 5809,
      "promises": 5810,
      "distur": 5811,
      "explained": 5812,
      "apartments": 5813,
      "mandatory": 5814,
      "challenging": 5815,
      "bullying": 5816,
      "emotional": 5817,
      "pharmacy": 5818,
      "false": 5819,
      "120": 5820,
      "sare": 5821,
      "enge": 5822,
      "rial": 5823,
      "amuwa": 5824,
      "becomes": 5825,
      "wid": 5826,
      "ette": 5827,
      "lio": 5828,
      "usion": 5829,
      "trial": 5830,
      "travelled": 5831,
      "15k": 5832,
      "supermarkets": 5833,
      "designers": 5834,
      "queue": 5835,
      "deciding": 5836,
      "patients": 5837,
      "operating": 5838,
      "golden": 5839,
      "analytics": 5840,
      "consultant": 5841,
      "editing": 5842,
      "committed": 5843,
      "collabor": 5844,
      "flowers": 5845,
      "craft": 5846,
      "rajag": 5847,
      "investors": 5848,
      "encountered": 5849,
      "cis": 5850,
      "cct": 5851,
      "eager": 5852,
      "pis": 5853,
      "riding": 5854,
      "nov": 5855,
      "loving": 5856,
      "extr": 5857,
      "france": 5858,
      "concept": 5859,
      "teeth": 5860,
      "whey": 5861,
      "aint": 5862,
      "greet": 5863,
      "makeup": 5864,
      "reless": 5865,
      "passing": 5866,
      "elsewhere": 5867,
      "moments": 5868,
      "regards": 5869,
      "personality": 5870,
      "pilot": 5871,
      "properties": 5872,
      "activate": 5873,
      "hype": 5874,
      "faster": 5875,
      "literature": 5876,
      "hitting": 5877,
      "40k": 5878,
      "focusing": 5879,
      "responsibility": 5880,
      "dreams": 5881,
      "90s": 5882,
      "constant": 5883,
      "sustainable": 5884,
      "disgusting": 5885,
      "siblings": 5886,
      "christian": 5887,
      "ease": 5888,
      "glad": 5889,
      "hrs": 5890,
      "kap": 5891,
      "lm": 5892,
      "pon": 5893,
      "resu": 5894,
      "riy": 5895,
      "dol": 5896,
      "rob": 5897,
      "posal": 5898,
      "tek": 5899,
      "quot": 5900,
      "opposition": 5901,
      "2015": 5902,
      "hera": 5903,
      "apping": 5904,
      "distr": 5905,
      "letters": 5906,
      "sides": 5907,
      "funded": 5908,
      "easiest": 5909,
      "files": 5910,
      "legitimate": 5911,
      "potentially": 5912,
      "organis": 5913,
      "urgently": 5914,
      "domin": 5915,
      "challenge": 5916,
      "significantly": 5917,
      "recognition": 5918,
      "brief": 5919,
      "150k": 5920,
      "eastern": 5921,
      "ordinary": 5922,
      "intimate": 5923,
      "bomb": 5924,
      "retirement": 5925,
      "carnage": 5926,
      "basket": 5927,
      "!\"": 5928,
      "kara": 5929,
      "rural": 5930,
      "task": 5931,
      "uri": 5932,
      "ened": 5933,
      "alp": 5934,
      "stone": 5935,
      "acce": 5936,
      "actor": 5937,
      "admission": 5938,
      "neither": 5939,
      "ifs": 5940,
      "exem": 5941,
      "iles": 5942,
      "trick": 5943,
      "nutr": 5944,
      "password": 5945,
      "parks": 5946,
      "signs": 5947,
      "failure": 5948,
      "falling": 5949,
      "apolog": 5950,
      "hanging": 5951,
      "authority": 5952,
      "priority": 5953,
      "photographer": 5954,
      "princi": 5955,
      "printing": 5956,
      "2000s": 5957,
      "adopt": 5958,
      "introduced": 5959,
      "supportive": 5960,
      "assignment": 5961,
      "character": 5962,
      "amounts": 5963,
      "bell": 5964,
      "ctiv": 5965,
      "fm": 5966,
      "fers": 5967,
      "shad": 5968,
      "reports": 5969,
      "erc": 5970,
      "isol": 5971,
      "orph": 5972,
      "iting": 5973,
      "rip": 5974,
      "memes": 5975,
      "idiot": 5976,
      "plenty": 5977,
      "exclusive": 5978,
      "odd": 5979,
      "eves": 5980,
      "vibes": 5981,
      "dudes": 5982,
      "discover": 5983,
      "rum": 5984,
      "locking": 5985,
      "driven": 5986,
      "designing": 5987,
      "treas": 5988,
      "sunset": 5989,
      "bands": 5990,
      "lake": 5991,
      "virtual": 5992,
      "nicot": 5993,
      "repairs": 5994,
      "petrol": 5995,
      "institutes": 5996,
      "labor": 5997,
      "america": 5998,
      "flood": 5999,
      "critical": 6000,
      "flags": 6001,
      "lecturers": 6002,
      "cycling": 6003,
      "ayurvedic": 6004,
      "surrounding": 6005,
      "thousand": 6006,
      "4k": 6007,
      "gall": 6008,
      "hatt": 6009,
      "juni": 6010,
      "nations": 6011,
      "tons": 6012,
      "vlog": 6013,
      "்க": 6014,
      "angry": 6015,
      "reme": 6016,
      "eries": 6017,
      "stating": 6018,
      "icial": 6019,
      "lyrics": 6020,
      "loyal": 6021,
      "units": 6022,
      "ilty": 6023,
      "astro": 6024,
      "jokes": 6025,
      "spam": 6026,
      "afterwards": 6027,
      "fucked": 6028,
      "underrated": 6029,
      "qualified": 6030,
      "charger": 6031,
      "titles": 6032,
      "routine": 6033,
      "condom": 6034,
      "supermarket": 6035,
      "holder": 6036,
      "boards": 6037,
      "activated": 6038,
      "colleagues": 6039,
      "enjoying": 6040,
      "claimed": 6041,
      "domestic": 6042,
      "obtained": 6043,
      "suffer": 6044,
      "memory": 6045,
      "grown": 6046,
      "duration": 6047,
      "korea": 6048,
      "navigate": 6049,
      "neuro": 6050,
      "percentage": 6051,
      "discounts": 6052,
      "delete": 6053,
      "ceremony": 6054,
      "pas": 6055,
      "rav": 6056,
      "rcs": 6057,
      "sac": 6058,
      "unex": 6059,
      "refu": 6060,
      "returning": 6061,
      "stun": 6062,
      "haput": 6063,
      "unp": 6064,
      "grant": 6065,
      "dias": 6066,
      "airb": 6067,
      "rumor": 6068,
      "integr": 6069,
      "realised": 6070,
      "struct": 6071,
      "viral": 6072,
      "returns": 6073,
      "renewed": 6074,
      "conditioner": 6075,
      "ugly": 6076,
      "installed": 6077,
      "lucky": 6078,
      "sufficient": 6079,
      "director": 6080,
      "magic": 6081,
      "impression": 6082,
      "reccomend": 6083,
      "pvt": 6084,
      "yoga": 6085,
      "mouth": 6086,
      "lmao": 6087,
      "rajagiriya": 6088,
      "nicotine": 6089,
      "haputale": 6090,
      "94": 6091,
      "ake": 6092,
      "hort": 6093,
      "lenses": 6094,
      "nawala": 6095,
      "sis": 6096,
      "zed": 6097,
      "insp": 6098,
      "rely": 6099,
      "repaired": 6100,
      "asp": 6101,
      "amd": 6102,
      "neck": 6103,
      "pear": 6104,
      "hired": 6105,
      "maha": 6106,
      "prepaid": 6107,
      "uled": 6108,
      "everybody": 6109,
      "instant": 6110,
      "drag": 6111,
      "supports": 6112,
      "attended": 6113,
      "plains": 6114,
      "graduation": 6115,
      "finances": 6116,
      "designs": 6117,
      "hindu": 6118,
      "boring": 6119,
      "certificates": 6120,
      "failing": 6121,
      "crying": 6122,
      "emails": 6123,
      "500k": 6124,
      "operate": 6125,
      "employed": 6126,
      "cousins": 6127,
      "perfumes": 6128,
      "korean": 6129,
      "flexible": 6130,
      "compensation": 6131,
      "organizations": 6132,
      "dd": 6133,
      "iam": 6134,
      "loun": 6135,
      "mun": 6136,
      "niss": 6137,
      "orant": 6138,
      "ene": 6139,
      "arily": 6140,
      "whol": 6141,
      "entered": 6142,
      "iry": 6143,
      "indones": 6144,
      "temu": 6145,
      "preference": 6146,
      "tawa": 6147,
      "evidence": 6148,
      "mbled": 6149,
      "2018": 6150,
      "planet": 6151,
      "dissan": 6152,
      "forms": 6153,
      "passive": 6154,
      "2026": 6155,
      "mattress": 6156,
      "trees": 6157,
      "quito": 6158,
      "menu": 6159,
      "traine": 6160,
      "brothers": 6161,
      "entirely": 6162,
      "rugby": 6163,
      "pointing": 6164,
      "manufact": 6165,
      "motivated": 6166,
      "advisor": 6167,
      "mosquito": 6168,
      "primary": 6169,
      "biscu": 6170,
      "bicy": 6171,
      "discipline": 6172,
      "scenario": 6173,
      "opposite": 6174,
      "cm": 6175,
      "ique": 6176,
      "kin": 6177,
      "ore": 6178,
      "oct": 6179,
      "pand": 6180,
      "onic": 6181,
      "stances": 6182,
      "icted": 6183,
      "ables": 6184,
      "conce": 6185,
      "maid": 6186,
      "earned": 6187,
      "portfo": 6188,
      "monk": 6189,
      "2017": 6190,
      "traveller": 6191,
      "discovered": 6192,
      "ructure": 6193,
      "cuis": 6194,
      "wellness": 6195,
      "tours": 6196,
      "clos": 6197,
      "folk": 6198,
      "haircut": 6199,
      "powerful": 6200,
      "holders": 6201,
      "tradition": 6202,
      "footage": 6203,
      "naruwa": 6204,
      "consumer": 6205,
      "liberty": 6206,
      "complicated": 6207,
      "doubts": 6208,
      "escape": 6209,
      "sweden": 6210,
      "snorkeling": 6211,
      "manufacturing": 6212,
      "'.": 6213,
      "700": 6214,
      "bail": 6215,
      "fren": 6216,
      "huna": 6217,
      "ots": 6218,
      "rage": 6219,
      "vous": 6220,
      "anni": 6221,
      "inghe": 6222,
      "edge": 6223,
      "omed": 6224,
      "acle": 6225,
      "cham": 6226,
      "wireless": 6227,
      "llb": 6228,
      "aps": 6229,
      "termin": 6230,
      "agala": 6231,
      "guilty": 6232,
      "ssd": 6233,
      "tricks": 6234,
      "servers": 6235,
      "aws": 6236,
      "award": 6237,
      "ruhuna": 6238,
      "shots": 6239,
      "histori": 6240,
      "letting": 6241,
      "epis": 6242,
      "careers": 6243,
      "10th": 6244,
      "handed": 6245,
      "generations": 6246,
      "slip": 6247,
      "dining": 6248,
      "hospitality": 6249,
      "recovery": 6250,
      "domain": 6251,
      "crucial": 6252,
      "priorit": 6253,
      "risky": 6254,
      "dutch": 6255,
      "hunt": 6256,
      "tailor": 6257,
      "relaxing": 6258,
      "argument": 6259,
      "advertising": 6260,
      "clinic": 6261,
      "vegetarian": 6262,
      "conflict": 6263,
      "trauma": 6264,
      "creepy": 6265,
      "circum": 6266,
      "infrast": 6267,
      "5th": 6268,
      "dive": 6269,
      "knu": 6270,
      "pdf": 6271,
      "xbox": 6272,
      "inqui": 6273,
      "doc": 6274,
      "bulk": 6275,
      "idal": 6276,
      "gota": 6277,
      "root": 6278,
      "unknown": 6279,
      "ques": 6280,
      "cope": 6281,
      "privi": 6282,
      "fried": 6283,
      "ggers": 6284,
      "cuse": 6285,
      "carrier": 6286,
      "resid": 6287,
      "ivity": 6288,
      "attest": 6289,
      "ndb": 6290,
      "transp": 6291,
      "palest": 6292,
      "missions": 6293,
      "sisters": 6294,
      "label": 6295,
      "autom": 6296,
      "incidents": 6297,
      "reflect": 6298,
      "laser": 6299,
      "satisfied": 6300,
      "theatre": 6301,
      "strength": 6302,
      "horton": 6303,
      "bicycle": 6304,
      "900": 6305,
      "bak": 6306,
      "cable": 6307,
      "leng": 6308,
      "rome": 6309,
      "thon": 6310,
      "ingred": 6311,
      "arab": 6312,
      "asus": 6313,
      "leaf": 6314,
      "league": 6315,
      "forcing": 6316,
      "habit": 6317,
      "liance": 6318,
      "tray": 6319,
      "asses": 6320,
      "visible": 6321,
      "freaking": 6322,
      "travels": 6323,
      "facts": 6324,
      "wattala": 6325,
      "creat": 6326,
      "syn": 6327,
      "donal": 6328,
      "uki": 6329,
      "gyne": 6330,
      "pickup": 6331,
      "natur": 6332,
      "koll": 6333,
      "actively": 6334,
      "departure": 6335,
      "authorized": 6336,
      "constit": 6337,
      "attacks": 6338,
      "perfectly": 6339,
      "immediate": 6340,
      "accidentally": 6341,
      "carrying": 6342,
      "fighting": 6343,
      "assignments": 6344,
      "administration": 6345,
      "polonnaruwa": 6346,
      "trainee": 6347,
      "34": 6348,
      "eco": 6349,
      "hn": 6350,
      "js": 6351,
      "pics": 6352,
      "yy": 6353,
      "ina": 6354,
      "tood": 6355,
      "ales": 6356,
      "dos": 6357,
      "suck": 6358,
      "suits": 6359,
      "unlike": 6360,
      "ationally": 6361,
      "pected": 6362,
      "feas": 6363,
      "excell": 6364,
      "tims": 6365,
      "hil": 6366,
      "hikes": 6367,
      "upgrad": 6368,
      "fool": 6369,
      "ops": 6370,
      "byob": 6371,
      "firms": 6372,
      "highlight": 6373,
      "cular": 6374,
      "flat": 6375,
      "crap": 6376,
      "movement": 6377,
      "iciency": 6378,
      "25k": 6379,
      "halal": 6380,
      "transferred": 6381,
      "speaker": 6382,
      "originally": 6383,
      "bedroom": 6384,
      "controller": 6385,
      "boost": 6386,
      "boxes": 6387,
      "complaints": 6388,
      "logistics": 6389,
      "ccc": 6390,
      "lifted": 6391,
      "installment": 6392,
      "reduced": 6393,
      "victims": 6394,
      "meaningful": 6395,
      "pieces": 6396,
      "violence": 6397,
      "bourne": 6398,
      "spreading": 6399,
      "melbourne": 6400,
      "description": 6401,
      "officially": 6402,
      "exposure": 6403,
      "shampoo": 6404,
      "volunteer": 6405,
      "abandoned": 6406,
      "lmk": 6407,
      "resume": 6408,
      "orphan": 6409,
      "junior": 6410,
      "unexpected": 6411,
      "dissanayake": 6412,
      "infrastructure": 6413,
      "knuck": 6414,
      "aqu": 6415,
      "fas": 6416,
      "irel": 6417,
      "jbl": 6418,
      "mare": 6419,
      "vint": 6420,
      "yel": 6421,
      "remit": 6422,
      "ofc": 6423,
      "keys": 6424,
      "prop": 6425,
      "prove": 6426,
      "shan": 6427,
      "shed": 6428,
      "sake": 6429,
      "mbbs": 6430,
      "spected": 6431,
      "serving": 6432,
      "awk": 6433,
      "awarden": 6434,
      "subs": 6435,
      "jeans": 6436,
      "buddy": 6437,
      "decade": 6438,
      "differently": 6439,
      "balapitiya": 6440,
      "shipped": 6441,
      "dealers": 6442,
      "gaining": 6443,
      "killing": 6444,
      "sleeping": 6445,
      "deposits": 6446,
      "hsbc": 6447,
      "softlogic": 6448,
      "influencer": 6449,
      "behaviour": 6450,
      "prescribed": 6451,
      "progressive": 6452,
      "hobby": 6453,
      "alleged": 6454,
      "understood": 6455,
      "basketball": 6456,
      "ireland": 6457,
      "vintage": 6458,
      "05": 6459,
      "89": 6460,
      "iy": 6461,
      "kne": 6462,
      "oa": 6463,
      "rating": 6464,
      "t20": 6465,
      "wine": 6466,
      "annex": 6467,
      "theory": 6468,
      "nostal": 6469,
      "ames": 6470,
      "holy": 6471,
      "suz": 6472,
      "pep": 6473,
      "tile": 6474,
      "proposal": 6475,
      "visitors": 6476,
      "gger": 6477,
      "residence": 6478,
      "internal": 6479,
      "smile": 6480,
      "plays": 6481,
      "weekly": 6482,
      "nightmare": 6483,
      "networks": 6484,
      "dropping": 6485,
      "mentioning": 6486,
      "lazy": 6487,
      "queues": 6488,
      "ika": 6489,
      "picking": 6490,
      "organic": 6491,
      "horror": 6492,
      "dancing": 6493,
      "audience": 6494,
      "pink": 6495,
      "subscribe": 6496,
      "israeli": 6497,
      "mcq": 6498,
      "aussie": 6499,
      "window": 6500,
      "equival": 6501,
      "expertise": 6502,
      "officials": 6503,
      "variety": 6504,
      "tutoring": 6505,
      "herself": 6506,
      "curriculum": 6507,
      "shooting": 6508,
      "faith": 6509,
      "manipul": 6510,
      "ctivity": 6511,
      "airbnb": 6512,
      "nostalg": 6513,
      "3000": 6514,
      "dil": 6515,
      "groom": 6516,
      "jaya": 6517,
      "pets": 6518,
      "raw": 6519,
      "sens": 6520,
      "eria": 6521,
      "edia": 6522,
      "stance": 6523,
      "ldr": 6524,
      "sooo": 6525,
      "weera": 6526,
      "outlet": 6527,
      "estim": 6528,
      "pere": 6529,
      "excess": 6530,
      "pov": 6531,
      "indic": 6532,
      "maf": 6533,
      "shar": 6534,
      "aut": 6535,
      "peoples": 6536,
      "rented": 6537,
      "diy": 6538,
      "bruh": 6539,
      "versary": 6540,
      "pron": 6541,
      "plane": 6542,
      "wondered": 6543,
      "nervous": 6544,
      "crimes": 6545,
      "mentor": 6546,
      "merch": 6547,
      "shortage": 6548,
      "writer": 6549,
      "managers": 6550,
      "selecting": 6551,
      "batteries": 6552,
      "tablet": 6553,
      "grandma": 6554,
      "neighb": 6555,
      "ownership": 6556,
      "argue": 6557,
      "threatening": 6558,
      "promotion": 6559,
      "throwing": 6560,
      "hacked": 6561,
      "announced": 6562,
      "mountain": 6563,
      "gigs": 6564,
      "wisdom": 6565,
      "fruit": 6566,
      "distribut": 6567,
      "strategies": 6568,
      "conservative": 6569,
      "portfolio": 6570,
      "anniversary": 6571,
      "historical": 6572,
      "kollup": 6573,
      "knuckles": 6574,
      "\\[": 6575,
      "dms": 6576,
      "ked": 6577,
      "nail": 6578,
      "rack": 6579,
      "wso": 6580,
      "wagon": 6581,
      "isp": 6582,
      "orient": 6583,
      "alive": 6584,
      "alous": 6585,
      "edition": 6586,
      "forts": 6587,
      "ache": 6588,
      "beef": 6589,
      "outdated": 6590,
      "llers": 6591,
      "plaza": 6592,
      "fron": 6593,
      "teens": 6594,
      "slpp": 6595,
      "buyer": 6596,
      "span": 6597,
      "sphere": 6598,
      "spices": 6599,
      "monkey": 6600,
      "dia": 6601,
      "curtin": 6602,
      "aches": 6603,
      "traveled": 6604,
      "blah": 6605,
      "faces": 6606,
      "founder": 6607,
      "lesser": 6608,
      "streets": 6609,
      "specs": 6610,
      "balan": 6611,
      "denim": 6612,
      "180": 6613,
      "belief": 6614,
      "capable": 6615,
      "rising": 6616,
      "risks": 6617,
      "hostels": 6618,
      "depending": 6619,
      "involve": 6620,
      "earnings": 6621,
      "snap": 6622,
      "teled": 6623,
      "300k": 6624,
      "codes": 6625,
      "terrorist": 6626,
      "cctv": 6627,
      "mafia": 6628,
      "wso2": 6629,
      "cath": 6630,
      "dra": 6631,
      "eper": 6632,
      "jump": 6633,
      "nine": 6634,
      "ox": 6635,
      "rings": 6636,
      "tte": 6637,
      "xia": 6638,
      "onwards": 6639,
      "toward": 6640,
      "river": 6641,
      "champ": 6642,
      "eties": 6643,
      "posh": 6644,
      "shout": 6645,
      "shall": 6646,
      "assess": 6647,
      "scu": 6648,
      "couldnt": 6649,
      "overcome": 6650,
      "rub": 6651,
      "nuts": 6652,
      "mature": 6653,
      "transfers": 6654,
      "shower": 6655,
      "lesson": 6656,
      "obsess": 6657,
      "araja": 6658,
      "industries": 6659,
      "reporting": 6660,
      "painting": 6661,
      "python": 6662,
      "penal": 6663,
      "liquid": 6664,
      "deducted": 6665,
      "predict": 6666,
      "fabric": 6667,
      "affiliated": 6668,
      "hatton": 6669,
      "french": 6670,
      "suzuki": 6671,
      "neighbors": 6672,
      "naw": 6673,
      "packing": 6674,
      "ras": 6675,
      "sq": 6676,
      "tank": 6677,
      "inary": 6678,
      "oured": 6679,
      "stall": 6680,
      "nood": 6681,
      "chest": 6682,
      "havelock": 6683,
      "suspend": 6684,
      "boot": 6685,
      "exclu": 6686,
      "exerc": 6687,
      "decre": 6688,
      "agers": 6689,
      "pods": 6690,
      "convin": 6691,
      "ula": 6692,
      "yours": 6693,
      "placing": 6694,
      "geo": 6695,
      "ishing": 6696,
      "internationally": 6697,
      "genoc": 6698,
      "friendship": 6699,
      "salt": 6700,
      "salons": 6701,
      "otic": 6702,
      "biased": 6703,
      "pub": 6704,
      "examination": 6705,
      "30th": 6706,
      "generated": 6707,
      "cript": 6708,
      "industrial": 6709,
      "scold": 6710,
      "ahini": 6711,
      "raining": 6712,
      "beginners": 6713,
      "wasted": 6714,
      "operations": 6715,
      "registering": 6716,
      "stripe": 6717,
      "communicate": 6718,
      "battle": 6719,
      "associated": 6720,
      "permanently": 6721,
      "delayed": 6722,
      "consistent": 6723,
      "aspects": 6724,
      "graphics": 6725,
      "scratch": 6726,
      "entertainment": 6727,
      "lounge": 6728,
      "awkward": 6729,
      "%.": 6730,
      "aes": 6731,
      "lion": 6732,
      "pf": 6733,
      "phas": 6734,
      "tvs": 6735,
      "uoc": 6736,
      "wf": 6737,
      "wet": 6738,
      "inspir": 6739,
      "islam": 6740,
      "stated": 6741,
      "stability": 6742,
      "acca": 6743,
      "beard": 6744,
      "cher": 6745,
      "chenna": 6746,
      "mechat": 6747,
      "abled": 6748,
      "suv": 6749,
      "iran": 6750,
      "excuse": 6751,
      "thered": 6752,
      "eving": 6753,
      "vish": 6754,
      "duties": 6755,
      "ruka": 6756,
      "expats": 6757,
      "owns": 6758,
      "accountability": 6759,
      "hardware": 6760,
      "titude": 6761,
      "legend": 6762,
      "angel": 6763,
      "tested": 6764,
      "removal": 6765,
      "promised": 6766,
      "motherboard": 6767,
      "graphy": 6768,
      "transferring": 6769,
      "speaks": 6770,
      "concerning": 6771,
      "gentle": 6772,
      "wasting": 6773,
      "smartphone": 6774,
      "surprising": 6775,
      "settings": 6776,
      "spicy": 6777,
      "launched": 6778,
      "convenience": 6779,
      "resignation": 6780,
      "encourage": 6781,
      "cuisine": 6782,
      "circumstances": 6783,
      "naturally": 6784,
      "chennai": 6785,
      "mechatron": 6786,
      "9th": 6787,
      "\\]": 6788,
      "bally": 6789,
      "bond": 6790,
      "hv": 6791,
      "nons": 6792,
      "oly": 6793,
      "qa": 6794,
      "siri": 6795,
      "ugu": 6796,
      "recording": 6797,
      "esim": 6798,
      "stig": 6799,
      "abs": 6800,
      "abort": 6801,
      "soap": 6802,
      "unlock": 6803,
      "tery": 6804,
      "exists": 6805,
      "exposed": 6806,
      "aggress": 6807,
      "hibit": 6808,
      "imately": 6809,
      "ultim": 6810,
      "tune": 6811,
      "ps4": 6812,
      "spap": 6813,
      "answered": 6814,
      "scary": 6815,
      "centers": 6816,
      "fiver": 6817,
      "jealous": 6818,
      "dying": 6819,
      "rants": 6820,
      "badmint": 6821,
      "licens": 6822,
      "temper": 6823,
      "researching": 6824,
      "streams": 6825,
      "largest": 6826,
      "safely": 6827,
      "niche": 6828,
      "burn": 6829,
      "marriages": 6830,
      "80s": 6831,
      "café": 6832,
      "hiru": 6833,
      "exciting": 6834,
      "criminal": 6835,
      "cigars": 6836,
      "sweat": 6837,
      "teenager": 6838,
      "lecturer": 6839,
      "sabarag": 6840,
      "hesitant": 6841,
      "consumption": 6842,
      "kapruka": 6843,
      "shady": 6844,
      "diaspor": 6845,
      "equivalent": 6846,
      "ultimate": 6847,
      "badminton": 6848,
      "38": 6849,
      "?(": 6850,
      "cart": 6851,
      "fup": 6852,
      "mens": 6853,
      "ood": 6854,
      "pg": 6855,
      "pit": 6856,
      "insul": 6857,
      "reserve": 6858,
      "acc": 6859,
      "beware": 6860,
      "buss": 6861,
      "roast": 6862,
      "irya": 6863,
      "convince": 6864,
      "tee": 6865,
      "upset": 6866,
      "redd": 6867,
      "newspap": 6868,
      "spice": 6869,
      "spring": 6870,
      "england": 6871,
      "scand": 6872,
      "2010": 6873,
      "crew": 6874,
      "survi": 6875,
      "bankrupt": 6876,
      "treats": 6877,
      "symb": 6878,
      "hotline": 6879,
      "allowance": 6880,
      "occup": 6881,
      "venues": 6882,
      "designed": 6883,
      "hypo": 6884,
      "breakup": 6885,
      "comfortably": 6886,
      "chemical": 6887,
      "labour": 6888,
      "sadly": 6889,
      "trinco": 6890,
      "marrying": 6891,
      "ignored": 6892,
      "bambalapitiya": 6893,
      "--------------------------------": 6894,
      "engagement": 6895,
      "automatically": 6896,
      "cartoon": 6897,
      "jewellery": 6898,
      "ingredients": 6899,
      "37": 6900,
      "44": 6901,
      "bies": 6902,
      "bright": 6903,
      "eg": 6904,
      "eel": 6905,
      "fiction": 6906,
      "gpu": 6907,
      "kia": 6908,
      "pus": 6909,
      "pig": 6910,
      "rab": 6911,
      "scan": 6912,
      "sau": 6913,
      "inqu": 6914,
      "omi": 6915,
      "veter": 6916,
      "amend": 6917,
      "bucks": 6918,
      "supre": 6919,
      "ira": 6920,
      "apura": 6921,
      "usb": 6922,
      "decor": 6923,
      "commute": 6924,
      "workout": 6925,
      "visits": 6926,
      "rentals": 6927,
      "dum": 6928,
      "stood": 6929,
      "drives": 6930,
      "pola": 6931,
      "ptions": 6932,
      "corner": 6933,
      "matic": 6934,
      "surely": 6935,
      "packs": 6936,
      "funding": 6937,
      "trainer": 6938,
      "efforts": 6939,
      "breath": 6940,
      "farm": 6941,
      "picked": 6942,
      "receipt": 6943,
      "16th": 6944,
      "fastest": 6945,
      "owning": 6946,
      "cutting": 6947,
      "winning": 6948,
      "painful": 6949,
      "switched": 6950,
      "60k": 6951,
      "labs": 6952,
      "silva": 6953,
      "walked": 6954,
      "attractions": 6955,
      "secretary": 6956,
      "prints": 6957,
      "combination": 6958,
      "dentist": 6959,
      "mcdonal": 6960,
      "bloody": 6961,
      "frequent": 6962,
      "repeat": 6963,
      "nanu": 6964,
      "guests": 6965,
      "detailed": 6966,
      "records": 6967,
      "grocery": 6968,
      "restricted": 6969,
      "anonymous": 6970,
      "pattern": 6971,
      "dhl": 6972,
      "controversial": 6973,
      "accepting": 6974,
      "rumors": 6975,
      "feasible": 6976,
      "perera": 6977,
      "kollupitiya": 6978,
      "cathol": 6979,
      "suspended": 6980,
      "diaspora": 6981,
      "39": 6982,
      "blow": 6983,
      "ez": 6984,
      "gpa": 6985,
      "mist": 6986,
      "pills": 6987,
      "vfs": 6988,
      "wins": 6989,
      "reset": 6990,
      "ousl": 6991,
      "atmo": 6992,
      "sti": 6993,
      "eliness": 6994,
      "chil": 6995,
      "unnecessary": 6996,
      "tier": 6997,
      "odi": 6998,
      "preh": 6999,
      "advised": 7000,
      "audit": 7001,
      "utter": 7002,
      "viet": 7003,
      "vibr": 7004,
      "manner": 7005,
      "sheet": 7006,
      "awful": 7007,
      "startups": 7008,
      "shock": 7009,
      "icaloa": 7010,
      "wella": 7011,
      "pathetic": 7012,
      "packed": 7013,
      "dynam": 7014,
      "privately": 7015,
      "pulled": 7016,
      "donate": 7017,
      "learnt": 7018,
      "elected": 7019,
      "meanwhile": 7020,
      "sunscreen": 7021,
      "loneliness": 7022,
      "traders": 7023,
      "discussing": 7024,
      "improved": 7025,
      "80k": 7026,
      "improvement": 7027,
      "gained": 7028,
      "academics": 7029,
      "bottom": 7030,
      "procedures": 7031,
      "ministers": 7032,
      "pushing": 7033,
      "established": 7034,
      "quote": 7035,
      "leadership": 7036,
      "square": 7037,
      "preparing": 7038,
      "rtx": 7039,
      "inspired": 7040,
      "nissan": 7041,
      "obsessed": 7042,
      "sabaragamuwa": 7043,
      "reddits": 7044,
      "atmosphere": 7045,
      "03": 7046,
      "\\~": 7047,
      "athe": 7048,
      "bid": 7049,
      "equal": 7050,
      "jet": 7051,
      "kam": 7052,
      "kiri": 7053,
      "kfc": 7054,
      "nis": 7055,
      "pfc": 7056,
      "tun": 7057,
      "inju": 7058,
      "republic": 7059,
      "replic": 7060,
      "erg": 7061,
      "lyce": 7062,
      "seaf": 7063,
      "wik": 7064,
      "adi": 7065,
      "verter": 7066,
      "pean": 7067,
      "females": 7068,
      "kings": 7069,
      "artific": 7070,
      "fold": 7071,
      "otherap": 7072,
      "dilem": 7073,
      "inters": 7074,
      "fianc": 7075,
      "stops": 7076,
      "meds": 7077,
      "contacting": 7078,
      "biomed": 7079,
      "puts": 7080,
      "clueless": 7081,
      "addiction": 7082,
      "wednes": 7083,
      "denied": 7084,
      "alevels": 7085,
      "strate": 7086,
      "barber": 7087,
      "casually": 7088,
      "filing": 7089,
      "burden": 7090,
      "hosting": 7091,
      "renewing": 7092,
      "importantly": 7093,
      "stressful": 7094,
      "machines": 7095,
      "withdrawal": 7096,
      "coldplay": 7097,
      "clinical": 7098,
      "tattoos": 7099,
      "forgettable": 7100,
      "nano": 7101,
      "bullshit": 7102,
      "overwhelmed": 7103,
      "category": 7104,
      "leaning": 7105,
      "agriculture": 7106,
      "cbsl": 7107,
      "cotton": 7108,
      "heritage": 7109,
      "figuring": 7110,
      "saree": 7111,
      "dilemma": 7112,
      "wednesday": 7113,
      "04": 7114,
      "3as": 7115,
      "cave": 7116,
      "dust": 7117,
      "s23": 7118,
      "inc": 7119,
      "indoor": 7120,
      "resolve": 7121,
      "atne": 7122,
      "iter": 7123,
      "novel": 7124,
      "elite": 7125,
      "lovers": 7126,
      "bug": 7127,
      "suf": 7128,
      "unforgettable": 7129,
      "aptitude": 7130,
      "fraud": 7131,
      "demon": 7132,
      "iled": 7133,
      "tai": 7134,
      "civi": 7135,
      "derana": 7136,
      "division": 7137,
      "engaged": 7138,
      "scar": 7139,
      "manif": 7140,
      "planing": 7141,
      "shein": 7142,
      "poster": 7143,
      "happiness": 7144,
      "creators": 7145,
      "paran": 7146,
      "trained": 7147,
      "treating": 7148,
      "northern": 7149,
      "nightlife": 7150,
      "1500": 7151,
      "ukrain": 7152,
      "signature": 7153,
      "straw": 7154,
      "japura": 7155,
      "aiming": 7156,
      "certifications": 7157,
      "films": 7158,
      "sigirya": 7159,
      "teams": 7160,
      "14th": 7161,
      "vacancy": 7162,
      "requesting": 7163,
      "operation": 7164,
      "bookings": 7165,
      "clubbing": 7166,
      "nike": 7167,
      "lifting": 7168,
      "celebration": 7169,
      "circles": 7170,
      "criteria": 7171,
      "mplo": 7172,
      "suppli": 7173,
      "buddhists": 7174,
      "introduce": 7175,
      "motivation": 7176,
      "describe": 7177,
      "appearance": 7178,
      "announce": 7179,
      "quota": 7180,
      "aragal": 7181,
      "wickre": 7182,
      "virginity": 7183,
      "witnessed": 7184,
      "conducting": 7185,
      "guarantee": 7186,
      "nutrition": 7187,
      "genocide": 7188,
      "aggressive": 7189,
      "fiancé": 7190,
      "civili": 7191,
      "36": 7192,
      "54": 7193,
      "barri": 7194,
      "blocking": 7195,
      "grid": 7196,
      "iors": 7197,
      "kno": 7198,
      "tldr": 7199,
      "uda": 7200,
      "inappropriate": 7201,
      "thar": 7202,
      "thurs": 7203,
      "assets": 7204,
      "acqui": 7205,
      "actors": 7206,
      "lore": 7207,
      "mee": 7208,
      "lil": 7209,
      "goss": 7210,
      "fever": 7211,
      "tshir": 7212,
      "hier": 7213,
      "gum": 7214,
      "elled": 7215,
      "20th": 7216,
      "avid": 7217,
      "malay": 7218,
      "login": 7219,
      "dram": 7220,
      "closing": 7221,
      "lookout": 7222,
      "insist": 7223,
      "breast": 7224,
      "politician": 7225,
      "damaged": 7226,
      "promise": 7227,
      "statements": 7228,
      "mothers": 7229,
      "borrow": 7230,
      "discussed": 7231,
      "chatting": 7232,
      "accessible": 7233,
      "apologies": 7234,
      "technologies": 7235,
      "appears": 7236,
      "presence": 7237,
      "cinec": 7238,
      "urudu": 7239,
      "parliamentary": 7240,
      "rape": 7241,
      "hopes": 7242,
      "rajapaksha": 7243,
      "batticaloa": 7244,
      "effectively": 7245,
      "calculate": 7246,
      "advantages": 7247,
      "emotionally": 7248,
      "pollution": 7249,
      "unemplo": 7250,
      "debate": 7251,
      "harassment": 7252,
      "fragrance": 7253,
      "cabinet": 7254,
      "greetings": 7255,
      "indonesia": 7256,
      "yellow": 7257,
      "remitt": 7258,
      "pfca": 7259,
      "aragalaya": 7260,
      "85": 7261,
      "aer": 7262,
      "awe": 7263,
      "bite": 7264,
      "dred": 7265,
      "gage": 7266,
      "gaz": 7267,
      "m2": 7268,
      "insecure": 7269,
      "anger": 7270,
      "toler": 7271,
      "enh": 7272,
      "leak": 7273,
      "leaked": 7274,
      "began": 7275,
      "secon": 7276,
      "plates": 7277,
      "console": 7278,
      "protests": 7279,
      "ils": 7280,
      "mah": 7281,
      "colum": 7282,
      "grace": 7283,
      "sav": 7284,
      "diverse": 7285,
      "muse": 7286,
      "chosen": 7287,
      "interact": 7288,
      "instance": 7289,
      "taxis": 7290,
      "suppose": 7291,
      "valent": 7292,
      "amaha": 7293,
      "decades": 7294,
      "bros": 7295,
      "scamming": 7296,
      "voters": 7297,
      "replied": 7298,
      "routers": 7299,
      "brings": 7300,
      "paste": 7301,
      "meter": 7302,
      "harsh": 7303,
      "sexually": 7304,
      "breaks": 7305,
      "fluent": 7306,
      "protection": 7307,
      "downloading": 7308,
      "panic": 7309,
      "towns": 7310,
      "bmw": 7311,
      "durable": 7312,
      "solely": 7313,
      "neighborhood": 7314,
      "counseling": 7315,
      "preferences": 7316,
      "entrepreneurs": 7317,
      "habits": 7318,
      "scheduled": 7319,
      "punishment": 7320,
      "alpha": 7321,
      "granted": 7322,
      "nonsense": 7323,
      "busses": 7324,
      "vietnam": 7325,
      "lyceum": 7326,
      "seconds": 7327,
      "border": 7328,
      "ires": 7329,
      "mg": 7330,
      "mone": 7331,
      "pir": 7332,
      "rama": 7333,
      "waves": 7334,
      "thick": 7335,
      "ange": 7336,
      "ancies": 7337,
      "rema": 7338,
      "reck": 7339,
      "recs": 7340,
      "ora": 7341,
      "asse": 7342,
      "whil": 7343,
      "amex": 7344,
      "havent": 7345,
      "loso": 7346,
      "bub": 7347,
      "hots": 7348,
      "suspect": 7349,
      "nether": 7350,
      "tral": 7351,
      "appointing": 7352,
      "boom": 7353,
      "urang": 7354,
      "kingdom": 7355,
      "dep": 7356,
      "proposed": 7357,
      "newbie": 7358,
      "compon": 7359,
      "divid": 7360,
      "brut": 7361,
      "brush": 7362,
      "cauti": 7363,
      "suggesting": 7364,
      "postal": 7365,
      "suring": 7366,
      "surname": 7367,
      "sinharaja": 7368,
      "clock": 7369,
      "reasonably": 7370,
      "checkout": 7371,
      "delays": 7372,
      "tified": 7373,
      "captain": 7374,
      "damro": 7375,
      "safer": 7376,
      "certification": 7377,
      "vacc": 7378,
      "satell": 7379,
      "truck": 7380,
      "succeed": 7381,
      "introverted": 7382,
      "appeared": 7383,
      "correctly": 7384,
      "accomod": 7385,
      "railways": 7386,
      "hoppers": 7387,
      "commitment": 7388,
      "teenagers": 7389,
      "clarification": 7390,
      "trends": 7391,
      "aunties": 7392,
      "vapes": 7393,
      "cigarette": 7394,
      "philoso": 7395,
      "ayurveda": 7396,
      "approximately": 7397,
      "lemme": 7398,
      "democracy": 7399,
      "landscape": 7400,
      "thousands": 7401,
      "fiverr": 7402,
      "eelam": 7403,
      "artificial": 7404,
      "whilst": 7405,
      "netherlands": 7406,
      "06": 7407,
      "360": 7408,
      "76": 7409,
      "8th": 7410,
      "ego": 7411,
      "iq": 7412,
      "np": 7413,
      "ology": 7414,
      "sr": 7415,
      "sizes": 7416,
      "tone": 7417,
      "wand": 7418,
      "zing": 7419,
      "்த": 7420,
      "thru": 7421,
      "thical": 7422,
      "toric": 7423,
      "todd": 7424,
      "iser": 7425,
      "arms": 7426,
      "elines": 7427,
      "accused": 7428,
      "bee": 7429,
      "semi": 7430,
      "rog": 7431,
      "verified": 7432,
      "keels": 7433,
      "terri": 7434,
      "tees": 7435,
      "porters": 7436,
      "cock": 7437,
      "needing": 7438,
      "portable": 7439,
      "ems": 7440,
      "buyers": 7441,
      "byd": 7442,
      "john": 7443,
      "spin": 7444,
      "overrated": 7445,
      "disappointing": 7446,
      "intent": 7447,
      "bla": 7448,
      "factor": 7449,
      "creation": 7450,
      "invite": 7451,
      "ketch": 7452,
      "packaging": 7453,
      "lesbi": 7454,
      "produce": 7455,
      "2008": 7456,
      "observ": 7457,
      "sambol": 7458,
      "applicable": 7459,
      "ntb": 7460,
      "hyper": 7461,
      "vaccine": 7462,
      "medications": 7463,
      "sians": 7464,
      "tiny": 7465,
      "approached": 7466,
      "circul": 7467,
      "resource": 7468,
      "installments": 7469,
      "victory": 7470,
      "ltd": 7471,
      "hundred": 7472,
      "oils": 7473,
      "nationals": 7474,
      "investigation": 7475,
      "karma": 7476,
      "mountains": 7477,
      "scientist": 7478,
      "entrepreneur": 7479,
      "elderly": 7480,
      "passengers": 7481,
      "stunning": 7482,
      "biscuits": 7483,
      "seafood": 7484,
      "thursday": 7485,
      "bpo": 7486,
      "hh": 7487,
      "hz": 7488,
      "lag": 7489,
      "uu": 7490,
      "න්": 7491,
      "rella": 7492,
      "org": 7493,
      "encounter": 7494,
      "alliance": 7495,
      "escor": 7496,
      "stam": 7497,
      "icious": 7498,
      "elon": 7499,
      "habar": 7500,
      "lored": 7501,
      "wila": 7502,
      "bund": 7503,
      "heck": 7504,
      "trap": 7505,
      "unusual": 7506,
      "protest": 7507,
      "prev": 7508,
      "coordin": 7509,
      "aug": 7510,
      "ophob": 7511,
      "evol": 7512,
      "evalu": 7513,
      "..)": 7514,
      "stole": 7515,
      "freely": 7516,
      "resist": 7517,
      "persons": 7518,
      "mistaken": 7519,
      "handled": 7520,
      "scammer": 7521,
      "spectives": 7522,
      "kidney": 7523,
      "dealt": 7524,
      "drops": 7525,
      "holds": 7526,
      "millions": 7527,
      "expressway": 7528,
      "enjoyed": 7529,
      "difficulties": 7530,
      "depends": 7531,
      "summar": 7532,
      "demanding": 7533,
      "roman": 7534,
      "woke": 7535,
      "narr": 7536,
      "collap": 7537,
      "maintaining": 7538,
      "humid": 7539,
      "navigating": 7540,
      "desperately": 7541,
      "murder": 7542,
      "primarily": 7543,
      "browsing": 7544,
      "admitted": 7545,
      "comparison": 7546,
      "tariffs": 7547,
      "sneakers": 7548,
      "refuse": 7549,
      "closest": 7550,
      "propag": 7551,
      "noodles": 7552,
      "wfh": 7553,
      "mechatronics": 7554,
      "licensed": 7555,
      "strategy": 7556,
      "wickremes": 7557,
      "satellite": 7558,
      "43": 7559,
      "dp": 7560,
      "ode": 7561,
      "rors": 7562,
      "uti": 7563,
      "vary": 7564,
      "wow": 7565,
      "||": 7566,
      "repost": 7567,
      "stit": 7568,
      "stamp": 7569,
      "chasing": 7570,
      "verts": 7571,
      "superi": 7572,
      "urban": 7573,
      "perspectives": 7574,
      "shes": 7575,
      "tues": 7576,
      "emic": 7577,
      "illness": 7578,
      "pride": 7579,
      "mutual": 7580,
      "2016": 7581,
      "cure": 7582,
      "intend": 7583,
      "raising": 7584,
      "parad": 7585,
      "subtitles": 7586,
      "invited": 7587,
      "certified": 7588,
      "wax": 7589,
      "governments": 7590,
      "donation": 7591,
      "muscle": 7592,
      "profits": 7593,
      "educate": 7594,
      "welcomed": 7595,
      "promising": 7596,
      "weddings": 7597,
      "covering": 7598,
      "controlled": 7599,
      "vacancies": 7600,
      "11th": 7601,
      "burning": 7602,
      "cooler": 7603,
      "sorted": 7604,
      "dresses": 7605,
      "cinemas": 7606,
      "swift": 7607,
      "attacked": 7608,
      "broadcast": 7609,
      "affecting": 7610,
      "russians": 7611,
      "bullied": 7612,
      "conducted": 7613,
      "jayawarden": 7614,
      "kitten": 7615,
      "kalut": 7616,
      "jerome": 7617,
      "consume": 7618,
      "microsoft": 7619,
      "dji": 7620,
      "fantasy": 7621,
      "manufacturer": 7622,
      "negotiate": 7623,
      "copies": 7624,
      "wilpat": 7625,
      "isolated": 7626,
      "orphanage": 7627,
      "xiaomi": 7628,
      "penalty": 7629,
      "wickremesinghe": 7630,
      "2k": 7631,
      "31st": 7632,
      "72": 7633,
      "8gb": 7634,
      "?,": 7635,
      "bcs": 7636,
      "gel": 7637,
      "gmail": 7638,
      "mps": 7639,
      "qat": 7640,
      "rr": 7641,
      "wave": 7642,
      "refe": 7643,
      "reject": 7644,
      "stair": 7645,
      "asians": 7646,
      "leop": 7647,
      "adds": 7648,
      "compreh": 7649,
      "ghter": 7650,
      "unity": 7651,
      "estimate": 7652,
      "indu": 7653,
      "helpl": 7654,
      "ears": 7655,
      "stumbled": 7656,
      "everytime": 7657,
      "viable": 7658,
      "comparing": 7659,
      "20m": 7660,
      "pray": 7661,
      "backs": 7662,
      "disconnected": 7663,
      "chef": 7664,
      "appreciation": 7665,
      "mining": 7666,
      "supplement": 7667,
      "cultures": 7668,
      "importance": 7669,
      "processor": 7670,
      "generate": 7671,
      "published": 7672,
      "buildings": 7673,
      "meetings": 7674,
      "hub": 7675,
      "hallo": 7676,
      "clip": 7677,
      "pending": 7678,
      "furb": 7679,
      "requests": 7680,
      "screenshot": 7681,
      "figures": 7682,
      "craving": 7683,
      "silent": 7684,
      "lakh": 7685,
      "answering": 7686,
      "traditions": 7687,
      "washed": 7688,
      "grandparents": 7689,
      "grandfather": 7690,
      "secured": 7691,
      "rapid": 7692,
      "recipes": 7693,
      "laughing": 7694,
      "aviation": 7695,
      "architect": 7696,
      "pharmacies": 7697,
      "bathroom": 7698,
      "satisf": 7699,
      "characters": 7700,
      "groceries": 7701,
      "sympto": 7702,
      "conflicting": 7703,
      "sacrif": 7704,
      "scuba": 7705,
      "abortion": 7706,
      "catholic": 7707,
      "biomedical": 7708,
      "suppliers": 7709,
      "habarana": 7710,
      "wilpattu": 7711,
      "1gb": 7712,
      "56": 7713,
      "beng": 7714,
      "cad": 7715,
      "hide": 7716,
      "kis": 7717,
      "lum": 7718,
      "lasses": 7719,
      "nish": 7720,
      "pel": 7721,
      "swear": 7722,
      "refurb": 7723,
      "ita": 7724,
      "acqu": 7725,
      "acles": 7726,
      "acbt": 7727,
      "sees": 7728,
      "bure": 7729,
      "aba": 7730,
      "abilities": 7731,
      "sored": 7732,
      "combank": 7733,
      "allergy": 7734,
      "mainst": 7735,
      "tutors": 7736,
      "joint": 7737,
      "compat": 7738,
      "finds": 7739,
      "curly": 7740,
      "scars": 7741,
      "offensive": 7742,
      "ignoring": 7743,
      "overthinking": 7744,
      "stopping": 7745,
      "disease": 7746,
      "meditation": 7747,
      "postp": 7748,
      "freight": 7749,
      "bling": 7750,
      "numer": 7751,
      "raid": 7752,
      "paral": 7753,
      "packets": 7754,
      "expense": 7755,
      "000lkr": 7756,
      "musk": 7757,
      "legends": 7758,
      "stuffs": 7759,
      "identification": 7760,
      "tennis": 7761,
      "credits": 7762,
      "19th": 7763,
      "migrant": 7764,
      "calories": 7765,
      "256": 7766,
      "seniors": 7767,
      "160": 7768,
      "breakdown": 7769,
      "biological": 7770,
      "complained": 7771,
      "guessing": 7772,
      "sunglasses": 7773,
      "globally": 7774,
      "panel": 7775,
      "cabs": 7776,
      "premier": 7777,
      "hopeless": 7778,
      "navy": 7779,
      "plantation": 7780,
      "accommodations": 7781,
      "targeting": 7782,
      "campaigns": 7783,
      "suicidal": 7784,
      "aspect": 7785,
      "implemented": 7786,
      "abusive": 7787,
      "african": 7788,
      "quoted": 7789,
      "diabet": 7790,
      "champions": 7791,
      "symbol": 7792,
      "sauce": 7793,
      "columbo": 7794,
      "cautious": 7795,
      "superior": 7796,
      "kalutara": 7797,
      "mainstream": 7798,
      "bare": 7799,
      "blog": 7800,
      "dick": 7801,
      "f1": 7802,
      "fon": 7803,
      "ike": 7804,
      "kiss": 7805,
      "ration": 7806,
      "tabo": 7807,
      "remed": 7808,
      "toy": 7809,
      "esto": 7810,
      "arc": 7811,
      "forces": 7812,
      "noticing": 7813,
      "nepal": 7814,
      "ifi": 7815,
      "uncertain": 7816,
      "mood": 7817,
      "default": 7818,
      "perce": 7819,
      "mentions": 7820,
      "cozy": 7821,
      "advoc": 7822,
      "phr": 7823,
      "spark": 7824,
      "sheer": 7825,
      "backpacking": 7826,
      "locate": 7827,
      "facility": 7828,
      "berry": 7829,
      "datab": 7830,
      "playstation": 7831,
      "ranges": 7832,
      "brokers": 7833,
      "meetup": 7834,
      "dete": 7835,
      "fixing": 7836,
      "youtuber": 7837,
      "swing": 7838,
      "forwarding": 7839,
      "mentality": 7840,
      "sourcing": 7841,
      "entials": 7842,
      "dependent": 7843,
      "chaos": 7844,
      "responsibilities": 7845,
      "appeal": 7846,
      "depressing": 7847,
      "roller": 7848,
      "americans": 7849,
      "refusing": 7850,
      "documentary": 7851,
      "hurts": 7852,
      "teenage": 7853,
      "defense": 7854,
      "aunty": 7855,
      "promoted": 7856,
      "texts": 7857,
      "repeated": 7858,
      "seylan": 7859,
      "talented": 7860,
      "sightseeing": 7861,
      "desktop": 7862,
      "comedy": 7863,
      "vendors": 7864,
      "pissed": 7865,
      "exempt": 7866,
      "pepper": 7867,
      "phase": 7868,
      "components": 7869,
      "propaganda": 7870,
      "qatar": 7871,
      "250k": 7872,
      "7th": 7873,
      "a55": 7874,
      "fds": 7875,
      "gard": 7876,
      "hits": 7877,
      "kir": 7878,
      "mile": 7879,
      "pens": 7880,
      "skept": 7881,
      "saudi": 7882,
      "vy": 7883,
      "vag": 7884,
      "toile": 7885,
      "ista": 7886,
      "escal": 7887,
      "stic": 7888,
      "whales": 7889,
      "forgotten": 7890,
      "amid": 7891,
      "srilank": 7892,
      "eter": 7893,
      "roaming": 7894,
      "unpopular": 7895,
      "button": 7896,
      "concent": 7897,
      "essentially": 7898,
      "redmi": 7899,
      "spray": 7900,
      "wned": 7901,
      "dip": 7902,
      "brace": 7903,
      "carri": 7904,
      "carried": 7905,
      "bless": 7906,
      "rath": 7907,
      "subreddits": 7908,
      "sider": 7909,
      "expat": 7910,
      "wars": 7911,
      "accountant": 7912,
      "sciences": 7913,
      "openly": 7914,
      "reliability": 7915,
      "loads": 7916,
      "confess": 7917,
      "metro": 7918,
      "larger": 7919,
      "explaining": 7920,
      "filter": 7921,
      "rains": 7922,
      "colleague": 7923,
      "staring": 7924,
      "organized": 7925,
      "13th": 7926,
      "balls": 7927,
      "therapists": 7928,
      "consultants": 7929,
      "valued": 7930,
      "sticker": 7931,
      "technically": 7932,
      "hobbies": 7933,
      "profitable": 7934,
      "participate": 7935,
      "climbing": 7936,
      "wickram": 7937,
      "manufacturers": 7938,
      "vitam": 7939,
      "stranger": 7940,
      "strangers": 7941,
      "exhausted": 7942,
      "pleasant": 7943,
      "widely": 7944,
      "privileg": 7945,
      "excellent": 7946,
      "excluding": 7947,
      "kiribath": 7948,
      "hotspot": 7949,
      "toddler": 7950,
      "paradise": 7951,
      "%,": 7952,
      ",,": 7953,
      "42": 7954,
      "dans": 7955,
      "hates": 7956,
      "ius": 7957,
      "nab": 7958,
      "qs": 7959,
      "swar": 7960,
      "sketch": 7961,
      "tens": 7962,
      "uno": 7963,
      "yan": 7964,
      "ம்": 7965,
      "intri": 7966,
      "inverter": 7967,
      "toys": 7968,
      "enlight": 7969,
      "album": 7970,
      "arth": 7971,
      "ambi": 7972,
      "aco": 7973,
      "bury": 7974,
      "rocket": 7975,
      "heim": 7976,
      "trous": 7977,
      "plating": 7978,
      "este": 7979,
      "posing": 7980,
      "inda": 7981,
      "implic": 7982,
      "quiz": 7983,
      "wherever": 7984,
      "ophi": 7985,
      "oppen": 7986,
      "workaround": 7987,
      "spouse": 7988,
      "manual": 7989,
      "overly": 7990,
      "disorder": 7991,
      "shares": 7992,
      "beforehand": 7993,
      "basics": 7994,
      "moral": 7995,
      "possess": 7996,
      "grammar": 7997,
      "legs": 7998,
      "minds": 7999,
      "tuktuks": 8000,
      "dengue": 8001,
      "ocd": 8002,
      "queer": 8003,
      "psych": 8004,
      "script": 8005,
      "appointments": 8006,
      "scenes": 8007,
      "scenery": 8008,
      "ipedia": 8009,
      "silly": 8010,
      "strongly": 8011,
      "70k": 8012,
      "memorable": 8013,
      "consultation": 8014,
      "hungry": 8015,
      "sticks": 8016,
      "cinated": 8017,
      "jersey": 8018,
      "chocolates": 8019,
      "recruitment": 8020,
      "recorded": 8021,
      "overwhelming": 8022,
      "automatic": 8023,
      "assault": 8024,
      "innovation": 8025,
      "dirty": 8026,
      "cosmetics": 8027,
      "riyani": 8028,
      "uriya": 8029,
      "rememb": 8030,
      "ravana": 8031,
      "automation": 8032,
      "length": 8033,
      "beliefs": 8034,
      "wikipedia": 8035,
      "enhance": 8036,
      "philosophy": 8037,
      "tuesday": 8038,
      "refurbished": 8039,
      "bureau": 8040,
      "heimer": 8041,
      "oppenheimer": 8042,
      "',": 8043,
      "6th": 8044,
      "dha": 8045,
      "dim": 8046,
      "ether": 8047,
      "gle": 8048,
      "jail": 8049,
      "kang": 8050,
      "md": 8051,
      "pou": 8052,
      "pid": 8053,
      "pitch": 8054,
      "qr": 8055,
      "sapp": 8056,
      "tch": 8057,
      "util": 8058,
      "xt": 8059,
      "ona": 8060,
      "isps": 8061,
      "orange": 8062,
      "aris": 8063,
      "sters": 8064,
      "stages": 8065,
      "whis": 8066,
      "novels": 8067,
      "ami": 8068,
      "ambit": 8069,
      "icc": 8070,
      "chester": 8071,
      "adura": 8072,
      "holes": 8073,
      "sue": 8074,
      "trapped": 8075,
      "urt": 8076,
      "modu": 8077,
      "tie": 8078,
      "devi": 8079,
      "percept": 8080,
      "poison": 8081,
      "convo": 8082,
      "justify": 8083,
      "portugu": 8084,
      "tryna": 8085,
      "torrent": 8086,
      "fridge": 8087,
      "newer": 8088,
      "engen": 8089,
      "2014": 8090,
      "versions": 8091,
      "disrespectful": 8092,
      "format": 8093,
      "singing": 8094,
      "bery": 8095,
      "packet": 8096,
      "techni": 8097,
      "legion": 8098,
      "2009": 8099,
      "licenses": 8100,
      "sunrise": 8101,
      "followers": 8102,
      "publish": 8103,
      "pretending": 8104,
      "welcoming": 8105,
      "listing": 8106,
      "signals": 8107,
      "waited": 8108,
      "laid": 8109,
      "devops": 8110,
      "accessories": 8111,
      "addressed": 8112,
      "beneficial": 8113,
      "chap": 8114,
      "employers": 8115,
      "deadline": 8116,
      "accommo": 8117,
      "stronger": 8118,
      "assumed": 8119,
      "narrow": 8120,
      "attempts": 8121,
      "photographers": 8122,
      "fireworks": 8123,
      "defend": 8124,
      "recipe": 8125,
      "threatened": 8126,
      "terrorists": 8127,
      "intimacy": 8128,
      "oceans": 8129,
      "bearable": 8130,
      "measures": 8131,
      "tariff": 8132,
      "oversized": 8133,
      "spiritual": 8134,
      "wholes": 8135,
      "inquiry": 8136,
      "remains": 8137,
      "lesbian": 8138,
      "halloween": 8139,
      "symptoms": 8140,
      "numerous": 8141,
      "module": 8142,
      "portuguese": 8143,
      "95": 8144,
      "kos": 8145,
      "lly": 8146,
      "nz": 8147,
      "ored": 8148,
      "plot": 8149,
      "tions": 8150,
      "ube": 8151,
      "ugoda": 8152,
      "vas": 8153,
      "vul": 8154,
      "yas": 8155,
      "yard": 8156,
      "intu": 8157,
      "respective": 8158,
      "aroo": 8159,
      "lover": 8160,
      "liv": 8161,
      "iron": 8162,
      "apa": 8163,
      "femin": 8164,
      "devs": 8165,
      "ounce": 8166,
      "permits": 8167,
      "contem": 8168,
      "maker": 8169,
      "colors": 8170,
      "peotv": 8171,
      "bypass": 8172,
      "ckets": 8173,
      "monks": 8174,
      "engaging": 8175,
      "travellers": 8176,
      "disappointment": 8177,
      "blast": 8178,
      "fined": 8179,
      "facial": 8180,
      "nake": 8181,
      "stands": 8182,
      "realise": 8183,
      "courts": 8184,
      "courage": 8185,
      "hardly": 8186,
      "15th": 8187,
      "musical": 8188,
      "addicted": 8189,
      "125": 8190,
      "somed": 8191,
      "rupted": 8192,
      "avoiding": 8193,
      "religions": 8194,
      "difficulty": 8195,
      "chips": 8196,
      "involving": 8197,
      "celebrating": 8198,
      "defence": 8199,
      "calculated": 8200,
      "humili": 8201,
      "wealthy": 8202,
      "libraries": 8203,
      "incredible": 8204,
      "hatred": 8205,
      "unethical": 8206,
      "hookup": 8207,
      "nomad": 8208,
      "enrolled": 8209,
      "destroyed": 8210,
      "awatha": 8211,
      "occurred": 8212,
      "jumping": 8213,
      "pearson": 8214,
      "concepts": 8215,
      "estimated": 8216,
      "excessive": 8217,
      "manifesto": 8218,
      ")..": 8219,
      "__": 8220,
      "hp": 8221,
      "hing": 8222,
      "jam": 8223,
      "p2": 8224,
      "pim": 8225,
      "pitiya": 8226,
      "sized": 8227,
      "snake": 8228,
      "uma": 8229,
      "xd": 8230,
      "za": 8231,
      "infe": 8232,
      "rehab": 8233,
      "toll": 8234,
      "isation": 8235,
      "itm": 8236,
      "aragama": 8237,
      "ston": 8238,
      "rig": 8239,
      "beg": 8240,
      "seal": 8241,
      "dose": 8242,
      "chrome": 8243,
      "enties": 8244,
      "lift": 8245,
      "notification": 8246,
      "abol": 8247,
      "bothered": 8248,
      "deem": 8249,
      "deeper": 8250,
      "consci": 8251,
      "allerg": 8252,
      "odel": 8253,
      "imposed": 8254,
      "quar": 8255,
      "uling": 8256,
      "costu": 8257,
      "counting": 8258,
      "evil": 8259,
      "phen": 8260,
      "spas": 8261,
      "spid": 8262,
      "spill": 8263,
      "mono": 8264,
      "offense": 8265,
      "fights": 8266,
      "twenties": 8267,
      "intended": 8268,
      "fulfill": 8269,
      "malana": 8270,
      "miser": 8271,
      "questioning": 8272,
      "turtle": 8273,
      "landed": 8274,
      "wrap": 8275,
      "wrist": 8276,
      "examples": 8277,
      "connectivity": 8278,
      "souven": 8279,
      "breach": 8280,
      "senti": 8281,
      "meetups": 8282,
      "causes": 8283,
      "scores": 8284,
      "photoshoot": 8285,
      "captured": 8286,
      "lads": 8287,
      "hygi": 8288,
      "collective": 8289,
      "itha": 8290,
      "feeding": 8291,
      "periods": 8292,
      "amongst": 8293,
      "panadura": 8294,
      "rolls": 8295,
      "kottawa": 8296,
      "sectors": 8297,
      "threats": 8298,
      "environmental": 8299,
      "clarity": 8300,
      "guns": 8301,
      "separately": 8302,
      "residents": 8303,
      "bamba": 8304,
      "hustles": 8305,
      "consistently": 8306,
      "posals": 8307,
      "investor": 8308,
      "fruits": 8309,
      "reservation": 8310,
      "criticism": 8311,
      "advertisement": 8312,
      "junction": 8313,
      "passenger": 8314,
      "podcasts": 8315,
      "pandemic": 8316,
      "palestine": 8317,
      "constitution": 8318,
      "autism": 8319,
      "convinced": 8320,
      "aesthetic": 8321,
      "vishwa": 8322,
      "gossip": 8323,
      "unemployed": 8324,
      "bubble": 8325,
      "skeptical": 8326,
      "implications": 8327,
      "kangaroo": 8328,
      "intuitive": 8329,
      "souvenir": 8330,
      "3k": 8331,
      "47": 8332,
      "?).": 8333,
      "\\*": 8334,
      "bn": 8335,
      "cun": 8336,
      "dell": 8337,
      "dhar": 8338,
      "ived": 8339,
      "kun": 8340,
      "lists": 8341,
      "ninten": 8342,
      "vc": 8343,
      "vou": 8344,
      "winter": 8345,
      "yelling": 8346,
      "anayake": 8347,
      "respected": 8348,
      "toast": 8349,
      "tobac": 8350,
      "wht": 8351,
      "whit": 8352,
      "vegan": 8353,
      "seven": 8354,
      "docs": 8355,
      "weap": 8356,
      "weigh": 8357,
      "plu": 8358,
      "modif": 8359,
      "exceed": 8360,
      "agend": 8361,
      "conference": 8362,
      "worship": 8363,
      "daytime": 8364,
      "grass": 8365,
      "saas": 8366,
      "torn": 8367,
      "thankfully": 8368,
      "clou": 8369,
      "marx": 8370,
      "species": 8371,
      "forecast": 8372,
      "century": 8373,
      "avurudu": 8374,
      "airpods": 8375,
      "ruct": 8376,
      "historic": 8377,
      "postgraduate": 8378,
      "contest": 8379,
      "jeep": 8380,
      "transplant": 8381,
      "greater": 8382,
      "wana": 8383,
      "mush": 8384,
      "delicious": 8385,
      "198": 8386,
      "arrives": 8387,
      "removing": 8388,
      "secondary": 8389,
      "steal": 8390,
      "waterfalls": 8391,
      "buddies": 8392,
      "societies": 8393,
      "controlling": 8394,
      "garage": 8395,
      "horo": 8396,
      "lacks": 8397,
      "competent": 8398,
      "accompl": 8399,
      "annoyed": 8400,
      "kadawatha": 8401,
      "narc": 8402,
      "trending": 8403,
      "clinics": 8404,
      "marked": 8405,
      "laughed": 8406,
      "terrorism": 8407,
      "vegetables": 8408,
      "sirasa": 8409,
      "phili": 8410,
      "tastes": 8411,
      "exposing": 8412,
      "####": 8413,
      "gathering": 8414,
      "kicked": 8415,
      "thalawath": 8416,
      "fwb": 8417,
      "settled": 8418,
      "settling": 8419,
      "disturbing": 8420,
      "gynecom": 8421,
      "vibrant": 8422,
      "injured": 8423,
      "museum": 8424,
      "collapse": 8425,
      "pouches": 8426,
      "nintendo": 8427,
      "tobacco": 8428,
      "thalawathugoda": 8429,
      "08": 8430,
      "7am": 8431,
      "abe": 8432,
      "dham": 8433,
      "font": 8434,
      "mask": 8435,
      "nails": 8436,
      "oke": 8437,
      "pill": 8438,
      "shell": 8439,
      "tl": 8440,
      "tack": 8441,
      "vast": 8442,
      "vague": 8443,
      "wc": 8444,
      "zzy": 8445,
      "inr": 8446,
      "infront": 8447,
      "ret": 8448,
      "retri": 8449,
      "retake": 8450,
      "reats": 8451,
      "isure": 8452,
      "stations": 8453,
      "stitch": 8454,
      "acre": 8455,
      "hak": 8456,
      "beating": 8457,
      "chron": 8458,
      "adu": 8459,
      "eti": 8460,
      "mega": 8461,
      "idp": 8462,
      "roo": 8463,
      "verting": 8464,
      "unavailable": 8465,
      "motive": 8466,
      "conclus": 8467,
      "proposals": 8468,
      "anta": 8469,
      "upwork": 8470,
      "rents": 8471,
      "astia": 8472,
      "gee": 8473,
      "prize": 8474,
      "thankyou": 8475,
      "experiment": 8476,
      "divis": 8477,
      "offence": 8478,
      "typing": 8479,
      "disrupt": 8480,
      "resorts": 8481,
      "sims": 8482,
      "desire": 8483,
      "regions": 8484,
      "regional": 8485,
      "lottery": 8486,
      "dragon": 8487,
      "trainers": 8488,
      "pubs": 8489,
      "lasting": 8490,
      "productive": 8491,
      "donations": 8492,
      "processed": 8493,
      "solving": 8494,
      "grads": 8495,
      "sentence": 8496,
      "bald": 8497,
      "graduating": 8498,
      "riders": 8499,
      "stealing": 8500,
      "presidency": 8501,
      "25m": 8502,
      "safest": 8503,
      "specialize": 8504,
      "aboard": 8505,
      "nsfw": 8506,
      "dmt": 8507,
      "guides": 8508,
      "guidelines": 8509,
      "alongside": 8510,
      "tarot": 8511,
      "babies": 8512,
      "homophob": 8513,
      "collecting": 8514,
      "fishing": 8515,
      "necessarily": 8516,
      "flir": 8517,
      "celebrities": 8518,
      "tablets": 8519,
      "initiative": 8520,
      "raped": 8521,
      "judg": 8522,
      "hamban": 8523,
      "documentation": 8524,
      "arguments": 8525,
      "residential": 8526,
      "equity": 8527,
      "diagnosis": 8528,
      "purely": 8529,
      "pakistani": 8530,
      "functional": 8531,
      "allegations": 8532,
      "pillow": 8533,
      "styles": 8534,
      "cartoons": 8535,
      "cosmetic": 8536,
      "collaborate": 8537,
      "allegedly": 8538,
      "temperature": 8539,
      "comprehensive": 8540,
      "512": 8541,
      "cz": 8542,
      "cpu": 8543,
      "dal": 8544,
      "fet": 8545,
      "ias": 8546,
      "kol": 8547,
      "kur": 8548,
      "ume": 8549,
      "ucl": 8550,
      "vals": 8551,
      "anth": 8552,
      "reo": 8553,
      "reload": 8554,
      "replacing": 8555,
      "leisure": 8556,
      "ams": 8557,
      "anka": 8558,
      "seg": 8559,
      "admissions": 8560,
      "etime": 8561,
      "roy": 8562,
      "und": 8563,
      "unpaid": 8564,
      "bois": 8565,
      "borella": 8566,
      "pee": 8567,
      "peers": 8568,
      "usable": 8569,
      "pointers": 8570,
      "consen": 8571,
      "odes": 8572,
      "rential": 8573,
      "slc": 8574,
      "workload": 8575,
      "grat": 8576,
      "uniform": 8577,
      "offices": 8578,
      "restruct": 8579,
      "cheat": 8580,
      "cheated": 8581,
      "caring": 8582,
      "underground": 8583,
      "issuing": 8584,
      "serves": 8585,
      "pax": 8586,
      "downsouth": 8587,
      "corre": 8588,
      "questioned": 8589,
      "possibilities": 8590,
      "greatest": 8591,
      "checks": 8592,
      "timing": 8593,
      "30pm": 8594,
      "obje": 8595,
      "obsession": 8596,
      "anga": 8597,
      "pire": 8598,
      "confusion": 8599,
      "barista": 8600,
      "stereo": 8601,
      "cashier": 8602,
      "walks": 8603,
      "practically": 8604,
      "filed": 8605,
      "alien": 8606,
      "grounds": 8607,
      "nuwaraeliya": 8608,
      "screening": 8609,
      "downloaded": 8610,
      "accordingly": 8611,
      "iots": 8612,
      "panels": 8613,
      "reduction": 8614,
      "frustration": 8615,
      "achieved": 8616,
      "magaz": 8617,
      "committee": 8618,
      "pinnawala": 8619,
      "ranked": 8620,
      "introducing": 8621,
      "texted": 8622,
      "divorced": 8623,
      "branches": 8624,
      "worrying": 8625,
      "mintpay": 8626,
      "thrown": 8627,
      "decline": 8628,
      "declined": 8629,
      "chairs": 8630,
      "revolution": 8631,
      "embarrassing": 8632,
      "abused": 8633,
      "vendor": 8634,
      "episodes": 8635,
      "upgrading": 8636,
      "orientation": 8637,
      "suffered": 8638,
      "paranoid": 8639,
      "ukrainian": 8640,
      "brutal": 8641,
      "taboo": 8642,
      "gardens": 8643,
      "enlighten": 8644,
      "accommodate": 8645,
      "contemplating": 8646,
      "narciss": 8647,
      "bits": 8648,
      "cen": 8649,
      "dl": 8650,
      "dine": 8651,
      "eur": 8652,
      "hen": 8653,
      "hmu": 8654,
      "lg": 8655,
      "lacking": 8656,
      "s10": 8657,
      "wound": 8658,
      "ன்": 8659,
      "ining": 8660,
      "thop": 8661,
      "ombi": 8662,
      "std": 8663,
      "stare": 8664,
      "assur": 8665,
      "acknowledge": 8666,
      "chess": 8667,
      "arest": 8668,
      "buggers": 8669,
      "ading": 8670,
      "oneplus": 8671,
      "hopping": 8672,
      "socially": 8673,
      "unmarried": 8674,
      "unhealthy": 8675,
      "exc": 8676,
      "fry": 8677,
      "tipping": 8678,
      "converting": 8679,
      "hires": 8680,
      "hilar": 8681,
      "proven": 8682,
      "provin": 8683,
      "illegally": 8684,
      "thingy": 8685,
      "loop": 8686,
      "optim": 8687,
      "visual": 8688,
      "visitor": 8689,
      "scrolling": 8690,
      "univers": 8691,
      "achchi": 8692,
      "intercity": 8693,
      "dispose": 8694,
      "shore": 8695,
      "reader": 8696,
      "bitcoin": 8697,
      "osex": 8698,
      "invitation": 8699,
      "instances": 8700,
      "tournam": 8701,
      "kindle": 8702,
      "biriyani": 8703,
      "drome": 8704,
      "gamer": 8705,
      "trek": 8706,
      "pricey": 8707,
      "attacking": 8708,
      "norms": 8709,
      "produced": 8710,
      "reception": 8711,
      "physi": 8712,
      "follows": 8713,
      "farming": 8714,
      "migrants": 8715,
      "shopify": 8716,
      "12am": 8717,
      "humble": 8718,
      "economical": 8719,
      "strain": 8720,
      "supervis": 8721,
      "waterfall": 8722,
      "prompt": 8723,
      "24m": 8724,
      "digit": 8725,
      "specializing": 8726,
      "screwed": 8727,
      "knowledgeable": 8728,
      "psychologists": 8729,
      "racial": 8730,
      "dressed": 8731,
      "caste": 8732,
      "snus": 8733,
      "recognised": 8734,
      "arugambay": 8735,
      "strikes": 8736,
      "criminals": 8737,
      "sanath": 8738,
      "deaths": 8739,
      "relaxed": 8740,
      "advertised": 8741,
      "violent": 8742,
      "exporting": 8743,
      "scooters": 8744,
      "promotional": 8745,
      "instruments": 8746,
      "texting": 8747,
      "rejection": 8748,
      "minority": 8749,
      "occasional": 8750,
      "drained": 8751,
      "scientific": 8752,
      "sponsorship": 8753,
      "puppy": 8754,
      "patterns": 8755,
      "perahera": 8756,
      "africa": 8757,
      "principal": 8758,
      "condoms": 8759,
      "syndrome": 8760,
      "sql": 8761,
      "newspapers": 8762,
      "aero": 8763,
      "urangala": 8764,
      "database": 8765,
      "ethernet": 8766,
      "ubereats": 8767,
      "someday": 8768,
      "\")": 8769,
      "/=": 8770,
      "110": 8771,
      "350": 8772,
      "58": 8773,
      ";)": 8774,
      "cid": 8775,
      "dand": 8776,
      "fus": 8777,
      "lf": 8778,
      "lite": 8779,
      "lush": 8780,
      "nip": 8781,
      "nasa": 8782,
      "pical": 8783,
      "rhe": 8784,
      "rfc": 8785,
      "sas": 8786,
      "sys": 8787,
      "wy": 8788,
      "wol": 8789,
      "inland": 8790,
      "rew": 8791,
      "iso": 8792,
      "asle": 8793,
      "nose": 8794,
      "haun": 8795,
      "beans": 8796,
      "seed": 8797,
      "doable": 8798,
      "wij": 8799,
      "wije": 8800,
      "lip": 8801,
      "myth": 8802,
      "robe": 8803,
      "roti": 8804,
      "holic": 8805,
      "hew": 8806,
      "soever": 8807,
      "comic": 8808,
      "trag": 8809,
      "trails": 8810,
      "ife": 8811,
      "whatsoever": 8812,
      "excus": 8813,
      "endless": 8814,
      "pover": 8815,
      "worn": 8816,
      "igcse": 8817,
      "ular": 8818,
      "pork": 8819,
      "earphones": 8820,
      "hash": 8821,
      "emig": 8822,
      "counsell": 8823,
      "illa": 8824,
      "grind": 8825,
      "pher": 8826,
      "shoulder": 8827,
      "vip": 8828,
      "manchester": 8829,
      "avahini": 8830,
      "twist": 8831,
      "dispos": 8832,
      "furi": 8833,
      "underwear": 8834,
      "undergraduates": 8835,
      "blaming": 8836,
      "polite": 8837,
      "raine": 8838,
      "learner": 8839,
      "galow": 8840,
      "corn": 8841,
      "landlord": 8842,
      "valorant": 8843,
      "accountable": 8844,
      "litter": 8845,
      "insan": 8846,
      "charity": 8847,
      "chartered": 8848,
      "pointed": 8849,
      "voc": 8850,
      "headache": 8851,
      "bali": 8852,
      "slide": 8853,
      "huawe": 8854,
      "gbp": 8855,
      "ramas": 8856,
      "ramid": 8857,
      "barbers": 8858,
      "millen": 8859,
      "distances": 8860,
      "16gb": 8861,
      "earners": 8862,
      "140": 8863,
      "rupavahini": 8864,
      "sorts": 8865,
      "organizing": 8866,
      "minecraft": 8867,
      "23m": 8868,
      "pyramid": 8869,
      "tongue": 8870,
      "silence": 8871,
      "lakes": 8872,
      "volume": 8873,
      "hunting": 8874,
      "simplytek": 8875,
      "accidents": 8876,
      "secretly": 8877,
      "ratn": 8878,
      "violation": 8879,
      "crossing": 8880,
      "hacks": 8881,
      "hatch": 8882,
      "vitz": 8883,
      "reserves": 8884,
      "intentionally": 8885,
      "nursing": 8886,
      "adapter": 8887,
      "embarrassed": 8888,
      "neighbours": 8889,
      "democratic": 8890,
      "determin": 8891,
      "plugs": 8892,
      "organisation": 8893,
      "treasury": 8894,
      "loyalty": 8895,
      "privileged": 8896,
      "perception": 8897,
      "conscious": 8898,
      "gynecomastia": 8899,
      "restructuring": 8900,
      "asleep": 8901,
      "'?": 8902,
      "49": 8903,
      "4000": 8904,
      "45k": 8905,
      "6k": 8906,
      "79": 8907,
      "a4": 8908,
      "dys": 8909,
      "dash": 8910,
      "gta": 8911,
      "m4": 8912,
      "mf": 8913,
      "mut": 8914,
      "ngl": 8915,
      "oon": 8916,
      "tical": 8917,
      "vice": 8918,
      "inal": 8919,
      "inje": 8920,
      "inspect": 8921,
      "indeed": 8922,
      "anna": 8923,
      "rer": 8924,
      "orthod": 8925,
      "orthop": 8926,
      "alib": 8927,
      "amar": 8928,
      "bever": 8929,
      "chal": 8930,
      "etic": 8931,
      "liest": 8932,
      "myst": 8933,
      "idiots": 8934,
      "robot": 8935,
      "sured": 8936,
      "confron": 8937,
      "tec": 8938,
      "ima": 8939,
      "colours": 8940,
      "precau": 8941,
      "grav": 8942,
      "compli": 8943,
      "comprom": 8944,
      "guysss": 8945,
      "offline": 8946,
      "cents": 8947,
      "interaction": 8948,
      "mango": 8949,
      "appare": 8950,
      "awal": 8951,
      "ruff": 8952,
      "chee": 8953,
      "freak": 8954,
      "relate": 8955,
      "intense": 8956,
      "resell": 8957,
      "epic": 8958,
      "nah": 8959,
      "kandyan": 8960,
      "smth": 8961,
      "transform": 8962,
      "homemade": 8963,
      "branding": 8964,
      "relief": 8965,
      "ashes": 8966,
      "sunny": 8967,
      "lighting": 8968,
      "extro": 8969,
      "pier": 8970,
      "publicly": 8971,
      "eases": 8972,
      "10000": 8973,
      "teaches": 8974,
      "researched": 8975,
      "string": 8976,
      "newswire": 8977,
      "iko": 8978,
      "schengen": 8979,
      "petition": 8980,
      "commented": 8981,
      "screenshots": 8982,
      "recovered": 8983,
      "translated": 8984,
      "conversion": 8985,
      "cruiser": 8986,
      "killer": 8987,
      "flip": 8988,
      "automobile": 8989,
      "troubles": 8990,
      "villas": 8991,
      "animation": 8992,
      "secrets": 8993,
      "featured": 8994,
      "directed": 8995,
      "tracks": 8996,
      "kadu": 8997,
      "mechanics": 8998,
      "28th": 8999,
      "catching": 9000,
      "pushed": 9001,
      "baseus": 9002,
      "bangkok": 9003,
      "impressive": 9004,
      "adams": 9005,
      "fingers": 9006,
      "quitting": 9007,
      "affection": 9008,
      "advisable": 9009,
      "identifying": 9010,
      "thrott": 9011,
      "aluth": 9012,
      "strictly": 9013,
      "bothering": 9014,
      "fellas": 9015,
      "tropical": 9016,
      "smoothly": 9017,
      "preferential": 9018,
      "restriction": 9019,
      "harmful": 9020,
      "boundaries": 9021,
      "revolut": 9022,
      "destroy": 9023,
      "revealed": 9024,
      "attestation": 9025,
      "balancing": 9026,
      "predictions": 9027,
      "exercise": 9028,
      "accomodation": 9029,
      "narrative": 9030,
      "pidurangala": 9031,
      "assurance": 9032,
      "hilarious": 9033,
      "huawei": 9034,
      "orthodont": 9035,
      "alibaba": 9036,
      "41": 9037,
      "78": 9038,
      ":/": 9039,
      "bird": 9040,
      "bah": 9041,
      "glow": 9042,
      "irect": 9043,
      "ji": 9044,
      "lens": 9045,
      "mans": 9046,
      "pest": 9047,
      "rally": 9048,
      "xl": 9049,
      "thir": 9050,
      "refri": 9051,
      "revers": 9052,
      "recall": 9053,
      "reward": 9054,
      "retain": 9055,
      "reaction": 9056,
      "remembers": 9057,
      "resolution": 9058,
      "tories": 9059,
      "isha": 9060,
      "enforce": 9061,
      "stir": 9062,
      "stones": 9063,
      "aswell": 9064,
      "asuriya": 9065,
      "eline": 9066,
      "bust": 9067,
      "entit": 9068,
      "meets": 9069,
      "liy": 9070,
      "hem": 9071,
      "heal": 9072,
      "healing": 9073,
      "outcome": 9074,
      "unregistered": 9075,
      "unga": 9076,
      "llc": 9077,
      "bodies": 9078,
      "cannab": 9079,
      "urb": 9080,
      "mole": 9081,
      "exe": 9082,
      "exit": 9083,
      "frank": 9084,
      "aga": 9085,
      "pools": 9086,
      "hiv": 9087,
      "proje": 9088,
      "sher": 9089,
      "shor": 9090,
      "shas": 9091,
      "wheels": 9092,
      "poruwa": 9093,
      "loosing": 9094,
      "coat": 9095,
      "whereas": 9096,
      "opens": 9097,
      "iesl": 9098,
      "asty": 9099,
      "istically": 9100,
      "oka": 9101,
      "wns": 9102,
      "diversity": 9103,
      "printer": 9104,
      "discre": 9105,
      "discontinued": 9106,
      "posters": 9107,
      "finaster": 9108,
      "genre": 9109,
      "ffs": 9110,
      "funeral": 9111,
      "qualify": 9112,
      "classmates": 9113,
      "wera": 9114,
      "ashamed": 9115,
      "musicians": 9116,
      "2007": 9117,
      "socialist": 9118,
      "worldwide": 9119,
      "midigama": 9120,
      "12th": 9121,
      "agoda": 9122,
      "100gb": 9123,
      "pathy": 9124,
      "calend": 9125,
      "trusts": 9126,
      "believes": 9127,
      "caps": 9128,
      "wears": 9129,
      "25th": 9130,
      "blocks": 9131,
      "banana": 9132,
      "17th": 9133,
      "acceptance": 9134,
      "petty": 9135,
      "patri": 9136,
      "commenting": 9137,
      "spectacles": 9138,
      "devast": 9139,
      "thorough": 9140,
      "homagama": 9141,
      "bungalow": 9142,
      "kotte": 9143,
      "hiding": 9144,
      "bribe": 9145,
      "malaysian": 9146,
      "abusing": 9147,
      "bcz": 9148,
      "adoption": 9149,
      "promotions": 9150,
      "regrets": 9151,
      "continuing": 9152,
      "equally": 9153,
      "lasik": 9154,
      "adventures": 9155,
      "malls": 9156,
      "deserves": 9157,
      "neutral": 9158,
      "surrounded": 9159,
      "occasionally": 9160,
      "ethnicity": 9161,
      "nomads": 9162,
      "counselor": 9163,
      "rooftop": 9164,
      "skipping": 9165,
      "skipped": 9166,
      "dirt": 9167,
      "bakery": 9168,
      "nostalgic": 9169,
      "supreme": 9170,
      "mcdonald": 9171,
      "replica": 9172,
      "helpless": 9173,
      "wholesale": 9174,
      "vulner": 9175,
      "p2p": 9176,
      "universal": 9177,
      "tragic": 9178,
      "excuses": 9179,
      "apparel": 9180,
      "refriger": 9181,
      "cannabis": 9182,
      "!).": 9183,
      "35k": 9184,
      "46": 9185,
      "8k": 9186,
      ":'": 9187,
      ">>": 9188,
      "aust": 9189,
      "bps": 9190,
      "cze": 9191,
      "db": 9192,
      "dnd": 9193,
      "fought": 9194,
      "flower": 9195,
      "gir": 9196,
      "ht": 9197,
      "hint": 9198,
      "hana": 9199,
      "i5": 9200,
      "jor": 9201,
      "kr": 9202,
      "nay": 9203,
      "pads": 9204,
      "sque": 9205,
      "tent": 9206,
      "zel": 9207,
      "inclusive": 9208,
      "tham": 9209,
      "onsored": 9210,
      "ener": 9211,
      "omen": 9212,
      "lee": 9213,
      "bered": 9214,
      "logged": 9215,
      "ceo": 9216,
      "outing": 9217,
      "unge": 9218,
      "unsafe": 9219,
      "unbearable": 9220,
      "exports": 9221,
      "exhibit": 9222,
      "tied": 9223,
      "defe": 9224,
      "depreci": 9225,
      "performed": 9226,
      "polo": 9227,
      "ilit": 9228,
      "colleg": 9229,
      "gut": 9230,
      "cologist": 9231,
      "aft": 9232,
      "command": 9233,
      "emes": 9234,
      "slit": 9235,
      "psa": 9236,
      "..\"": 9237,
      "spar": 9238,
      "sponsored": 9239,
      "compass": 9240,
      "scare": 9241,
      "2013": 9242,
      "paye": 9243,
      "backend": 9244,
      "disabled": 9245,
      "disgrace": 9246,
      "shocking": 9247,
      "relic": 9248,
      "underpaid": 9249,
      "adequ": 9250,
      "polar": 9251,
      "creator": 9252,
      "parade": 9253,
      "msi": 9254,
      "cares": 9255,
      "otps": 9256,
      "privat": 9257,
      "weekdays": 9258,
      "cluded": 9259,
      "crab": 9260,
      "aired": 9261,
      "communist": 9262,
      "legacy": 9263,
      "uka": 9264,
      "headphone": 9265,
      "replying": 9266,
      "cleared": 9267,
      "companion": 9268,
      "messaging": 9269,
      "credited": 9270,
      "safaris": 9271,
      "applicants": 9272,
      "digging": 9273,
      "virus": 9274,
      "concerts": 9275,
      "increases": 9276,
      "literal": 9277,
      "fallen": 9278,
      "fathers": 9279,
      "hosted": 9280,
      "exploit": 9281,
      "cleaner": 9282,
      "parked": 9283,
      "popularity": 9284,
      "wishing": 9285,
      "wishes": 9286,
      "downloads": 9287,
      "21m": 9288,
      "glor": 9289,
      "departments": 9290,
      "venture": 9291,
      "fishy": 9292,
      "television": 9293,
      "admins": 9294,
      "bluetooth": 9295,
      "calculator": 9296,
      "continuously": 9297,
      "emotions": 9298,
      "enthusiast": 9299,
      "throat": 9300,
      "referring": 9301,
      "wheeler": 9302,
      "traumat": 9303,
      "snork": 9304,
      "rushed": 9305,
[...]
