<pad>	0
<unk>	0
<s>	0
</s>	0
.	-3.42465
▁i	-3.60485
▁to	-3.63716
▁the	-3.74018
▁a	-3.80772
,	-3.8845
▁and	-3.99205
?	-4.00872
▁in	-4.05681
▁is	-4.1204
▁for	-4.35533
▁of	-4.58773
▁it	-4.6583
▁sri	-4.8479
▁my	-4.90185
▁have	-4.94499
▁not	-4.96769
s	-4.98747
▁this	-5.00194
▁are	-5.06492
▁you	-5.0783
▁do	-5.08176
▁am	-5.10174
▁that	-5.10567
▁lanka	-5.1258
▁on	-5.16218
▁or	-5.18754
▁what	-5.23485
▁with	-5.24336
▁	-5.34506
▁any	-5.37388
▁but	-5.37671
▁me	-5.43467
▁from	-5.4595
▁be	-5.46075
▁can	-5.47773
▁if	-5.52429
▁so	-5.57852
▁(	-5.58177
▁how	-5.62734
▁like	-5.67881
)	-5.69204
▁there	-5.71913
▁about	-5.74053
▁would	-5.75253
▁as	-5.75713
▁we	-5.76821
▁know	-5.7685
▁was	-5.78436
▁they	-5.79351
▁at	-5.82158
/	-5.82811
▁anyone	-5.84382
▁get	-5.84556
-	-5.84695
▁some	-5.87638
!	-5.89955
ing	-5.90143
▁an	-5.94244
▁good	-5.97924
▁colombo	-5.99075
▁will	-5.99112
▁your	-6.00043
▁just	-6.03439
▁who	-6.09003
▁-	-6.0934
▁has	-6.16521
▁need	-6.22417
▁where	-6.26143
▁all	-6.2698
▁people	-6.27054
▁looking	-6.2769
▁does	-6.29117
▁one	-6.31254
▁help	-6.32929
▁here	-6.34799
▁out	-6.35553
:	-6.36233
ed	-6.37358
▁time	-6.38666
▁lankan	-6.40396
▁want	-6.42197
▁?	-6.42973
▁he	-6.46201
▁by	-6.502
▁when	-6.50564
▁been	-6.52025
▁best	-6.53874
▁now	-6.54135
▁should	-6.56515
▁buy	-6.56523
▁also	-6.59189
▁which	-6.59483
▁their	-6.60134
▁up	-6.6091
▁did	-6.62218
▁guys	-6.62618
▁go	-6.63646
▁them	-6.63885
▁other	-6.65204
▁please	-6.65303
▁around	-6.6747
▁"	-6.67541
▁sl	-6.67713
▁no	-6.68759
▁even	-6.69063
▁why	-6.70917
▁find	-6.71715
▁these	-6.72092
▁place	-6.72361
▁advice	-6.73222
▁much	-6.768
▁really	-6.77735
▁work	-6.77987
▁after	-6.78451
d	-6.79161
▁more	-6.79609
▁got	-6.80424
▁think	-6.80449
▁could	-6.82931
▁our	-6.84008
▁had	-6.85858
▁new	-6.85975
▁only	-6.89122
▁she	-6.89288
▁hi	-6.89816
"	-6.91837
▁day	-6.92011
▁her	-6.93494
▁someone	-6.94095
k	-6.98251
▁thanks	-6.99147
▁experience	-6.9939
▁because	-6.99442
▁going	-7.03691
▁2	-7.04977
▁year	-7.05417
▁make	-7.06841
i	-7.07601
▁country	-7.08698
▁places	-7.09986
▁degree	-7.1066
▁way	-7.11458
▁something	-7.12774
▁us	-7.13396
▁years	-7.14208
▁online	-7.14254
▁take	-7.14912
▁first	-7.15328
▁back	-7.17335
▁too	-7.18579
▁into	-7.19045
▁most	-7.19236
▁money	-7.19327
▁recommendations	-7.20433
▁than	-7.20852
▁days	-7.21168
l	-7.22483
▁still	-7.22778
▁feel	-7.23512
▁everyone	-7.23647
▁life	-7.24603
▁cannot	-7.25488
▁well	-7.25508
▁see	-7.25846
▁very	-7.25905
▁were	-7.26341
▁use	-7.2641
▁few	-7.26455
▁since	-7.27442
▁job	-7.27819
▁3	-7.289
▁doing	-7.29363
▁love	-7.29547
▁getting	-7.29688
ly	-7.32738
▁his	-7.33697
▁over	-7.34861
e	-7.36192
▁.	-7.37677
▁many	-7.38126
▁university	-7.38232
▁through	-7.38646
▁before	-7.3929
▁being	-7.39557
▁planning	-7.39588
▁better	-7.3976
▁things	-7.39881
▁hey	-7.40888
▁let	-7.41867
▁friends	-7.42327
▁then	-7.4311
▁while	-7.43518
▁kandy	-7.44099
▁pay	-7.44859
▁without	-7.44968
'	-7.45149
▁used	-7.45917
).	-7.46856
a	-7.47518
▁visa	-7.47546
y	-7.47695
▁same	-7.49382
▁thank	-7.49639
▁,	-7.49799
▁him	-7.50426
m	-7.50663
▁give	-7.51372
▁advance	-7.51408
▁working	-7.51672
▁travel	-7.52533
▁long	-7.52842
▁recently	-7.5324
▁1	-7.54031
▁local	-7.54404
▁&	-7.54628
▁lot	-7.54765
▁family	-7.54911
▁recommend	-7.55881
▁those	-7.56063
▁im	-7.56075
▁car	-7.56399
▁anything	-7.56568
▁currently	-7.58548
▁right	-7.5928
▁trying	-7.5952
▁two	-7.59973
▁said	-7.60283
▁old	-7.60472
▁bank	-7.62422
▁company	-7.63058
▁thoughts	-7.63076
▁using	-7.63734
▁lankans	-7.64501
th	-7.64854
▁thing	-7.64941
▁business	-7.65272
▁post	-7.65282
▁etc	-7.65402
▁share	-7.65563
▁question	-7.65802
▁its	-7.65805
▁suggestions	-7.66965
b	-7.67396
▁visit	-7.67822
(	-7.68336
▁4	-7.68608
▁down	-7.68958
▁srilanka	-7.70125
▁month	-7.7065
▁sinhala	-7.70828
▁start	-7.71013
▁school	-7.71311
▁phone	-7.71349
▁price	-7.71826
▁done	-7.7196
▁friend	-7.71988
▁parents	-7.72446
▁home	-7.72481
▁last	-7.72554
▁next	-7.7307
▁months	-7.74345
▁idea	-7.75073
▁data	-7.75553
▁card	-7.75818
▁never	-7.75979
▁5	-7.76008
▁service	-7.76145
▁free	-7.76386
er	-7.76484
▁government	-7.76964
▁say	-7.76988
▁food	-7.77521
▁made	-7.783
▁[	-7.79004
▁bit	-7.79538
▁trip	-7.80238
▁account	-7.81574
▁sure	-7.81662
▁come	-7.8184
▁engineering	-7.81899
x	-7.82035
▁might	-7.83056
▁guy	-7.83195
▁abroad	-7.83382
▁wondering	-7.84107
▁private	-7.84132
al	-7.84295
▁person	-7.84574
▁another	-7.85067
▁hello	-7.85141
▁student	-7.85629
▁keep	-7.85703
▁wanted	-7.86033
▁english	-7.86776
▁else	-7.86821
▁high	-7.86919
▁appreciate	-7.87054
▁tried	-7.87723
▁possible	-7.8786
▁thinking	-7.88169
▁during	-7.88974
▁off	-7.89119
▁having	-7.89619
▁issue	-7.91121
▁girl	-7.91346
▁worth	-7.9161
▁bad	-7.91714
▁stay	-7.9182
▁appreciated	-7.92151
▁found	-7.92539
▁cost	-7.92823
▁kind	-7.93144
▁live	-7.93188
g	-7.93437
▁such	-7.93715
▁heard	-7.93878
▁today	-7.94296
▁/	-7.94773
▁tell	-7.9544
▁always	-7.95638
▁uni	-7.95778
▁look	-7.96516
▁area	-7.96693
▁science	-7.96903
▁options	-7.98014
▁10	-7.98129
▁tips	-7.98376
▁ella	-7.98559
▁week	-7.98667
▁passport	-7.9874
▁actually	-7.99012
n	-7.99187
;	-7.99364
▁software	-7.99548
▁both	-7.99975
▁ask	-8.00047
▁hard	-8.00117
▁try	-8.00696
▁seems	-8.01146
▁situation	-8.01409
▁every	-8.01844
▁stuff	-8.01903
▁number	-8.02056
▁tax	-8.02111
▁available	-8.0214
▁interested	-8.02275
▁6	-8.03175
▁watch	-8.03222
▁plan	-8.034
▁app	-8.03508
▁house	-8.03771
▁different	-8.03934
▁night	-8.04373
▁again	-8.04543
▁started	-8.04641
▁went	-8.04826
▁says	-8.04853
▁salary	-8.04984
▁dialog	-8.04988
▁own	-8.0558
▁name	-8.05662
st	-8.05718
▁open	-8.05725
▁train	-8.05789
▁process	-8.05791
▁title	-8.06143
▁slt	-8.06147
r	-8.06306
▁part	-8.06701
▁already	-8.06893
▁buying	-8.07109
▁#	-8.07295
▁living	-8.0791
▁saw	-8.07914
▁great	-8.0851
c	-8.08828
▁prices	-8.09181
▁issues	-8.09187
▁students	-8.09489
▁end	-8.10318
▁able	-8.10353
▁told	-8.10772
t	-8.10826
▁vehicle	-8.10877
▁suggest	-8.10964
▁budget	-8.11269
▁asked	-8.11451
▁support	-8.11457
▁quality	-8.11554
!!	-8.12083
▁market	-8.12143
▁study	-8.12327
▁thought	-8.12626
▁seen	-8.1271
▁enough	-8.12849
▁galle	-8.13047
▁however	-8.13146
▁small	-8.13175
▁laptop	-8.13457
▁information	-8.13479
▁india	-8.13682
▁website	-8.13912
▁similar	-8.14582
▁experiences	-8.1489
▁under	-8.1524
in	-8.15379
▁whether	-8.15564
▁s	-8.15688
▁lkr	-8.15998
▁social	-8.16184
p	-8.16317
▁hear	-8.16896
▁future	-8.16939
▁u	-8.17884
▁learn	-8.18093
▁came	-8.1815
▁between	-8.18154
▁book	-8.18441
▁due	-8.18635
▁foreign	-8.1914
▁career	-8.19921
▁may	-8.20281
▁curious	-8.20912
▁maybe	-8.21047
▁visiting	-8.21083
f	-8.21187
▁o	-8.21755
▁bring	-8.21799
▁real	-8.22314
▁package	-8.22701
▁change	-8.22893
▁girls	-8.23204
▁20	-8.23426
▁current	-8.24383
▁myself	-8.2447
▁bus	-8.24605
▁south	-8.25072
▁per	-8.25076
▁personal	-8.2527
▁wanna	-8.25343
▁questions	-8.25418
▁ever	-8.25538
▁asking	-8.25633
▁women	-8.25962
▁couple	-8.26123
▁big	-8.26196
▁called	-8.26324
▁understand	-8.26358
▁seem	-8.26388
▁international	-8.26613
▁police	-8.26673
▁companies	-8.27181
▁world	-8.27515
ls	-8.27582
es	-8.27792
▁option	-8.2783
▁tourist	-8.28765
▁pretty	-8.28837
▁problem	-8.29022
▁y	-8.29353
▁jobs	-8.29554
▁near	-8.29944
▁7	-8.30046
▁saying	-8.30138
▁public	-8.30175
▁happened	-8.30292
▁mean	-8.30369
▁far	-8.30431
▁weeks	-8.30462
▁'	-8.30579
▁full	-8.30941
▁little	-8.3106
▁sell	-8.31174
▁shop	-8.31388
▁care	-8.31429
▁past	-8.3149
▁men	-8.31499
▁uk	-8.31873
▁regarding	-8.31933
▁countries	-8.3202
▁everything	-8.32241
▁making	-8.32253
▁video	-8.32681
▁apply	-8.33137
▁safe	-8.33151
▁talk	-8.33338
all	-8.33745
▁check	-8.33893
▁either	-8.34318
▁b	-8.34691
▁dont	-8.35107
▁t	-8.35266
▁ago	-8.35643
▁coming	-8.36036
▁media	-8.3622
▁tamil	-8.36833
▁un	-8.36879
▁reason	-8.37013
▁license	-8.37604
▁1.	-8.3778
▁airport	-8.37798
▁based	-8.37872
▁offer	-8.38087
▁man	-8.38319
▁relationship	-8.38527
▁point	-8.3863
▁community	-8.39173
▁away	-8.39347
▁normal	-8.39468
▁times	-8.39919
▁seeking	-8.40037
▁within	-8.40551
▁driving	-8.40687
▁wrong	-8.41399
▁brand	-8.415
▁hope	-8.41569
▁move	-8.41763
▁top	-8.4182
▁group	-8.41948
▁considering	-8.42251
▁hair	-8.42354
▁call	-8.42388
▁culture	-8.42794
▁r	-8.432
▁mind	-8.43233
▁)	-8.4332
▁system	-8.43385
▁side	-8.43608
▁related	-8.43618
▁ideas	-8.43753
▁opinion	-8.44364
▁true	-8.444
▁reddit	-8.44621
▁products	-8.45011
▁yet	-8.45146
▁reliable	-8.45386
▁travelling	-8.45393
▁order	-8.45419
▁bought	-8.45753
▁amount	-8.46069
▁internet	-8.4613
▁especially	-8.46175
o	-8.46333
▁hotel	-8.46365
▁beach	-8.46371
▁8	-8.46568
▁nothing	-8.46888
▁left	-8.47006
▁2.	-8.47331
or	-8.47487
▁knows	-8.4752
▁read	-8.47522
▁put	-8.47531
▁power	-8.47565
▁date	-8.47896
▁course	-8.4798
▁field	-8.47996
200	-8.48123
h	-8.4837
it	-8.48561
▁driver	-8.48915
▁results	-8.48996
▁send	-8.49294
▁shops	-8.49543
▁30	-8.49623
▁hours	-8.49639
▁vs	-8.49679
▁needed	-8.50533
▁income	-8.51098
▁e	-8.51518
▁google	-8.51646
▁tia	-8.51799
▁mobile	-8.52036
2	-8.52115
▁scam	-8.52278
▁tv	-8.52505
▁level	-8.53298
▁though	-8.53318
▁others	-8.53439
▁education	-8.53531
▁quite	-8.53606
▁lost	-8.53741
▁starting	-8.53824
▁party	-8.53826
▁join	-8.54137
▁whole	-8.54377
▁least	-8.54544
),	-8.54662
▁traveling	-8.54888
▁computer	-8.54992
▁uber	-8.55107
▁once	-8.55132
▁second	-8.55181
▁credit	-8.55403
▁show	-8.55797
▁health	-8.55989
▁become	-8.56172
▁exam	-8.56349
▁low	-8.57098
▁leave	-8.57138
▁each	-8.57831
▁opportunities	-8.57834
▁hand	-8.58103
▁anybody	-8.5827
▁face	-8.58365
▁kids	-8.58457
▁soon	-8.58494
▁taking	-8.58558
▁research	-8.58722
▁remember	-8.59159
▁industry	-8.59241
▁rs	-8.59527
▁class	-8.59547
▁studying	-8.5983
▁city	-8.60131
▁decent	-8.60327
▁15	-8.60918
▁almost	-8.60964
▁legal	-8.61018
▁meet	-8.61136
▁:)	-8.61152
▁general	-8.61176
▁music	-8.61501
▁spend	-8.61691
▁stop	-8.61783
▁land	-8.61848
▁play	-8.6228
▁age	-8.62417
▁9	-8.62835
▁tech	-8.62903
▁short	-8.63292
▁wedding	-8.6338
▁sub	-8.63471
▁pro	-8.63816
▁&#	-8.63881
▁provide	-8.64109
▁indian	-8.64118
able	-8.64242
▁payment	-8.64283
▁nice	-8.64294
▁against	-8.64376
▁2024	-8.64422
▁water	-8.6464
▁non	-8.64854
▁case	-8.65206
▁doctor	-8.65792
am	-8.66163
▁noticed	-8.66325
▁election	-8.66549
▁sliit	-8.66601
▁mom	-8.66718
▁office	-8.66819
▁details	-8.66945
▁services	-8.66978
▁single	-8.67207
▁national	-8.67239
▁ones	-8.67783
▁dating	-8.67815
▁gonna	-8.67823
▁paid	-8.67832
▁believe	-8.6793
nt	-8.6822
▁|	-8.6828
▁close	-8.68505
▁insights	-8.68626
te	-8.6884
▁road	-8.68953
▁instead	-8.69044
▁less	-8.69203
▁al	-8.69783
▁tickets	-8.69806
▁shit	-8.70345
▁expensive	-8.70474
▁basically	-8.70475
▁stream	-8.7048
▁weather	-8.70618
▁beautiful	-8.70621
▁until	-8.70624
ers	-8.71
▁studies	-8.71098
▁youtube	-8.71401
nd	-8.71613
▁choose	-8.71734
▁mirissa	-8.71773
▁iphone	-8.71877
▁contact	-8.71889
▁rent	-8.7195
▁australia	-8.72026
▁connection	-8.72061
▁:	-8.72158
▁type	-8.72549
▁higher	-8.72799
▁books	-8.73161
▁happy	-8.73358
▁across	-8.73401
▁management	-8.73687
▁took	-8.73961
▁news	-8.74166
▁m	-8.74226
3	-8.74281
▁medical	-8.74513
▁must	-8.74683
▁purchase	-8.74899
▁finding	-8.75254
▁feeling	-8.75417
▁usd	-8.75434
▁universities	-8.75662
▁talking	-8.76077
▁3.	-8.76138
▁early	-8.76368
▁store	-8.76621
w	-8.76707
▁deal	-8.77434
▁super	-8.77529
▁import	-8.77777
▁tea	-8.77783
▁fun	-8.78284
ta	-8.78384
▁fine	-8.7892
▁state	-8.79176
and	-8.79186
▁cause	-8.79344
▁drive	-8.79388
▁info	-8.79404
▁earn	-8.79645
▁posts	-8.79876
▁opinions	-8.80153
▁speed	-8.80389
on	-8.80418
▁law	-8.80541
▁itinerary	-8.80618
▁comes	-8.81142
▁common	-8.81164
▁given	-8.81453
▁self	-8.81526
▁following	-8.8153
▁game	-8.81717
5	-8.81721
▁project	-8.8201
▁pick	-8.82314
▁greatly	-8.82345
▁usually	-8.82603
▁internship	-8.82639
▁learning	-8.82739
▁12	-8.82906
▁bike	-8.8301
▁air	-8.83129
▁classes	-8.83143
▁affordable	-8.83303
▁kinda	-8.83604
▁eat	-8.83677
▁re	-8.83725
▁fellow	-8.83824
▁story	-8.83832
▁partner	-8.83909
+	-8.84005
▁unlimited	-8.84017
▁sometimes	-8.84678
▁morning	-8.85283
▁!	-8.85846
▁cash	-8.85857
▁later	-8.85942
▁p	-8.85975
▁build	-8.86111
▁..	-8.86147
▁tuk	-8.86181
▁makes	-8.86205
lk	-8.86293
▁works	-8.86334
▁program	-8.86481
▁late	-8.8649
1	-8.86579
▁comments	-8.86637
▁okay	-8.86776
▁rate	-8.86807
▁hate	-8.8698
▁f	-8.87042
▁physical	-8.87094
▁wait	-8.87276
▁financial	-8.87454
▁canada	-8.8757
▁team	-8.87671
▁c	-8.87685
](	-8.87813
▁wife	-8.87912
▁mother	-8.88005
▁drop	-8.88411
▁cheap	-8.88619
▁gym	-8.88955
▁forward	-8.89098
▁packages	-8.89336
▁lol	-8.89455
▁taxes	-8.89469
▁g	-8.89595
▁moving	-8.89598
▁knowledge	-8.89778
▁+	-8.90032
▁daily	-8.90186
▁often	-8.90277
▁ps	-8.90347
▁srilankan	-8.9051
▁maths	-8.90639
▁ai	-8.91095
▁repair	-8.91114
▁above	-8.91148
▁investment	-8.91287
▁female	-8.91298
▁schools	-8.91352
4	-8.91386
▁explain	-8.91487
▁transfer	-8.91611
▁mobitel	-8.91748
the	-8.91839
▁language	-8.91871
▁comment	-8.91904
▁application	-8.92068
▁million	-8.92097
▁history	-8.92134
▁engineer	-8.92196
▁specific	-8.92324
▁received	-8.9241
▁matter	-8.92458
▁cricket	-8.9251
▁hoping	-8.92741
▁sinhalese	-8.9292
wards	-8.93026
▁router	-8.9308
▁three	-8.93122
▁decided	-8.93367
▁legit	-8.93512
▁gone	-8.93588
▁happening	-8.93977
▁helpful	-8.94037
▁skills	-8.94078
▁sim	-8.94362
▁looks	-8.94431
▁site	-8.94638
▁seeing	-8.94777
▁main	-8.94864
▁tourists	-8.94964
▁happen	-8.95206
▁paying	-8.9536
▁reach	-8.95376
▁expect	-8.95489
▁items	-8.95591
▁dad	-8.95622
▁digital	-8.95677
▁serious	-8.95895
▁100	-8.96062
▁gift	-8.96066
▁feels	-8.9611
▁stores	-8.96314
▁ranil	-8.96373
▁games	-8.96732
▁together	-8.96751
▁needs	-8.96807
▁cards	-8.96883
▁18	-8.96992
▁negombo	-8.97182
re	-8.97343
▁extra	-8.9738
▁room	-8.9758
▁via	-8.97866
gb	-8.97899
▁wants	-8.97941
▁eliya	-8.98015
▁president	-8.98035
▁areas	-8.983
us	-8.98345
not	-8.98378
▁father	-8.98828
▁island	-8.98929
▁test	-8.99068
▁insurance	-8.99254
▁married	-8.99262
▁npp	-8.99532
▁run	-8.99729
▁probably	-8.99919
▁invest	-9.00068
is	-9.00126
▁allow	-9.00169
▁dm	-9.0052
▁gaming	-9.00546
▁certificate	-9.00954
▁sigiriya	-9.0098
u	-9.01012
▁outside	-9.01159
▁marketing	-9.01191
▁anymore	-9.01672
▁selling	-9.0194
to	-9.01971
▁set	-9.02168
▁head	-9.02283
▁young	-9.02377
▁de	-9.024
▁product	-9.02462
an	-9.0247
▁nuwara	-9.02509
▁v	-9.02545
▁brands	-9.028
▁staying	-9.03081
▁yall	-9.03196
▁worked	-9.03199
▁weird	-9.03295
▁pls	-9.03492
▁gave	-9.03572
▁stock	-9.03828
▁problems	-9.04061
▁recent	-9.04173
▁checked	-9.04576
▁stories	-9.04685
▁plans	-9.04686
▁brother	-9.04697
▁se	-9.0471
▁spots	-9.0491
▁average	-9.04917
▁hotels	-9.04955
▁alone	-9.05358
▁avoid	-9.05366
▁prefer	-9.05786
▁white	-9.05837
▁struggling	-9.06251
▁z	-9.06264
▁political	-9.06426
▁park	-9.06551
▁akd	-9.06727
ra	-9.0676
▁ways	-9.06942
▁facebook	-9.0695
▁ticket	-9.06992
rd	-9.0708
▁moment	-9.07204
▁below	-9.0723
▁yes	-9.07273
▁proper	-9.07344
▁add	-9.07376
▁easy	-9.07403
▁sort	-9.07461
▁difference	-9.07657
▁restaurants	-9.07767
▁applied	-9.08085
▁message	-9.08146
▁worried	-9.08311
▁apps	-9.0832
▁security	-9.08329
▁follow	-9.08364
▁met	-9.08455
▁building	-9.08462
▁mental	-9.08701
▁enjoy	-9.0878
▁jaffna	-9.08795
as	-9.08996
▁felt	-9.09244
▁girlfriend	-9.09274
▁costs	-9.09457
▁woman	-9.09474
▁16	-9.0969
▁plus	-9.09924
▁honestly	-9.09993
▁wear	-9.10075
what	-9.10172
▁marriage	-9.10239
na	-9.10308
▁turn	-9.10559
▁experienced	-9.10871
▁consider	-9.109
▁goes	-9.10957
▁25	-9.11159
▁chance	-9.11188
▁focus	-9.11196
▁overseas	-9.11363
▁courses	-9.11652
▁mentioned	-9.11726
▁guess	-9.11788
▁flight	-9.11791
▁aware	-9.11827
▁war	-9.11918
▁original	-9.12044
▁mostly	-9.12103
▁link	-9.12292
▁cuz	-9.12345
▁subreddit	-9.12393
▁male	-9.12452
▁speak	-9.12546
▁banks	-9.1258
▁drivers	-9.126
▁exchange	-9.12677
▁pc	-9.12786
en	-9.12805
▁physics	-9.12848
▁report	-9.1292
▁anywhere	-9.13117
▁interest	-9.13191
▁behind	-9.13288
▁hospital	-9.13359
▁connect	-9.13362
▁locals	-9.13551
▁coast	-9.13785
▁vote	-9.1396
▁song	-9.13997
▁fair	-9.14217
▁mine	-9.14225
▁receive	-9.14398
▁19	-9.14503
▁middle	-9.14536
▁als	-9.14559
▁sent	-9.14574
▁50	-9.14622
▁n	-9.14689
▁confused	-9.14759
▁huge	-9.14761
▁doctors	-9.15082
▁foundation	-9.15333
▁rather	-9.155
▁giving	-9.15511
▁somewhere	-9.15544
▁along	-9.1555
▁finally	-9.15561
▁masters	-9.15695
▁willing	-9.15732
▁multiple	-9.15749
▁allowed	-9.15954
▁degrees	-9.16042
▁cs	-9.16084
▁watching	-9.16092
▁cars	-9.16144
▁child	-9.16247
▁delivery	-9.16273
▁apple	-9.16329
▁path	-9.1641
▁offers	-9.1648
▁charge	-9.16766
▁fake	-9.16793
v	-9.16806
▁samsung	-9.17013
▁literally	-9.17016
up	-9.17156
▁answer	-9.17167
▁parts	-9.17197
▁remote	-9.17202
▁solo	-9.1724
▁children	-9.17262
▁ride	-9.17336
▁fees	-9.17577
▁trust	-9.1772
▁taken	-9.17763
▁instagram	-9.17769
▁interview	-9.17824
▁restaurant	-9.17886
▁range	-9.1793
▁certain	-9.17953
▁development	-9.18034
▁content	-9.18038
time	-9.18055
▁pickme	-9.18076
▁december	-9.18288
▁hit	-9.18291
▁create	-9.1854
▁tomorrow	-9.18783
▁list	-9.18921
▁customer	-9.18938
▁return	-9.18974
▁complete	-9.18975
▁difficult	-9.18978
]	-9.18994
▁movie	-9.19187
▁value	-9.19324
▁x	-9.19513
▁transport	-9.1954
▁including	-9.19625
▁economic	-9.19668
▁ok	-9.19794
se	-9.1999
▁cut	-9.20196
▁guide	-9.20247
▁exams	-9.20267
▁example	-9.20473
▁videos	-9.20596
▁mid	-9.20927
▁paper	-9.21012
▁explore	-9.21084
▁yala	-9.21147
▁completely	-9.21188
le	-9.21412
▁applying	-9.21518
▁previous	-9.21592
▁moved	-9.21634
▁route	-9.21766
▁decision	-9.21789
▁period	-9.21789
▁kid	-9.21809
▁11	-9.2182
▁recommendation	-9.21828
▁sites	-9.21992
▁random	-9.22122
▁genuine	-9.22386
▁important	-9.22399
srilanka	-9.22445
▁pixel	-9.22448
▁activities	-9.22456
▁final	-9.22557
ic	-9.22823
▁access	-9.22977
est	-9.23121
at	-9.2325
▁choice	-9.234
▁4.	-9.23422
▁iit	-9.23585
▁preferably	-9.23624
▁customs	-9.23914
▁rates	-9.23922
▁network	-9.23954
▁inside	-9.23974
▁line	-9.24089
▁2025	-9.2409
▁monthly	-9.24101
▁payments	-9.24162
▁context	-9.24325
▁websites	-9.24388
▁location	-9.24521
▁figure	-9.24576
▁events	-9.24662
▁folks	-9.24666
▁pass	-9.24728
▁official	-9.24738
▁pre	-9.24892
▁welcome	-9.25041
▁major	-9.25139
▁popular	-9.25146
▁half	-9.25154
▁body	-9.25459
▁save	-9.25506
▁cool	-9.25648
▁phones	-9.26
▁reasonable	-9.26286
▁cant	-9.26321
▁email	-9.26529
▁sorry	-9.26604
▁sex	-9.26622
▁vehicles	-9.26646
▁bill	-9.26681
▁shoes	-9.267
▁17	-9.26759
▁friendly	-9.27023
▁levels	-9.27219
▁channel	-9.27286
▁yesterday	-9.27356
ion	-9.27652
z	-9.27746
▁completed	-9.27829
▁guidance	-9.2792
com	-9.27944
▁handle	-9.27951
▁wish	-9.28032
▁fast	-9.28169
▁special	-9.28348
▁college	-9.28406
▁clothes	-9.28493
do	-9.2866
▁stuck	-9.28765
▁skin	-9.28767
ma	-9.29023
▁western	-9.29063
▁clear	-9.29137
▁moratuwa	-9.29357
no	-9.29363
▁front	-9.29691
▁professional	-9.29761
▁loan	-9.29829
▁enter	-9.30569
▁fix	-9.30593
▁fee	-9.30629
▁idk	-9.30647
▁leaving	-9.3077
▁specifically	-9.30794
▁warranty	-9.31061
▁coffee	-9.31075
▁according	-9.31328
▁investing	-9.31454
▁manage	-9.31477
▁potential	-9.31576
▁april	-9.31682
▁red	-9.3177
▁fiber	-9.31936
▁afford	-9.31966
▁sever	-9.31984
▁missing	-9.32167
▁term	-9.32212
▁directly	-9.32277
▁clothing	-9.32542
▁reviews	-9.32613
▁advise	-9.32711
▁medicine	-9.3276
▁means	-9.32862
▁basic	-9.33057
▁model	-9.33122
▁feedback	-9.3341
▁hutch	-9.33411
▁running	-9.33413
▁fit	-9.33422
▁apparently	-9.33429
▁design	-9.33745
▁black	-9.34023
▁arrival	-9.34329
▁sister	-9.34556
▁??	-9.34595
▁whatsapp	-9.34633
▁switch	-9.34638
▁users	-9.34866
if	-9.35085
▁booking	-9.35429
me	-9.35447
▁k	-9.35511
▁looked	-9.35584
▁wonder	-9.35638
▁shy	-9.35831
▁diploma	-9.36087
▁lack	-9.3611
▁required	-9.36188
▁14	-9.36374
▁station	-9.36381
▁position	-9.36401
▁letter	-9.36429
▁among	-9.36471
▁slow	-9.36474
▁dr	-9.36498
▁whats	-9.36616
▁honest	-9.36623
▁hell	-9.36641
year	-9.37183
▁cover	-9.37246
▁campus	-9.37325
▁worse	-9.37356
▁writing	-9.37381
▁reading	-9.37403
▁known	-9.37425
▁light	-9.37636
▁topic	-9.37765
▁address	-9.37805
▁nights	-9.37867
rs	-9.37899
ity	-9.37955
▁amazing	-9.3797
▁calls	-9.38114
▁view	-9.3812
▁pursue	-9.38281
▁space	-9.38285
▁24	-9.38378
▁seriously	-9.38381
▁shipping	-9.38615
▁gets	-9.38632
7	-9.38686
▁currency	-9.38915
▁changed	-9.38952
▁actual	-9.39157
▁documents	-9.39197
▁club	-9.39207
▁january	-9.39231
▁dog	-9.39304
for	-9.39348
pm	-9.39527
▁rupees	-9.3976
▁economy	-9.39853
▁walk	-9.39881
▁exactly	-9.39884
▁2023	-9.39888
▁d	-9.40054
▁rest	-9.40111
▁fact	-9.40264
▁anyway	-9.40309
▁wifi	-9.40507
▁unfortunately	-9.40508
▁waiting	-9.40662
▁continue	-9.40681
▁event	-9.40745
▁hot	-9.40815
▁spot	-9.40823
▁recommended	-9.40926
▁form	-9.40993
▁property	-9.41456
▁takes	-9.41546
▁calling	-9.41559
▁download	-9.41661
▁13	-9.41707
▁worst	-9.41776
we	-9.41787
▁personally	-9.42002
▁journey	-9.42097
▁parties	-9.42127
▁cheaper	-9.42168
▁ordered	-9.42219
▁chat	-9.42249
▁sound	-9.42603
▁quick	-9.42629
▁nic	-9.42848
▁buses	-9.42852
▁mention	-9.42965
▁accounts	-9.43391
▁interesting	-9.43443
▁terms	-9.43477
▁gf	-9.43479
▁bay	-9.43516
▁minutes	-9.43673
▁longer	-9.43681
ya	-9.43724
▁battery	-9.43743
▁id	-9.43918
▁further	-9.44059
▁crazy	-9.44061
▁hold	-9.44073
▁eta	-9.44156
▁pm	-9.44162
la	-9.44181
▁subjects	-9.44338
▁notice	-9.44384
▁background	-9.44405
▁page	-9.44446
▁web	-9.44913
▁fixed	-9.4493
▁wise	-9.45062
▁baby	-9.45073
▁tour	-9.45074
▁improve	-9.45322
▁break	-9.45413
day	-9.45487
▁groups	-9.45549
".	-9.45703
▁visited	-9.45722
▁simple	-9.4573
▁chemistry	-9.45748
▁september	-9.45748
▁july	-9.45775
▁entire	-9.45999
▁march	-9.46089
▁ready	-9.46216
▁shows	-9.46321
▁large	-9.46322
▁passed	-9.46614
▁staff	-9.46741
▁spending	-9.47043
▁older	-9.47057
▁born	-9.47128
ve	-9.47284
▁affect	-9.47383
▁extremely	-9.47446
▁clean	-9.47469
▁ceylon	-9.47473
▁action	-9.47486
▁clubs	-9.47489
▁considered	-9.47668
▁ict	-9.47751
less	-9.47882
▁act	-9.48045
▁lives	-9.48068
▁birthday	-9.48119
▁husband	-9.48121
▁bsc	-9.48156
▁correct	-9.48156
▁till	-9.48173
▁21	-9.48191
ro	-9.48236
▁balance	-9.4836
▁reasons	-9.48363
▁miss	-9.48526
▁drink	-9.48591
▁lower	-9.48657
▁north	-9.48845
▁buddhist	-9.48864
▁stand	-9.48922
▁relationships	-9.49027
▁happens	-9.49083
▁playing	-9.49102
▁politics	-9.4918
but	-9.49184
▁finance	-9.49228
▁genuinely	-9.49233
▁opportunity	-9.49495
▁urgent	-9.4953
▁co	-9.49599
▁mainly	-9.49652
▁straight	-9.49851
▁sense	-9.49881
▁l	-9.50029
▁foreigners	-9.50127
▁supposed	-9.5015
ation	-9.50416
▁compar	-9.50451
ies	-9.50501
▁paypal	-9.50556
▁gold	-9.50928
▁tourism	-9.50932
▁searching	-9.51128
so	-9.5116
▁subject	-9.51309
▁season	-9.51405
▁usa	-9.51551
▁increase	-9.51566
▁update	-9.516
▁scared	-9.51653
▁rice	-9.51655
▁sports	-9.51699
▁hour	-9.51701
20	-9.51945
▁taxi	-9.52261
▁traffic	-9.52339
▁ex	-9.52392
▁result	-9.52394
▁hire	-9.52447
▁poor	-9.52648
▁dinner	-9.52711
▁lk	-9.5281
▁despi	-9.52925
▁limit	-9.53032
▁weight	-9.53096
▁requirements	-9.53324
old	-9.53396
▁request	-9.53419
▁october	-9.53432
▁june	-9.5347
▁platform	-9.53496
▁photo	-9.53498
▁safety	-9.53797
▁green	-9.53824
▁august	-9.53829
▁street	-9.53871
▁source	-9.53906
▁bio	-9.54026
▁earning	-9.54058
▁choosing	-9.54139
▁daraz	-9.54152
▁boy	-9.54275
▁master	-9.54281
ur	-9.5434
▁majority	-9.54537
▁engineers	-9.54994
▁cat	-9.55198
▁british	-9.55263
▁numbers	-9.55291
▁resources	-9.55358
▁answers	-9.55457
▁code	-9.55497
▁names	-9.55555
▁role	-9.55661
▁words	-9.55865
▁sad	-9.55936
▁total	-9.55959
▁commercial	-9.55996
▁failed	-9.56091
)?	-9.56384
▁solution	-9.56453
▁lately	-9.56489
▁23	-9.56559
▁stupid	-9.56731
▁reply	-9.56845
▁programs	-9.56922
▁members	-9.57042
▁note	-9.5707
▁sale	-9.57241
▁movies	-9.57308
▁obtain	-9.57314
▁savings	-9.57372
▁accept	-9.57416
▁faced	-9.57421
▁fuck	-9.57437
▁control	-9.57603
▁migrate	-9.57751
▁dubai	-9.5788
▁entry	-9.57896
he	-9.57957
▁fan	-9.58195
▁cultural	-9.58211
▁employees	-9.58223
▁manager	-9.58423
▁boys	-9.58588
ting	-9.58707
▁safari	-9.58755
▁weekend	-9.58782
▁whatever	-9.58791
sri	-9.58908
▁40	-9.58934
▁technology	-9.59009
▁immigration	-9.59035
▁teacher	-9.59171
▁rich	-9.59387
▁november	-9.59415
like	-9.59685
▁singapore	-9.59783
▁society	-9.59786
▁arugam	-9.5979
▁traditional	-9.59869
▁direct	-9.59871
▁screen	-9.60036
▁dead	-9.60135
▁!!	-9.60177
▁absolutely	-9.60198
▁expenses	-9.60281
▁sector	-9.6029
▁treatment	-9.60306
▁word	-9.60353
ri	-9.60483
▁weligama	-9.60604
▁redditors	-9.60642
▁compare	-9.60658
▁selected	-9.60689
▁muslim	-9.60726
▁asia	-9.60807
▁decide	-9.60835
▁booked	-9.60869
▁shopping	-9.60954
▁facing	-9.60965
▁apartment	-9.61099
▁projects	-9.61208
▁europe	-9.61347
▁east	-9.61372
▁aliexpress	-9.61743
▁sleep	-9.61794
▁holiday	-9.6187
▁citizen	-9.61891
▁eye	-9.61893
▁stopped	-9.62133
▁speaking	-9.62221
▁incident	-9.62267
▁board	-9.62511
▁rock	-9.62543
▁appointment	-9.62667
▁global	-9.62879
▁truly	-9.62923
▁nature	-9.62925
▁sajith	-9.62947
out	-9.62965
▁businesses	-9.63111
▁milk	-9.63144
▁platforms	-9.63242
▁btw	-9.63363
▁tin	-9.63453
ive	-9.63471
my	-9.6354
▁anura	-9.63807
▁beaches	-9.63809
▁survey	-9.63877
▁permit	-9.63878
▁limited	-9.63914
▁rental	-9.63976
▁except	-9.64111
▁crisis	-9.64128
▁trouble	-9.64289
▁ur	-9.6436
▁approach	-9.64464
ary	-9.64497
▁waste	-9.64661
▁benefits	-9.64847
▁w	-9.64874
▁posting	-9.64912
▁impact	-9.64936
▁kept	-9.64942
▁condition	-9.65077
▁funds	-9.65086
▁grade	-9.65266
▁illegal	-9.653
▁hearing	-9.65326
▁bunch	-9.6535
ment	-9.6539
▁size	-9.65447
▁alternative	-9.65463
▁dude	-9.65515
▁gen	-9.65635
▁broke	-9.65644
▁win	-9.65735
▁minimum	-9.65772
▁town	-9.65944
▁discuss	-9.66124
▁environment	-9.66224
▁fully	-9.66448
▁comfortable	-9.6659
▁toxic	-9.66605
▁rules	-9.6694
▁surgery	-9.66999
▁boyfriend	-9.67021
6	-9.67044
▁22	-9.67077
▁vacation	-9.67184
▁deposit	-9.67199
▁refund	-9.67241
▁peak	-9.67459
▁pain	-9.67514
▁dream	-9.6758
▁institute	-9.67617
▁sold	-9.67756
▁usual	-9.67787
▁trade	-9.67792
▁foreigner	-9.67798
▁smart	-9.6783
▁training	-9.67954
▁conversation	-9.68024
▁version	-9.68035
▁easily	-9.68252
▁citizenship	-9.68255
▁posted	-9.68279
▁heart	-9.6831
▁strong	-9.68575
▁sampath	-9.68684
▁attention	-9.68684
▁favorite	-9.68863
▁religion	-9.68874
▁telling	-9.68951
|	-9.69071
▁owner	-9.69111
▁upcoming	-9.69139
▁match	-9.69168
▁younger	-9.69224
▁risk	-9.69249
▁temple	-9.69297
▁step	-9.6931
▁respect	-9.69362
▁birth	-9.69495
▁hidden	-9.69535
▁senior	-9.69743
▁rain	-9.69828
▁search	-9.69911
."	-9.70078
▁overall	-9.70204
▁ended	-9.70361
co	-9.70423
▁gives	-9.70562
▁vibe	-9.70605
▁j	-9.70772
▁unique	-9.70823
▁amazon	-9.70825
▁london	-9.70831
li	-9.7099
man	-9.70992
▁offered	-9.71026
▁songs	-9.71102
▁remove	-9.71137
▁express	-9.71266
▁practice	-9.71359
▁evening	-9.71375
▁taste	-9.71579
▁protein	-9.71701
▁medium	-9.71704
▁crypto	-9.71715
▁airlines	-9.71943
▁camera	-9.71954
▁fb	-9.72058
▁display	-9.72161
▁demand	-9.72344
▁film	-9.72373
▁custom	-9.72602
▁text	-9.72641
▁court	-9.7278
▁procedure	-9.72786
▁adult	-9.72801
▁understanding	-9.72853
▁exploring	-9.72995
▁pursuing	-9.72995
▁department	-9.7323
▁civil	-9.73433
▁registered	-9.73618
▁minister	-9.73687
▁purchased	-9.73739
▁fucking	-9.73758
how	-9.73829
▁salaries	-9.73882
▁fibre	-9.7389
▁annoying	-9.73913
▁third	-9.73923
▁fall	-9.73943
▁becoming	-9.74018
▁channels	-9.7403
▁charges	-9.74146
gotten	-9.74215
ne	-9.74252
▁definitely	-9.74359
▁china	-9.7437
▁everyday	-9.74372
▁beginner	-9.74578
▁method	-9.7459
▁touch	-9.74594
▁teachers	-9.74656
▁simply	-9.74784
▁parliament	-9.74848
▁bar	-9.75022
▁series	-9.75255
▁obviously	-9.75291
▁finished	-9.7537
wa	-9.75468
▁trincomalee	-9.75685
▁hnd	-9.75694
▁rid	-9.75856
▁human	-9.75983
▁cafe	-9.76017
▁authentic	-9.76138
▁fear	-9.76139
▁lunch	-9.76153
▁apart	-9.76164
▁banking	-9.76169
▁approved	-9.76212
▁elephant	-9.76394
▁west	-9.76497
▁studied	-9.76591
▁sharing	-9.76616
da	-9.76693
▁politicians	-9.7676
▁score	-9.76945
▁additional	-9.77007
▁fresh	-9.77013
ce	-9.77048
▁japan	-9.77049
▁everywhere	-9.77059
▁central	-9.7707
▁properly	-9.77181
ha	-9.77286
▁sales	-9.77447
presidential	-9.77447
▁perfect	-9.77456
il	-9.77556
ness	-9.7766
▁port	-9.77848
▁file	-9.77868
▁laws	-9.77904
▁sexual	-9.7795
▁ikman	-9.77976
▁involved	-9.7799
▁dumb	-9.78014
10	-9.78065
▁arrive	-9.78134
▁chill	-9.78256
▁bachelor	-9.78267
▁necessary	-9.78438
▁thailand	-9.78458
▁sending	-9.78501
▁intern	-9.78598
▁lose	-9.78602
ar	-9.78646
▁200	-9.78704
▁valid	-9.78716
▁relative	-9.78721
▁curry	-9.78906
▁unawatuna	-9.78929
▁cmb	-9.78955
▁deep	-9.79281
▁sun	-9.79476
▁attack	-9.79493
▁lead	-9.7985
▁catch	-9.79908
rought	-9.79925
▁scene	-9.80134
▁undergraduate	-9.8014
▁luck	-9.80265
▁write	-9.80322
▁themselves	-9.80323
▁trustworthy	-9.80336
▁individuals	-9.80438
▁attempt	-9.80618
▁picture	-9.8062
▁box	-9.80646
▁grow	-9.80734
▁art	-9.80784
▁ladies	-9.80812
▁sit	-9.81001
ch	-9.81045
▁mods	-9.81064
▁death	-9.81101
▁center	-9.8111
▁added	-9.81151
▁expected	-9.81196
▁regular	-9.81227
▁loved	-9.81237
▁active	-9.8174
▁fashion	-9.8175
▁imported	-9.81754
mbps	-9.81761
▁register	-9.81806
▁fund	-9.82009
▁response	-9.82069
▁debit	-9.82116
▁dark	-9.8222
▁faculty	-9.82239
▁duty	-9.82245
▁status	-9.82253
▁itself	-9.82401
▁cons	-9.8243
▁present	-9.82448
▁ac	-9.82495
▁importing	-9.82531
▁academic	-9.82602
▁500	-9.82658
▁ban	-9.8271
▁receiving	-9.82733
▁anxiety	-9.82735
▁tiktok	-9.82735
▁rant	-9.82819
▁tho	-9.8285
ni	-9.83061
▁significant	-9.83169
which	-9.83225
▁ragging	-9.83251
▁listen	-9.83289
▁ads	-9.83324
▁offering	-9.83403
▁pr	-9.83458
▁meaning	-9.8349
▁standard	-9.83553
▁ya	-9.83758
▁fish	-9.83889
▁meeting	-9.83977
▁300	-9.84101
▁item	-9.84106
▁practical	-9.84207
▁connections	-9.84223
▁hr	-9.84237
▁ive	-9.8425
8	-9.84268
▁laptops	-9.84317
▁positive	-9.84715
▁track	-9.84894
▁review	-9.85058
▁premium	-9.85196
go	-9.8524
▁ba	-9.85363
this	-9.8539
▁select	-9.85469
▁qualifications	-9.85515
▁insight	-9.85536
▁sunday	-9.85556
▁5.	-9.85634
▁electricity	-9.85693
▁growth	-9.85738
▁input	-9.85769
▁ideally	-9.85801
▁ppl	-9.85835
end	-9.8597
be	-9.86107
▁showing	-9.86188
▁suitable	-9.86201
▁wtf	-9.86201
▁fuel	-9.86207
▁dear	-9.86297
▁treat	-9.86541
▁machine	-9.86546
▁registration	-9.86547
▁turned	-9.86552
ka	-9.86574
▁pressure	-9.86601
▁image	-9.86629
▁blood	-9.86695
▁chicken	-9.86709
▁clearly	-9.86812
▁flying	-9.86904
▁likely	-9.86951
▁macbook	-9.87055
▁graphic	-9.87089
▁unit	-9.87162
▁claim	-9.87166
▁26	-9.87175
▁knew	-9.87208
▁dress	-9.87235
▁fort	-9.87268
▁concerned	-9.8734
▁created	-9.87427
▁ship	-9.87459
▁loss	-9.87563
▁district	-9.87566
▁nearby	-9.87727
▁eating	-9.87982
▁customers	-9.88007
▁wi	-9.88108
▁seat	-9.88194
▁excited	-9.8823
▁double	-9.8824
▁suddenly	-9.88262
ted	-9.88274
▁religious	-9.88274
▁models	-9.88342
▁alot	-9.88437
▁dogs	-9.8845
▁cafes	-9.88461
9	-9.88665
▁february	-9.88755
▁japanese	-9.88761
▁dollars	-9.88763
▁reality	-9.88786
▁healthy	-9.88955
▁ma	-9.89044
▁alternatives	-9.89049
▁developer	-9.89155
▁removed	-9.89395
▁workers	-9.89456
arious	-9.89547
▁mistake	-9.89614
▁agent	-9.89711
▁casual	-9.89728
cc	-9.89733
▁famous	-9.89794
▁ultra	-9.89799
colombo	-9.89826
▁max	-9.8988
▁individual	-9.90121
▁coconut	-9.90186
▁messages	-9.90212
▁easier	-9.90304
▁jvp	-9.90348
▁cup	-9.90411
▁internships	-9.90642
▁surf	-9.90778
▁2000	-9.90798
▁broadband	-9.9083
▁beyond	-9.9083
▁adhd	-9.90832
▁immediately	-9.90853
▁tuition	-9.90854
▁vat	-9.90941
ous	-9.91261
▁discussion	-9.91274
▁american	-9.91281
ist	-9.91307
▁sounds	-9.91361
▁approval	-9.91369
▁planned	-9.91373
▁yourself	-9.91406
▁trains	-9.91555
▁ideal	-9.91718
▁voting	-9.91894
▁negative	-9.91903
▁particularly	-9.91982
▁commerce	-9.91987
▁h	-9.92107
▁graduate	-9.92232
▁none	-9.92278
▁generation	-9.92317
▁bigge	-9.92477
▁la	-9.92632
▁owners	-9.92823
▁candidate	-9.92849
▁sign	-9.92874
24	-9.92878
▁teach	-9.92931
▁startup	-9.92952
▁spent	-9.92967
▁god	-9.92974
▁mba	-9.92983
▁60	-9.93052
one	-9.93083
ish	-9.93098
▁bro	-9.93234
ge	-9.93303
q	-9.93318
▁ol	-9.93367
▁throw	-9.93485
▁tired	-9.93515
▁ltte	-9.93538
▁whenever	-9.9357
▁locally	-9.93679
▁systems	-9.93712
▁style	-9.93919
▁shot	-9.9394
▁exist	-9.94039
▁valuable	-9.94048
▁creating	-9.94048
▁trcsl	-9.94076
el	-9.94141
ie	-9.94152
▁anti	-9.9434
▁maintain	-9.94434
▁advices	-9.94486
▁imagine	-9.94504
▁particular	-9.94528
▁eventually	-9.94594
▁twice	-9.94594
▁views	-9.94646
▁leads	-9.94804
▁atm	-9.94888
▁votes	-9.94959
▁solutions	-9.95003
▁upon	-9.9502
fi	-9.9509
▁malaysia	-9.95125
▁yeah	-9.95134
▁afraid	-9.95144
▁earlier	-9.95144
▁scammed	-9.95144
▁replacement	-9.95153
▁gain	-9.95154
▁hands	-9.9518
▁renew	-9.95218
▁restrictions	-9.95269
▁pros	-9.95473
▁confirm	-9.95511
▁purchasing	-9.95696
▁dual	-9.95715
▁beauty	-9.95719
▁luxury	-9.95737
▁asian	-9.95797
▁growing	-9.96015
▁carry	-9.96029
▁cream	-9.9619
ana	-9.96215
▁natural	-9.96224
▁android	-9.96252
▁edexcel	-9.96277
▁biology	-9.96281
▁gay	-9.9629
▁em	-9.96301
▁cheers	-9.96334
▁fill	-9.96425
▁methods	-9.96506
▁require	-9.96603
▁oil	-9.96688
ry	-9.96694
▁trading	-9.96811
▁hangout	-9.96817
▁damn	-9.9682
▁changing	-9.96826
▁copy	-9.9685
▁germany	-9.96853
▁steps	-9.97108
▁challenges	-9.97129
▁somehow	-9.97165
▁photos	-9.97258
▁math	-9.97364
▁facilities	-9.97372
▁childhood	-9.97374
▁sea	-9.97444
▁lady	-9.97968
▁attend	-9.97972
▁bag	-9.98097
▁specially	-9.98138
▁ahead	-9.9827
▁alcohol	-9.98502
▁familiar	-9.98505
▁marks	-9.98539
▁wild	-9.98551
▁papers	-9.98782
term	-9.98901
▁sources	-9.98957
ling	-9.99072
▁embassy	-9.9908
▁anuradhapura	-9.99092
▁2022	-9.99094
▁concerns	-9.99096
▁key	-9.99125
lo	-9.99255
▁accepted	-9.99335
▁eats	-9.99425
▁spa	-9.99456
▁renting	-9.99481
▁tamils	-9.99505
▁con	-9.99634
▁joining	-9.9967
▁finish	-9.99785
▁host	-9.99967
▁lived	-9.99975
▁debt	-10.0015
▁agency	-10.0024
▁nugegoda	-10.0032
▁1000	-10.0039
▁purpose	-10.004
ck	-10.0041
im	-10.0048
▁mess	-10.0054
▁changes	-10.0057
▁wanting	-10.007
▁user	-10.0079
▁zero	-10.0081
▁sick	-10.0081
▁ice	-10.0081
▁airtel	-10.0081
▁christmas	-10.0083
▁setup	-10.0084
▁delivered	-10.0095
▁caught	-10.014
▁telegram	-10.014
▁tough	-10.0141
▁translate	-10.0141
▁electronics	-10.0142
▁renewal	-10.0144
▁icbt	-10.0159
▁teaching	-10.0162
▁generally	-10.0166
▁rn	-10.017
▁dealing	-10.0175
▁include	-10.0181
pa	-10.0187
ara	-10.019
▁kottu	-10.0199
▁fire	-10.0201
▁provider	-10.0205
▁solar	-10.0206
▁hang	-10.0234
▁points	-10.0236
▁performance	-10.0251
▁truth	-10.0258
▁corporate	-10.0258
▁fat	-10.0259
▁built	-10.0266
▁ordering	-10.027
▁shirts	-10.0271
▁locations	-10.0281
▁provided	-10.0303
▁walking	-10.0309
vi	-10.0313
▁lots	-10.0313
▁unsure	-10.0318
▁pair	-10.0318
▁solid	-10.0319
▁ucsc	-10.032
▁broken	-10.0322
▁useful	-10.0332
▁managed	-10.034
▁perspective	-10.0372
▁peace	-10.0376
▁courier	-10.0377
▁funny	-10.038
▁tend	-10.0386
tha	-10.0387
just	-10.0387
▁gb	-10.0396
▁financially	-10.0398
▁star	-10.0401
▁players	-10.0414
▁types	-10.0439
▁losing	-10.0439
▁checking	-10.0467
j	-10.0469
▁blame	-10.0487
▁secure	-10.0489
▁peradeniya	-10.0499
▁stress	-10.0514
▁heading	-10.0515
▁pictures	-10.052
po	-10.0523
▁marry	-10.0532
sa	-10.0539
ent	-10.0545
▁typical	-10.0554
▁became	-10.0559
▁toyota	-10.0559
▁assume	-10.0559
▁shared	-10.0561
▁constantly	-10.0562
▁:(	-10.0577
▁withdraw	-10.0579
▁edit	-10.0593
ter	-10.0593
▁closed	-10.0603
▁blue	-10.0606
▁voice	-10.0616
▁tuktuk	-10.062
▁flag	-10.0621
▁2019	-10.0621
▁100%	-10.0621
▁informed	-10.0635
▁relatives	-10.0647
▁adults	-10.065
▁28	-10.0657
▁struggle	-10.0667
▁st	-10.0674
▁buddhism	-10.0682
▁privacy	-10.0683
ism	-10.0683
▁fields	-10.069
▁ram	-10.0724
▁bikes	-10.0725
▁clients	-10.0727
ba	-10.0732
▁psychology	-10.0744
▁effective	-10.0747
▁cyber	-10.0747
▁rooms	-10.0753
▁cases	-10.0765
30	-10.0767
15	-10.0774
▁80	-10.0782
▁eyes	-10.0787
▁dollar	-10.0805
▁heavy	-10.0806
▁relevant	-10.0808
▁wearing	-10.0817
▁graduates	-10.082
▁bills	-10.0828
▁monitor	-10.0839
▁fans	-10.0851
▁pa	-10.0858
▁device	-10.0867
▁psychiatrist	-10.0869
▁grateful	-10.0869
▁electronic	-10.0869
▁written	-10.0872
▁corruption	-10.0872
▁putting	-10.0873
▁chinese	-10.0873
▁concern	-10.0886
50	-10.0902
▁chances	-10.0916
▁upgrade	-10.0923
▁freelance	-10.0931
▁experiencing	-10.0933
▁sitting	-10.0934
▁barely	-10.0934
▁nsbm	-10.0935
▁friday	-10.0936
▁although	-10.0938
▁mixed	-10.0949
▁fail	-10.0949
▁27	-10.0962
▁surfing	-10.0966
▁speeds	-10.0987
un	-10.0991
▁0	-10.0991
▁successful	-10.0992
▁families	-10.0996
▁policy	-10.0996
▁licence	-10.0996
▁matara	-10.0997
▁coz	-10.0997
▁destination	-10.0997
▁football	-10.0998
▁hnb	-10.0999
▁distance	-10.1001
▁transportation	-10.1003
sh	-10.1008
▁candidates	-10.101
lkr	-10.1017
▁export	-10.1033
ts	-10.1042
et	-10.1051
▁beginning	-10.1062
▁latest	-10.1072
▁elections	-10.1078
ant	-10.1079
▁increased	-10.1081
▁mark	-10.1102
▁region	-10.111
▁abuse	-10.1117
▁motorcycle	-10.1124
▁policies	-10.1125
▁scholarship	-10.1126
▁atleast	-10.1129
▁raised	-10.1139
▁record	-10.1146
▁states	-10.1176
▁dec	-10.1193
▁signal	-10.1197
▁designer	-10.1199
os	-10.12
▁rights	-10.1213
▁indians	-10.1216
are	-10.1229
▁agree	-10.1243
▁crush	-10.1255
▁favourite	-10.1255
▁employment	-10.1256
▁complaint	-10.1258
age	-10.1258
▁initially	-10.1261
▁opening	-10.1275
▁push	-10.1294
▁reduce	-10.131
▁pet	-10.1314
▁scams	-10.1316
▁base	-10.1324
▁released	-10.133
▁totally	-10.1333
▁held	-10.1333
▁quickly	-10.1334
▁mil	-10.1354
▁mini	-10.1383
▁identify	-10.1387
▁replies	-10.1387
▁strict	-10.1387
▁brain	-10.1388
▁modern	-10.1391
▁blocked	-10.1399
▁king	-10.1399
▁lakhs	-10.1408
▁fly	-10.1411
ps	-10.1413
▁son	-10.1424
▁band	-10.1425
▁conditions	-10.1427
▁trusted	-10.1432
ai	-10.1438
▁mix	-10.1439
▁exact	-10.1448
▁technical	-10.1452
▁energy	-10.1454
▁railway	-10.1455
▁success	-10.1456
▁msc	-10.1457
▁construction	-10.1457
▁dambulla	-10.1459
free	-10.1473
ia	-10.1479
ti	-10.1484
ine	-10.1487
▁cook	-10.1503
▁jan	-10.1505
▁epf	-10.1521
▁therapy	-10.1524
▁lawyer	-10.1524
▁na	-10.1531
▁realized	-10.1536
▁advanced	-10.1545
▁complet	-10.1547
▁helped	-10.155
▁transit	-10.1587
▁migration	-10.1591
▁stick	-10.1593
▁passion	-10.1593
100	-10.1596
▁hopefully	-10.1597
▁highest	-10.1598
▁filled	-10.1609
friendly	-10.161
▁helping	-10.1617
▁cse	-10.1618
▁charged	-10.1619
▁missed	-10.1622
iya	-10.1626
▁four	-10.1653
▁koko	-10.1657
▁estate	-10.1657
▁saturday	-10.166
▁dates	-10.1666
▁bags	-10.1667
▁heat	-10.1681
um	-10.1686
▁pizza	-10.1719
▁linkedin	-10.1726
▁stable	-10.1727
▁accommodation	-10.1729
▁ahangama	-10.173
▁therapist	-10.173
▁unless	-10.1732
▁mum	-10.174
▁arrived	-10.1742
▁convert	-10.1745
▁collect	-10.1746
▁couples	-10.1751
▁di	-10.1758
▁learned	-10.1781
▁batch	-10.1792
▁therefore	-10.1794
ot	-10.1795
▁hikkaduwa	-10.1796
▁cinnamon	-10.1797
▁freedom	-10.1797
▁mechanical	-10.1799
▁employee	-10.1801
▁arrested	-10.1804
▁gifts	-10.1807
▁parking	-10.1808
▁joined	-10.1812
▁cv	-10.1817
▁pull	-10.1839
▁gov	-10.1843
▁updates	-10.1852
va	-10.1858
▁communication	-10.1864
▁goal	-10.1865
▁progress	-10.1866
▁bottle	-10.1868
▁pool	-10.1884
▁yo	-10.1898
with	-10.1898
▁tip	-10.1905
▁35	-10.1924
▁migrating	-10.1933
▁kdu	-10.1934
▁depression	-10.1934
▁racist	-10.1935
▁province	-10.1937
▁scooter	-10.1941
▁played	-10.1945
▁cinema	-10.1946
▁developed	-10.1952
▁matters	-10.1955
▁bars	-10.1967
▁meal	-10.1973
▁busy	-10.1973
▁leading	-10.1974
▁imports	-10.1991
▁realize	-10.1995
ized	-10.1996
▁color	-10.2
▁dermatologist	-10.2004
▁population	-10.2004
▁prime	-10.2004
▁dehiwala	-10.2007
▁cheapest	-10.2008
▁joke	-10.201
▁document	-10.201
▁bentota	-10.201
can	-10.2013
▁adam	-10.2013
de	-10.2014
▁additionally	-10.2014
▁ground	-10.2015
▁talked	-10.2043
▁citizens	-10.205
▁muslims	-10.2052
▁feelings	-10.2072
▁secret	-10.2076
▁apiit	-10.2077
▁devices	-10.2077
▁cloud	-10.2079
▁cold	-10.208
▁table	-10.2089
▁dry	-10.2089
▁stage	-10.2093
▁develop	-10.2095
▁aim	-10.2103
▁nearly	-10.212
▁holidays	-10.2121
▁roads	-10.2126
▁pure	-10.2134
▁anime	-10.2146
▁luggage	-10.2147
▁sugar	-10.2148
▁collection	-10.2149
▁error	-10.2152
▁usage	-10.2156
▁workplace	-10.2157
▁resort	-10.2158
▁doubt	-10.217
▁powder	-10.2201
▁prior	-10.2217
▁maintenance	-10.2219
▁nation	-10.2221
▁trips	-10.2221
▁proof	-10.2223
▁direction	-10.2225
yo	-10.2231
ally	-10.2235
▁professionals	-10.2238
km	-10.2267
▁hike	-10.2281
▁bi	-10.2282
any	-10.2284
▁ka	-10.2286
▁tower	-10.2295
▁sells	-10.2296
▁contract	-10.2297
▁behavior	-10.2297
▁sat	-10.2312
rew	-10.2313
level	-10.2315
ca	-10.2315
▁drama	-10.2318
25	-10.2326
▁interviews	-10.2332
▁fight	-10.2342
▁communities	-10.2364
▁breakfast	-10.2364
▁coverage	-10.2365
▁contacted	-10.2368
pe	-10.2368
▁hiking	-10.2369
▁showed	-10.2381
▁dis	-10.2387
▁replace	-10.2425
▁suggested	-10.2433
▁proceed	-10.2437
▁garbage	-10.2437
▁pettah	-10.2437
▁discord	-10.244
▁phd	-10.2441
▁anyways	-10.2443
▁garden	-10.2445
▁won	-10.2447
▁daughter	-10.2448
▁providers	-10.245
▁expecting	-10.2463
di	-10.2492
line	-10.2497
▁scholarships	-10.2512
▁opened	-10.2515
▁possibly	-10.2516
▁mail	-10.252
▁piece	-10.2522
ate	-10.2529
▁remotely	-10.2531
▁former	-10.257
▁settle	-10.2579
▁clue	-10.2585
▁90	-10.2588
▁2-3	-10.2588
▁cima	-10.2588
▁topics	-10.2594
▁section	-10.2595
▁whom	-10.2599
▁five	-10.2601
ng	-10.2602
▁watches	-10.261
▁searched	-10.2616
▁knowing	-10.2616
▁bachelors	-10.2616
▁practices	-10.2624
▁(1	-10.2625
▁gc	-10.263
▁prevent	-10.2644
▁quiet	-10.2654
▁german	-10.2656
▁chose	-10.2658
▁frustrating	-10.2661
▁clearance	-10.2662
they	-10.2663
▁covid	-10.2667
▁somebody	-10.2667
▁programme	-10.267
▁surprised	-10.2672
▁floor	-10.2674
▁accident	-10.2677
levels	-10.2679
▁standards	-10.2686
▁srilankans	-10.2702
▁seek	-10.2705
hi	-10.2707
▁shift	-10.2723
per	-10.2735
▁loud	-10.2737
▁keyboard	-10.2737
▁cities	-10.2738
▁passionate	-10.2739
▁honda	-10.2741
▁fitness	-10.2742
▁tattoo	-10.2747
▁european	-10.2749
▁cake	-10.2751
▁regret	-10.2753
▁crowded	-10.2753
▁150	-10.2759
▁messed	-10.2759
from	-10.2765
▁legally	-10.2772
▁soft	-10.2777
mb	-10.2782
sl	-10.2783
▁pack	-10.2785
▁depressed	-10.2813
▁rude	-10.2814
ga	-10.2814
▁uae	-10.2817
▁trail	-10.282
▁250	-10.2822
▁cousin	-10.2824
▁leader	-10.2831
▁fr	-10.2849
▁intake	-10.2856
ty	-10.2866
kg	-10.2872
▁initial	-10.2884
▁providing	-10.289
▁honeymoon	-10.2892
▁awareness	-10.2892
▁mad	-10.2893
▁hassle	-10.2894
▁abans	-10.2894
▁cambridge	-10.2895
▁treated	-10.2918
▁lines	-10.2923
▁educational	-10.2932
0	-10.2942
▁unis	-10.2946
ful	-10.2949
▁transactions	-10.2949
▁breaking	-10.2953
▁plastic	-10.2968
▁adidas	-10.2968
▁swimming	-10.2968
▁ongoing	-10.2968
▁tbh	-10.2968
▁insane	-10.2968
▁dropped	-10.2968
▁shitty	-10.2969
▁situations	-10.2979
▁setting	-10.2982
▁useless	-10.2984
▁1)	-10.3005
▁features	-10.3014
▁imax	-10.3022
you	-10.3032
▁achieve	-10.3034
▁helps	-10.3042
▁prescription	-10.3046
▁terrible	-10.3046
▁otp	-10.3059
▁previously	-10.3065
▁bed	-10.3097
▁surprise	-10.3113
▁pages	-10.3122
▁meals	-10.3123
▁rule	-10.3127
▁nibm	-10.3128
▁canadian	-10.3129
▁wallet	-10.3138
23	-10.3138
▁buffet	-10.314
▁material	-10.314
▁member	-10.3142
▁upper	-10.3144
ak	-10.3145
▁minute	-10.3147
visa	-10.3148
▁australian	-10.3148
▁sa	-10.3151
▁count	-10.3152
▁forget	-10.3158
lanka	-10.3159
▁motor	-10.3186
▁deals	-10.3191
▁divorce	-10.3192
uk	-10.3197
▁wealth	-10.3201
shirts	-10.3202
▁lifestyle	-10.3206
bs	-10.3209
▁temporary	-10.3212
▁regulations	-10.3213
▁commission	-10.3217
▁effort	-10.3218
▁profit	-10.3221
▁gyms	-10.3237
▁deliver	-10.3246
▁kill	-10.325
▁hospitals	-10.3258
▁bo	-10.3259
▁rank	-10.328
▁branch	-10.3281
▁entrance	-10.3284
▁(2	-10.3284
▁wont	-10.3287
▁govt	-10.3288
▁purposes	-10.3294
▁included	-10.3299
▁bridge	-10.33
▁article	-10.3303
▁nor	-10.3326
▁ran	-10.3331
▁drinking	-10.3348
▁kindly	-10.3356
▁massive	-10.3358
▁stocks	-10.336
▁quit	-10.3363
▁gap	-10.3364
▁force	-10.3364
▁galaxy	-10.3364
▁basis	-10.3365
▁impossible	-10.3365
▁rise	-10.3367
▁schedule	-10.3368
▁mall	-10.3374
▁centre	-10.3381
▁analyst	-10.3381
ll	-10.3383
▁investments	-10.3392
▁arts	-10.3396
▁respond	-10.3401
▁roles	-10.3426
id	-10.3431
▁ensure	-10.3441
▁feb	-10.3448
▁attached	-10.345
tic	-10.3451
▁meat	-10.3452
▁rejected	-10.3453
▁van	-10.3453
▁accounting	-10.3464
▁translation	-10.3468
ated	-10.3479
▁normally	-10.3492
▁extend	-10.3496
ee	-10.3497
▁appear	-10.3511
▁anytime	-10.3514
▁prepare	-10.3517
▁drinks	-10.3518
500	-10.352
▁absolute	-10.3521
▁electric	-10.3527
▁mathematics	-10.3528
▁recognized	-10.3532
▁suit	-10.3533
▁tangalle	-10.3533
mo	-10.3544
▁70	-10.3548
▁orders	-10.355
em	-10.3553
▁31	-10.3559
mi	-10.3561
▁cooking	-10.3561
▁corrupt	-10.3592
▁bs	-10.3597
#	-10.3605
▁rare	-10.3607
▁freelancing	-10.361
▁revenue	-10.361
▁syllabus	-10.361
▁charging	-10.361
▁climb	-10.361
▁banned	-10.3611
▁drone	-10.3615
▁vision	-10.3615
▁external	-10.3617
▁hiring	-10.3617
▁boc	-10.3619
▁artist	-10.3629
▁loans	-10.3633
▁pi	-10.3635
%	-10.3637
▁complain	-10.3663
▁2)	-10.3668
▁reached	-10.368
▁permanent	-10.3689
▁uom	-10.3694
▁session	-10.3712
▁th	-10.3713
▁da	-10.3741
▁gems	-10.3748
▁worry	-10.375
even	-10.3759
▁uses	-10.3763
▁cancel	-10.3765
▁actions	-10.3771
▁submit	-10.3777
▁authorities	-10.3778
▁smell	-10.3778
▁brown	-10.3782
▁gampaha	-10.3782
▁benefit	-10.3797
▁sms	-10.381
▁officer	-10.3815
▁connected	-10.3837
▁ui	-10.3842
▁focused	-10.3843
▁trend	-10.3849
▁fault	-10.3857
▁nowadays	-10.3863
▁uncomfortable	-10.3863
ut	-10.3865
▁creative	-10.3865
▁spoken	-10.387
▁smoke	-10.3879
▁uncle	-10.3881
▁chocolate	-10.3882
▁transaction	-10.3882
▁porn	-10.3887
▁lessons	-10.3897
▁tap	-10.3914
?"	-10.3918
▁bother	-10.3919
mm	-10.393
▁annual	-10.3941
▁speech	-10.3945
▁military	-10.3948
▁fancy	-10.3949
▁preferred	-10.3949
▁army	-10.3952
▁slightly	-10.3953
▁southern	-10.3953
▁requirement	-10.397
▁server	-10.3971
▁warning	-10.3977
▁react	-10.3981
ance	-10.4023
▁mr	-10.4029
▁houses	-10.403
▁flash	-10.4034
▁starlink	-10.4034
▁alright	-10.4035
▁classic	-10.4036
▁lease	-10.4038
▁expired	-10.404
▁shown	-10.4056
▁plate	-10.4057
▁psychologist	-10.4059
▁responses	-10.4065
▁forced	-10.4078
▁claiming	-10.4081
▁celebrate	-10.411
▁extension	-10.4121
▁pricing	-10.4121
[	-10.4122
▁lenovo	-10.4123
▁italy	-10.4124
▁lgbtq	-10.4124
▁cancer	-10.4125
▁round	-10.4126
80	-10.4143
▁foods	-10.4146
▁influencers	-10.416
▁thinks	-10.4164
▁notes	-10.4167
pro	-10.4169
▁crowd	-10.42
▁library	-10.4209
▁verification	-10.4209
▁cybersecurity	-10.4212
▁contacts	-10.4213
▁six	-10.4221
▁expectations	-10.4225
▁raise	-10.424
▁suggestion	-10.4241
▁ho	-10.4263
▁print	-10.427
ug	-10.4277
work	-10.4283
▁associate	-10.4286
▁priced	-10.4289
▁starts	-10.4295
ton	-10.4295
▁ebay	-10.4298
▁hiriketiya	-10.4301
▁justice	-10.4309
▁drug	-10.4322
ul	-10.4324
ika	-10.4325
▁singer	-10.4328
▁protect	-10.4334
▁ms	-10.4335
▁era	-10.4339
ac	-10.4341
▁boarding	-10.4359
▁animals	-10.4362
▁influence	-10.4375
▁ko	-10.4381
▁strange	-10.4383
▁dental	-10.4387
▁incredibly	-10.4387
▁responsible	-10.4387
▁zealand	-10.4387
▁mindset	-10.4387
ke	-10.4394
ki	-10.4397
▁tree	-10.4411
▁seats	-10.4412
▁villa	-10.4412
▁client	-10.4414
▁massage	-10.4414
▁maps	-10.4441
▁leaves	-10.4448
▁bc	-10.4456
▁judge	-10.4462
▁rough	-10.4473
▁chatgpt	-10.4477
▁independence	-10.4477
▁membership	-10.4477
▁minor	-10.4478
▁electrical	-10.4481
▁6.	-10.4483
▁stack	-10.4484
▁mount	-10.4492
▁thread	-10.4501
▁animal	-10.4502
▁claims	-10.4503
▁sweet	-10.4523
▁ja	-10.4528
▁spare	-10.4532
▁tf	-10.4537
▁severe	-10.4549
▁israel	-10.4568
▁freak	-10.4569
▁monsoon	-10.4569
▁scope	-10.4572
▁taught	-10.4575
▁cab	-10.4584
▁graduated	-10.4587
by	-10.459
▁medication	-10.4597
▁languages	-10.4597
▁cigarettes	-10.4598
▁promote	-10.4599
▁branded	-10.4607
▁ear	-10.4608
tech	-10.4608
▁routes	-10.461
▁existing	-10.4615
▁29	-10.4626
▁seller	-10.4629
▁lets	-10.4632
▁af	-10.4642
ir	-10.4645
▁obvious	-10.4653
cu	-10.4655
▁council	-10.4659
▁steam	-10.466
▁stolen	-10.4661
▁ceb	-10.4663
▁otherwise	-10.4663
▁wide	-10.4667
ex	-10.4668
▁educated	-10.4669
tr	-10.467
▁scale	-10.467
▁positions	-10.4672
▁rainy	-10.4672
▁capital	-10.4679
▁suffering	-10.4681
▁competition	-10.4685
▁markets	-10.4688
▁updated	-10.4689
▁rupee	-10.4691
▁sucks	-10.4708
▁effects	-10.4723
▁weekends	-10.4725
▁spread	-10.4727
▁drugs	-10.4727
▁standing	-10.4732
▁inform	-10.4733
▁separate	-10.4734
book	-10.4743
▁aunt	-10.4745
▁hurt	-10.4751
▁statistics	-10.4752
▁analysis	-10.4752
▁dangerous	-10.4752
▁proud	-10.4753
▁el	-10.4755
ial	-10.476
▁perfume	-10.4782
▁soo	-10.4785
▁saving	-10.4793
▁q	-10.4802
▁relax	-10.4803
▁issued	-10.4806
nna	-10.4808
▁400	-10.4811
▁ig	-10.4826
▁ni	-10.483
▁backpack	-10.4831
cing	-10.4831
▁java	-10.4846
▁liquor	-10.4848
dy	-10.4849
▁successfully	-10.4855
mil	-10.4857
▁taxed	-10.4857
▁rw	-10.4858
▁mistakes	-10.4869
▁developers	-10.4872
▁gas	-10.4873
▁advantage	-10.4874
▁surgeon	-10.4877
▁elephants	-10.4886
&	-10.4892
based	-10.4895
▁dedicat	-10.4929
▁extreme	-10.4933
▁sudden	-10.4933
▁bottles	-10.4934
▁careful	-10.4936
▁ministry	-10.494
▁vpn	-10.494
▁competitive	-10.4941
▁computing	-10.4942
▁ad	-10.4947
▁passes	-10.4949
▁deleted	-10.4951
▁die	-10.4955
▁calm	-10.4955
▁damage	-10.4958
▁killed	-10.496
▁led	-10.4962
way	-10.4963
▁youth	-10.4967
▁factors	-10.4969
▁effect	-10.4971
net	-10.4974
ms	-10.498
life	-10.4992
▁ha	-10.5011
▁race	-10.5023
▁spoke	-10.5032
▁church	-10.5032
▁netflix	-10.5035
▁trash	-10.5035
▁assistance	-10.5035
▁asap	-10.5035
▁storage	-10.5037
▁kelaniya	-10.5038
▁en	-10.5041
▁2020	-10.5042
▁independent	-10.5046
11	-10.5047
▁engine	-10.5059
▁realise	-10.5063
▁mass	-10.5064
▁(3	-10.5067
▁crime	-10.5069
▁freelancer	-10.5069
she	-10.5071
▁united	-10.5074
▁plz	-10.5075
▁formal	-10.51
▁lovely	-10.5102
▁windows	-10.5104
▁visas	-10.5111
▁dance	-10.513
▁arriving	-10.5131
▁wrote	-10.5131
▁height	-10.5131
▁awesome	-10.5131
▁wonderful	-10.5132
▁romantic	-10.5133
▁frequently	-10.5135
▁overnight	-10.5136
▁easter	-10.5138
▁boat	-10.5139
▁noise	-10.5139
▁structure	-10.515
▁interior	-10.5154
▁scammers	-10.5161
▁village	-10.5163
▁rajapaksa	-10.5164
▁begin	-10.5171
▁ali	-10.5184
▁listening	-10.5185
▁goods	-10.5201
ho	-10.5203
ect	-10.5211
▁switching	-10.522
▁comfort	-10.5226
▁reputable	-10.5228
▁identity	-10.5228
▁block	-10.5229
▁esoft	-10.5229
▁midnight	-10.5229
▁selection	-10.5237
▁earth	-10.5239
▁holding	-10.5242
▁flights	-10.5249
▁organization	-10.5261
▁passports	-10.5262
sha	-10.5279
▁covered	-10.5282
▁cross	-10.5288
pay	-10.5296
men	-10.532
▁gear	-10.5326
▁pokemon	-10.5326
▁emergency	-10.5327
our	-10.5329
▁1.5	-10.5331
▁bigger	-10.5334
▁complex	-10.5335
▁spaces	-10.5335
▁typically	-10.5337
▁ruin	-10.5342
▁skilled	-10.5347
▁randomly	-10.5351
55	-10.5352
▁adventure	-10.5359
▁whale	-10.536
▁employer	-10.536
▁45	-10.536
▁cute	-10.5366
▁saved	-10.537
▁op	-10.5389
▁increasing	-10.5425
▁mouse	-10.5426
70	-10.5427
▁matches	-10.5431
▁roughly	-10.5437
▁doesnt	-10.5448
cs	-10.5455
▁applications	-10.5456
▁equipment	-10.5458
▁qualification	-10.546
▁ass	-10.5465
▁hall	-10.5466
▁wall	-10.5475
▁temples	-10.5481
▁pic	-10.5486
▁listed	-10.5491
off	-10.5496
40	-10.5499
▁sp	-10.5505
▁mac	-10.5508
▁keells	-10.5525
▁maldives	-10.5525
▁buddha	-10.5525
▁spotify	-10.5526
▁monday	-10.5526
▁sky	-10.5526
▁afternoon	-10.5527
▁diving	-10.5532
▁combined	-10.5533
▁throughout	-10.5541
▁colour	-10.5543
▁migrated	-10.5555
▁asks	-10.5557
▁forex	-10.5563
▁studio	-10.5564
▁gem	-10.5565
▁choices	-10.5568
▁mora	-10.5576
▁materials	-10.5609
▁sellers	-10.5613
ol	-10.5626
▁payoneer	-10.5626
▁curiosity	-10.5626
▁programming	-10.5626
reputed	-10.5627
▁pants	-10.5627
▁estimate	-10.5627
▁ancient	-10.5628
▁reputation	-10.5628
▁dishes	-10.5629
▁oh	-10.5642
▁introvert	-10.5645
▁fairly	-10.5654
related	-10.5659
▁gender	-10.5662
▁insta	-10.5662
▁reference	-10.5662
▁campaign	-10.5662
▁patient	-10.5663
▁provides	-10.5664
▁counter	-10.5667
▁sometime	-10.5673
▁ols	-10.5676
▁harder	-10.568
▁abt	-10.5687
op	-10.5696
ah	-10.57
▁artists	-10.5707
▁click	-10.5712
▁beer	-10.5713
▁talks	-10.572
▁entering	-10.5723
▁clarify	-10.5728
▁trump	-10.5728
▁namal	-10.5729
▁keen	-10.5729
▁marketplace	-10.573
▁perhaps	-10.5732
▁pays	-10.5738
▁diet	-10.574
dr	-10.5747
▁slowly	-10.575
▁essential	-10.5762
▁undergrad	-10.5765
▁cuts	-10.578
▁economics	-10.5782
hons	-10.5784
▁links	-10.5802
▁ring	-10.5802
▁shirt	-10.5812
▁tight	-10.5815
app	-10.582
ably	-10.5826
▁furniture	-10.5831
▁kitchen	-10.5831
▁survive	-10.5831
▁agencies	-10.5831
▁summer	-10.5832
▁attractive	-10.5832
▁consent	-10.5832
▁acne	-10.5833
▁availability	-10.5833
▁skill	-10.5833
▁mi	-10.5834
▁nobody	-10.5835
▁gate	-10.5838
ern	-10.5842
▁deeply	-10.5846
▁vet	-10.585
12	-10.5851
▁closer	-10.5853
ised	-10.5857
▁cooked	-10.5866
▁supporters	-10.5866
▁died	-10.5868
▁accent	-10.587
▁firm	-10.587
▁profile	-10.5872
▁lane	-10.5873
▁promotion	-10.5873
▁hill	-10.5877
▁values	-10.5886
▁liked	-10.5886
▁bangladesh	-10.5899
16	-10.5902
▁tonight	-10.5919
▁travelers	-10.5925
▁shape	-10.5928
ru	-10.5934
▁false	-10.5936
▁unfair	-10.5936
▁memories	-10.5936
▁lowest	-10.5943
▁parent	-10.5944
▁arranged	-10.5946
▁lights	-10.5946
▁remain	-10.5947
see	-10.5966
▁stayed	-10.5972
▁highway	-10.5978
▁statement	-10.5979
▁paths	-10.5999
▁shoot	-10.6026
▁retail	-10.6039
▁photography	-10.6042
▁lavinia	-10.6044
▁trial	-10.6044
▁dish	-10.6047
▁cheating	-10.6053
▁fd	-10.6053
min	-10.6054
▁coding	-10.6055
▁regularly	-10.6055
ja	-10.6058
▁requires	-10.6059
▁agreed	-10.6059
▁headphones	-10.6064
▁discount	-10.6068
▁loose	-10.6103
▁inter	-10.6107
tu	-10.6108
▁ill	-10.6109
▁depend	-10.6112
shirt	-10.6139
▁confident	-10.6147
▁semester	-10.6147
▁native	-10.6148
▁located	-10.6149
▁networking	-10.6149
▁sensitive	-10.615
▁camping	-10.6163
▁replaced	-10.6164
.00	-10.6172
▁agents	-10.6174
▁affairs	-10.6177
▁deserve	-10.6177
▁feed	-10.6186
▁grades	-10.6213
hu	-10.6217
▁pop	-10.6219
▁kit	-10.622
▁treatments	-10.622
▁sessions	-10.6231
▁cleaning	-10.6233
▁differences	-10.6237
▁contribute	-10.6243
▁badly	-10.6245
▁ignore	-10.6246
▁fell	-10.6248
▁kick	-10.6251
▁lonely	-10.6255
▁empty	-10.6255
▁healthcare	-10.6256
lu	-10.6256
▁supply	-10.6258
pr	-10.6259
▁struggles	-10.6261
▁ga	-10.6268
io	-10.6268
▁ruined	-10.6273
▁ability	-10.6277
ning	-10.628
-20	-10.6285
ft	-10.6294
▁executive	-10.6298
▁shoe	-10.6299
▁burger	-10.6299
▁door	-10.6302
▁voted	-10.6305
▁decisions	-10.6305
ors	-10.6308
back	-10.6311
▁shorts	-10.6312
▁recover	-10.6317
▁union	-10.6345
▁solve	-10.6354
month	-10.6356
▁foot	-10.6363
▁cargills	-10.6363
▁eligible	-10.6363
▁intelligence	-10.6363
▁ogf	-10.6365
▁jewelry	-10.6366
▁royal	-10.6367
▁handling	-10.6367
▁rarely	-10.6372
▁portal	-10.6373
▁discussions	-10.639
▁paint	-10.6403
▁loves	-10.6405
▁gateway	-10.6407
▁ocean	-10.6407
▁expert	-10.6408
▁learners	-10.6408
▁map	-10.6413
ux	-10.6421
▁imf	-10.6424
▁institution	-10.6426
▁institutions	-10.6429
also	-10.644
▁officers	-10.6455
▁repeat	-10.6456
60	-10.6461
▁isnt	-10.6461
▁ridiculous	-10.6467
▁lawyers	-10.647
▁maximum	-10.6473
▁petrol	-10.6473
▁racism	-10.6473
▁suicide	-10.6473
▁horrible	-10.6473
▁layover	-10.6473
▁cancelled	-10.6474
▁ourselves	-10.6474
▁odd	-10.6474
▁mahinda	-10.6474
▁regardless	-10.6474
▁wildlife	-10.6474
▁badulla	-10.6475
▁glass	-10.6475
▁confirmation	-10.6476
▁hybrid	-10.6478
▁factory	-10.6481
▁kumara	-10.6481
▁bf	-10.6485
▁printed	-10.6495
▁mo	-10.6504
▁mentally	-10.6505
▁physically	-10.6512
▁bia	-10.6515
▁salon	-10.6519
▁airline	-10.6521
▁outdoor	-10.6525
▁outlets	-10.6525
▁hustle	-10.6553
▁followed	-10.6555
▁perform	-10.6577
▁supported	-10.6577
▁innocent	-10.6584
▁mikeai	-10.6585
▁himself	-10.6587
▁smoking	-10.6587
90	-10.6588
▁bonus	-10.659
▁evisa	-10.6595
▁enthusiasts	-10.661
▁billion	-10.6614
▁feature	-10.6621
mp	-10.6624
▁lo	-10.6624
▁tools	-10.6626
▁strike	-10.6633
▁upto	-10.6636
▁boxing	-10.6649
kandy	-10.6649
▁tool	-10.6651
▁weak	-10.6673
▁mode	-10.6674
ci	-10.6683
▁arrange	-10.6685
▁premadasa	-10.6697
▁vesak	-10.6697
▁stray	-10.6697
▁suspicious	-10.6698
▁frustrated	-10.6698
▁explanation	-10.6698
▁disappointed	-10.6699
▁architecture	-10.6699
▁destinations	-10.67
▁net	-10.67
▁wake	-10.6701
▁sir	-10.6703
▁prospects	-10.6705
▁wa	-10.6705
▁hence	-10.6705
▁adding	-10.6719
▁inflation	-10.6725
▁supplements	-10.6731
▁2.5	-10.674
▁festival	-10.6744
▁subscription	-10.6744
▁sport	-10.6747
▁motorbike	-10.6748
▁plain	-10.6751
around	-10.6752
▁wash	-10.6757
▁(20	-10.6764
▁hut	-10.6766
land	-10.6768
bo	-10.6771
▁cal	-10.6776
▁charger	-10.6802
▁load	-10.6802
▁peaceful	-10.6807
▁plant	-10.6807
▁cycle	-10.681
▁nye	-10.6812
▁3-4	-10.6816
▁bear	-10.6817
▁cargo	-10.6822
▁besides	-10.6833
▁salt	-10.6833
ze	-10.6841
▁delay	-10.6842
▁serve	-10.6844
that	-10.6848
▁release	-10.6849
▁tooth	-10.6856
▁extent	-10.6856
▁household	-10.6858
▁concert	-10.6859
▁challenge	-10.686
▁assistant	-10.6861
art	-10.6865
especially	-10.688
▁para	-10.6885
▁streaming	-10.6894
▁freelancers	-10.6896
▁radio	-10.6897
▁cry	-10.692
▁goals	-10.692
▁legitimate	-10.6925
▁climate	-10.6925
▁causing	-10.6926
▁bored	-10.6926
▁skip	-10.6926
▁bread	-10.6927
▁discrimination	-10.6927
▁managing	-10.6928
▁kurunegala	-10.6929
fa	-10.6929
▁malabe	-10.693
▁ethical	-10.6933
▁thai	-10.6935
ian	-10.6935
▁grand	-10.6936
▁tests	-10.6936
▁warm	-10.6937
▁aus	-10.694
ig	-10.6956
▁worker	-10.6957
▁gamers	-10.6959
▁confirmed	-10.6961
▁signed	-10.6962
▁sony	-10.6967
▁eggs	-10.6973
▁permission	-10.6975
ions	-10.6976
▁venue	-10.6976
▁vape	-10.6976
▁specialist	-10.6977
▁alert	-10.6977
▁cap	-10.6978
▁falls	-10.698
▁attending	-10.6982
▁sh	-10.6982
▁conversations	-10.699
▁lie	-10.6994
▁caused	-10.7001
▁pen	-10.7002
rr	-10.7014
▁limits	-10.7021
▁ball	-10.7032
▁purchases	-10.7033
▁fed	-10.7037
▁absurd	-10.7042
▁anxious	-10.7042
▁overpriced	-10.7042
▁pretend	-10.7042
some	-10.7042
▁expand	-10.7042
▁submitted	-10.7042
▁align	-10.7043
▁battaramulla	-10.7043
▁bandaranaike	-10.7043
▁confidence	-10.7044
▁auto	-10.7046
▁behalf	-10.7047
▁twitter	-10.7047
only	-10.7055
▁surrounding	-10.7056
▁earbuds	-10.7063
▁ipad	-10.7069
▁stressed	-10.7075
▁traveler	-10.7075
▁complaining	-10.708
▁dive	-10.7081
▁ends	-10.7093
▁suffer	-10.7115
tion	-10.7116
▁attitude	-10.7116
▁interests	-10.7122
▁invested	-10.7136
fe	-10.7144
▁meme	-10.7148
▁meant	-10.715
▁cats	-10.7155
▁pregnant	-10.7159
▁ielts	-10.7159
▁possibility	-10.7159
▁surge	-10.716
▁peeps	-10.716
▁peko	-10.716
▁verify	-10.716
▁50%	-10.7161
▁maharagama	-10.7161
▁udawalawe	-10.7161
▁tinder	-10.7162
▁ca	-10.7165
▁shocked	-10.717
▁nowhere	-10.7176
▁extended	-10.7184
ella	-10.7208
▁affected	-10.7218
ran	-10.7228
▁120	-10.723
help	-10.7231
▁broker	-10.7233
▁turns	-10.7249
su	-10.7256
▁arrest	-10.7261
ship	-10.7263
car	-10.7271
▁guitar	-10.7275
▁attract	-10.7277
▁russia	-10.7277
▁binance	-10.7279
▁3)	-10.7279
▁password	-10.7279
▁promoting	-10.7279
▁skincare	-10.7279
▁poya	-10.728
▁glasses	-10.7281
▁boss	-10.7282
int	-10.7289
▁remaining	-10.731
▁maha	-10.7325
▁scheme	-10.7333
▁task	-10.7334
▁pathway	-10.7334
▁smaller	-10.7334
▁requested	-10.7335
▁iphones	-10.7337
▁tracking	-10.7345
▁arm	-10.7346
▁experts	-10.735
preferably	-10.7351
▁returned	-10.7358
gama	-10.736
▁forgot	-10.7361
her	-10.7368
act	-10.7382
▁shame	-10.7383
▁improv	-10.7386
▁shut	-10.7389
▁desperate	-10.7392
▁heavily	-10.7399
▁leather	-10.7399
▁pharmacy	-10.7399
▁scenic	-10.7399
▁lmao	-10.7399
▁leasing	-10.7399
▁marine	-10.7399
▁impression	-10.74
▁haircut	-10.74
▁cringe	-10.7403
▁forever	-10.7404
▁production	-10.7409
▁target	-10.7409
▁forest	-10.7412
▁includes	-10.7412
▁supporting	-10.7413
tra	-10.7417
▁metal	-10.743
▁yt	-10.7434
there	-10.744
▁developing	-10.7448
▁interns	-10.7448
▁pocket	-10.7452
▁root	-10.7455
▁circle	-10.7456
▁finishing	-10.7457
▁victim	-10.7457
▁hostel	-10.746
▁peo	-10.7461
▁russian	-10.7463
▁tasks	-10.7465
▁navigate	-10.7467
▁onto	-10.7468
▁mins	-10.7493
▁rides	-10.7499
▁pin	-10.7508
▁accurate	-10.7514
ize	-10.7518
▁challenging	-10.7521
▁confusing	-10.7521
▁smile	-10.7522
▁refused	-10.7531
ds	-10.7543
▁slim	-10.7545
▁snacks	-10.7557
▁talent	-10.7561
▁promises	-10.7564
▁shi	-10.757
▁queue	-10.7578
▁upload	-10.7603
▁vi	-10.7617
▁represent	-10.762
▁ce	-10.7624
con	-10.7626
▁install	-10.7627
cal	-10.7639
▁caf	-10.764
▁split	-10.7644
▁swim	-10.7644
▁deciding	-10.7644
▁fernando	-10.7644
▁mandatory	-10.7644
▁literature	-10.7644
▁appropriate	-10.7644
▁pdf	-10.7644
▁housing	-10.7644
▁activity	-10.7644
22	-10.7646
▁academy	-10.7647
▁bumble	-10.7647
▁travelled	-10.7649
▁zoom	-10.765
▁consequences	-10.7651
▁ugc	-10.7651
▁encountered	-10.7655
let	-10.7656
▁reserved	-10.7656
tor	-10.7657
res	-10.7668
▁zone	-10.7672
who	-10.7673
▁processing	-10.7681
▁tailor	-10.7686
tt	-10.7687
pi	-10.7688
▁ku	-10.7689
ever	-10.7694
▁editing	-10.77
new	-10.77
▁consultant	-10.7704
▁supermarkets	-10.7705
▁suck	-10.7705
▁touristy	-10.7712
▁pan	-10.7724
▁patients	-10.7725
▁convenient	-10.7732
ns	-10.774
",	-10.7757
▁constant	-10.7763
▁braces	-10.7769
▁argue	-10.7769
▁eager	-10.7769
▁audience	-10.7769
▁trauma	-10.7769
▁whey	-10.777
▁retirement	-10.777
▁skinny	-10.777
▁teeth	-10.777
▁committed	-10.7772
▁disgusting	-10.7772
▁elsewhere	-10.7772
▁hitting	-10.7773
▁designers	-10.7777
▁feet	-10.7786
please	-10.7789
▁siblings	-10.779
▁investors	-10.7801
▁tutor	-10.7802
▁owned	-10.7803
▁coins	-10.781
oo	-10.7814
▁lectures	-10.7816
▁ne	-10.7826
▁dev	-10.7827
▁parcel	-10.783
▁audio	-10.7832
▁cameras	-10.7832
ray	-10.7842
▁gun	-10.7845
▁riding	-10.7846
▁specialize	-10.7847
▁volunteer	-10.7868
▁imo	-10.7871
▁hype	-10.7874
▁explained	-10.7879
▁emotional	-10.7891
ned	-10.7895
▁analytics	-10.7896
▁duration	-10.7896
▁percentage	-10.7896
▁drunk	-10.7896
▁properties	-10.7897
▁realistic	-10.7897
▁capacity	-10.7898
▁golden	-10.79
que	-10.7901
▁15%	-10.7902
▁runs	-10.7904
▁personality	-10.7907
▁covers	-10.7911
▁butter	-10.7915
▁faster	-10.7915
ations	-10.7923
▁index	-10.7939
▁makeup	-10.7939
▁admission	-10.7958
▁agreement	-10.7959
▁speakers	-10.7962
▁dreams	-10.7968
▁partners	-10.7971
▁du	-10.798
▁player	-10.7995
les	-10.8002
▁landing	-10.8009
▁domestic	-10.8024
▁intimate	-10.8024
▁league	-10.8024
▁recognition	-10.8024
▁glad	-10.8024
▁opposition	-10.8024
▁defend	-10.8025
▁responsibility	-10.8025
▁silver	-10.8028
▁sjb	-10.8029
▁diagnosed	-10.803
▁bulk	-10.8031
▁supportive	-10.8034
▁eastern	-10.8034
▁suburbs	-10.8036
▁chain	-10.8041
▁eve	-10.8042
▁testing	-10.8063
neither	-10.8067
▁regards	-10.8072
▁sunset	-10.8087
▁failure	-10.8087
▁routine	-10.8087
▁lake	-10.8088
online	-10.81
▁falling	-10.8104
▁intention	-10.8105
ger	-10.8113
▁aside	-10.8122
▁pot	-10.8123
▁articles	-10.813
ill	-10.8133
▁moments	-10.8134
▁toward	-10.8136
▁unlock	-10.8138
▁stays	-10.814
▁nations	-10.8143
▁enroll	-10.8143
other	-10.8147
▁je	-10.815
▁america	-10.815
▁efficient	-10.8152
▁evidence	-10.8154
▁operating	-10.8154
▁authority	-10.8154
▁plent	-10.8154
eg	-10.8156
▁mis	-10.8156
bi	-10.816
▁po	-10.8161
▁bullying	-10.8162
▁significantly	-10.8172
▁prepared	-10.8177
▁urgently	-10.8179
▁dj	-10.8185
▁washing	-10.819
▁images	-10.8192
▁printing	-10.8194
▁suggests	-10.8203
▁lecturers	-10.8206
▁hanging	-10.8215
▁trans	-10.8216
▁assignment	-10.8222
▁mp	-10.8223
have	-10.8223
▁li	-10.8229
ward	-10.823
21	-10.8231
why	-10.8238
maybe	-10.8238
gen	-10.8239
▁apartments	-10.8242
▁murder	-10.8248
▁designing	-10.8275
▁virtual	-10.8279
ped	-10.8282
▁bands	-10.8284
▁ceremony	-10.8286
▁easiest	-10.8286
▁memory	-10.8286
▁angry	-10.8286
▁compensation	-10.8286
▁rural	-10.8286
▁loving	-10.8288
▁lyrics	-10.8294
▁flags	-10.8294
▁stating	-10.83
▁introduced	-10.8305
▁letters	-10.8306
▁resident	-10.8312
▁signs	-10.8314
▁potentially	-10.8316
ities	-10.8316
▁cops	-10.8317
▁san	-10.8332
▁roll	-10.8338
▁obtained	-10.8346
▁concept	-10.8355
▁photographer	-10.8356
▁shower	-10.8358
class	-10.8368
▁plants	-10.8369
▁ve	-10.8373
quality	-10.8382
▁acting	-10.8394
▁discover	-10.84
▁ird	-10.8406
▁discipline	-10.8409
▁mbps	-10.8418
▁ugly	-10.8419
▁ayurvedic	-10.842
▁passing	-10.842
▁critical	-10.8423
cy	-10.8425
▁grown	-10.8429
ring	-10.8435
▁pe	-10.8441
▁laugh	-10.8441
▁renewed	-10.846
side	-10.8469
▁supermarket	-10.8489
▁plains	-10.8497
ver	-10.8497
▁monk	-10.8498
▁dudes	-10.8499
▁poll	-10.85
▁newly	-10.8503
pl	-10.8509
▁figur	-10.851
▁afterwards	-10.8512
▁mod	-10.8528
▁hunt	-10.8532
▁engage	-10.8542
▁mas	-10.8544
▁magic	-10.8546
▁grab	-10.8549
▁pakistan	-10.855
▁delete	-10.8551
▁description	-10.8554
▁junior	-10.8554
▁underrated	-10.8554
▁opposite	-10.8554
▁boring	-10.8554
▁sustainable	-10.8555
▁carnage	-10.8557
▁priority	-10.8558
▁france	-10.8561
▁assuming	-10.8563
▁returning	-10.8563
▁flow	-10.8575
▁enjoying	-10.8579
▁flowers	-10.8583
▁powerful	-10.8589
gan	-10.8589
uwa	-10.8589
▁pink	-10.8592
▁colleagues	-10.8595
▁repairs	-10.8601
▁killing	-10.8601
▁origin	-10.8601
▁units	-10.8602
vo	-10.8607
ura	-10.8612
▁failing	-10.8613
▁fucked	-10.8616
ad	-10.8619
▁scenario	-10.8624
▁vibes	-10.8625
cr	-10.8628
will	-10.8647
▁reports	-10.8648
▁med	-10.8664
spite	-10.8668
▁repaired	-10.8674
▁refuse	-10.868
▁blind	-10.8684
▁prove	-10.8686
▁instant	-10.8687
▁le	-10.8688
▁strength	-10.8688
▁bicycle	-10.8691
▁mafia	-10.8691
▁footage	-10.8691
▁prepaid	-10.8692
▁yoga	-10.8692
▁behaviour	-10.8692
▁everybody	-10.8692
▁lenses	-10.8692
▁exclusive	-10.8694
▁trainee	-10.8697
▁multi	-10.8703
ab	-10.8706
▁heads	-10.8707
▁rcs	-10.8708
▁ending	-10.8712
▁entirely	-10.8718
▁amounts	-10.8722
▁crying	-10.8724
▁col	-10.8739
▁internal	-10.8741
ko	-10.8743
▁hired	-10.8743
▁files	-10.8748
▁spam	-10.8764
▁returns	-10.8765
▁leg	-10.8765
▁preference	-10.8765
▁institutes	-10.8769
▁discounts	-10.8777
usd	-10.8778
english	-10.8782
local	-10.8783
▁organizations	-10.8784
▁unp	-10.8785
▁launch	-10.8786
ping	-10.8796
▁menu	-10.8811
▁ios	-10.8812
0000	-10.8815
0,000	-10.8817
▁jokes	-10.8819
▁korea	-10.8827
▁primary	-10.883
▁ethnic	-10.8832
▁beat	-10.8832
▁passive	-10.8833
▁wellawatte	-10.8839
▁colonial	-10.8839
▁director	-10.8841
▁hat	-10.8853
▁designs	-10.8856
coming	-10.8858
▁conflict	-10.8859
▁planet	-10.8878
▁press	-10.889
▁wine	-10.8896
▁filling	-10.8899
▁portion	-10.8907
after	-10.8923
▁trees	-10.8932
▁coach	-10.8941
▁7.	-10.8957
▁km	-10.8962
▁escape	-10.8967
▁cuisine	-10.8971
▁horton	-10.8971
▁rajagiriya	-10.8971
▁manufacturing	-10.8971
▁nissan	-10.8971
▁lounge	-10.8971
▁liberty	-10.8971
od	-10.8977
▁pickup	-10.8979
▁acceptable	-10.898
▁corner	-10.8984
low	-10.8987
uru	-10.8989
▁comp	-10.8996
site	-10.9003
▁blow	-10.9009
▁attended	-10.9015
ny	-10.9018
rt	-10.902
----------------	-10.9024
gi	-10.9038
▁acc	-10.9043
▁theatre	-10.9047
▁decade	-10.9048
led	-10.9052
ins	-10.9064
▁ml	-10.9067
▁perfumes	-10.9071
▁harm	-10.9076
night	-10.9081
ela	-10.9083
!)	-10.9092
▁cousins	-10.9093
both	-10.9093
▁parks	-10.9094
▁finances	-10.9096
▁leaders	-10.9098
▁brothers	-10.9102
▁smooth	-10.9103
▁reflect	-10.9105
gu	-10.911
▁micro	-10.9112
▁dentist	-10.9113
▁crucial	-10.9114
▁domain	-10.9114
▁ndb	-10.9114
▁administration	-10.9114
▁llb	-10.9115
▁hotline	-10.9115
▁unknown	-10.9115
▁guilty	-10.9116
▁2017	-10.9116
▁assist	-10.9116
▁graduation	-10.9117
▁certificates	-10.9118
▁recovery	-10.9121
▁korean	-10.9124
▁skipp	-10.9125
▁fyi	-10.9127
▁etf	-10.9131
▁risky	-10.9133
▁historical	-10.9136
wi	-10.9142
▁generations	-10.9146
▁belong	-10.9147
▁donate	-10.9148
oc	-10.9149
▁emails	-10.9164
▁clinic	-10.9164
of	-10.9176
▁oya	-10.9191
▁mirror	-10.9192
▁character	-10.9192
▁traveller	-10.9193
▁argument	-10.9194
▁pilot	-10.92
▁conditioner	-10.9206
▁jump	-10.9214
▁lab	-10.9224
▁75	-10.9252
▁rush	-10.9253
▁respectful	-10.9253
tuk	-10.9253
▁scratch	-10.9256
▁portfolio	-10.9258
▁advertising	-10.9259
▁snorkeling	-10.9259
▁laser	-10.9259
▁dutch	-10.9259
▁desk	-10.9259
▁wireless	-10.9259
▁complicated	-10.926
▁communicate	-10.926
▁2018	-10.9261
▁indonesia	-10.9261
▁rugby	-10.9261
▁grandma	-10.9261
▁4-5	-10.9262
▁viral	-10.9262
▁creepy	-10.9263
▁meaningful	-10.9265
▁dining	-10.9265
▁resume	-10.9266
▁employed	-10.9267
▁discovered	-10.9277
▁actively	-10.9279
▁perfectly	-10.9279
▁relaxing	-10.9302
ber	-10.932
▁ghost	-10.9324
working	-10.9326
▁controller	-10.9338
▁shampoo	-10.9338
▁carrier	-10.9339
▁consumer	-10.9344
▁tall	-10.9344
oh	-10.9358
tamil	-10.936
▁speaker	-10.9365
▁fam	-10.9379
75	-10.9381
score	-10.9391
ists	-10.9392
▁recruit	-10.9399
▁dissanayake	-10.9406
▁logistics	-10.9406
▁truck	-10.9406
▁lmk	-10.9406
▁boost	-10.9406
▁sweden	-10.9406
▁transferred	-10.9407
▁unlike	-10.9408
ath	-10.9409
▁labor	-10.941
▁airbnb	-10.941
▁hospitality	-10.9411
king	-10.9411
▁2015	-10.9412
▁upset	-10.9412
more	-10.9414
▁oct	-10.9418
▁activated	-10.9419
▁sisters	-10.9431
▁reduced	-10.9431
▁officially	-10.9441
▁introduce	-10.9443
▁eu	-10.9445
▁tricks	-10.9455
▁fighting	-10.9461
▁attacks	-10.9463
sc	-10.9485
▁victims	-10.9486
▁vegetarian	-10.949
▁movement	-10.9496
!"	-10.95
most	-10.95
▁incidents	-10.9502
qui	-10.952
▁5000	-10.952
▁servers	-10.952
ball	-10.9521
titude	-10.9525
▁bomb	-10.9534
▁ping	-10.9534
▁doubts	-10.9542
icing	-10.9543
bit	-10.9547
▁immediate	-10.9552
▁conservative	-10.9555
▁violence	-10.9555
▁jeans	-10.9555
▁basketball	-10.9555
▁buddy	-10.9555
ass	-10.9556
▁xbox	-10.9556
▁curriculum	-10.9556
▁infrastructure	-10.9556
▁pov	-10.9556
▁reset	-10.9557
▁sake	-10.9557
▁jack	-10.9557
▁ruhuna	-10.9557
▁departure	-10.9557
▁temu	-10.9559
▁elite	-10.9559
▁flexible	-10.956
▁prescribed	-10.956
▁nicotine	-10.956
▁nu	-10.9561
▁facts	-10.9562
▁lifted	-10.9566
▁mouth	-10.9567
▁chest	-10.9571
▁crap	-10.9584
▁originally	-10.9597
▁spreading	-10.9599
▁subs	-10.9607
▁rely	-10.961
▁carrying	-10.9629
▁assignments	-10.963
▁yr	-10.9637
▁fruit	-10.9645
aya	-10.9648
▁guest	-10.9649
▁memes	-10.9649
35	-10.966
▁cable	-10.966
▁holder	-10.9665
den	-10.9673
▁differently	-10.9677
▁transition	-10.9684
▁bat	-10.9689
▁wood	-10.9691
minded	-10.9692
▁horror	-10.9706
▁nervous	-10.9706
▁halal	-10.9706
▁aussie	-10.9706
▁residence	-10.9706
▁polonnaruwa	-10.9708
▁accidentally	-10.9708
▁2026	-10.9709
▁exposure	-10.9709
▁tours	-10.9709
▁niche	-10.971
▁haputale	-10.9713
▁ccc	-10.9713
▁qualified	-10.9715
▁lock	-10.9715
▁hindu	-10.9717
▁installed	-10.9727
need	-10.9729
▁wellness	-10.973
▁shooting	-10.9746
▁window	-10.975
▁visitors	-10.975
ence	-10.9763
▁stripe	-10.9768
▁queues	-10.9788
▁idiot	-10.9793
▁deposits	-10.9794
▁israeli	-10.9796
▁tablet	-10.98
▁outlet	-10.9816
za	-10.9825
▁mentioning	-10.9835
▁worthy	-10.9835
▁adopt	-10.984
▁ap	-10.9841
▁commute	-10.9847
ula	-10.9853
▁plaza	-10.986
▁strategies	-10.986
▁wisdom	-10.986
▁cheese	-10.986
▁nightmare	-10.986
▁variety	-10.986
▁mbbs	-10.986
▁expertise	-10.986
▁batteries	-10.986
▁complaints	-10.9861
▁ownership	-10.9861
▁progressive	-10.9862
▁soul	-10.9862
▁melbourne	-10.9862
▁earned	-10.9863
▁lying	-10.9865
▁10%	-10.9867
▁theory	-10.9874
▁suspect	-10.9885
▁tag	-10.9895
over	-10.9913
▁mar	-10.992
▁wondered	-10.9947
▁christian	-10.9949
▁threat	-10.9949
▁mountain	-10.995
▁terrorist	-10.995
▁proposal	-10.9951
ating	-10.9952
▁firms	-10.9958
▁pics	-10.9963
▁crimes	-10.9967
etc	-10.9977
era	-10.9979
▁cr	-10.9984
▁suits	-10.9984
▁pieces	-10.9998
board	-11.0001
▁tr	-11.0009
▁pol	-11.0012
▁roof	-11.0016
▁wattala	-11.0016
▁outdated	-11.0016
▁overcome	-11.0016
▁cctv	-11.0016
▁byob	-11.0017
▁sunscreen	-11.0017
▁dancing	-11.0017
▁labour	-11.0017
▁soap	-11.0017
▁addiction	-11.0018
▁dropping	-11.0018
▁blah	-11.0018
▁fried	-11.0021
▁virgin	-11.0022
▁subscribe	-11.0026
▁hacked	-11.0028
place	-11.0039
▁solved	-11.0039
yrs	-11.0043
where	-11.0046
han	-11.0047
▁core	-11.0049
▁handed	-11.005
ble	-11.0062
uff	-11.0063
▁2025.	-11.0063
▁claimed	-11.0069
▁spices	-11.0078
▁officials	-11.0079
▁refer	-11.0091
▁remind	-11.0093
thi	-11.0107
▁bedroom	-11.0108
▁neighbor	-11.0109
▁shortage	-11.0113
▁fare	-11.0118
▁gre	-11.0118
▁asus	-11.012
▁frame	-11.012
▁linked	-11.0126
first	-11.0127
npp	-11.0131
▁interact	-11.0145
▁hikes	-11.016
iv	-11.0167
ye	-11.0175
▁hsbc	-11.0175
▁trinco	-11.0175
▁lazy	-11.0175
▁resignation	-11.0176
▁vlog	-11.0176
▁creation	-11.0178
▁softlogic	-11.0179
▁organic	-11.018
▁55	-11.0183
▁abandoned	-11.0183
▁boxes	-11.0184
▁announced	-11.0184
▁deducted	-11.0185
▁rented	-11.0185
-1	-11.0186
▁tutoring	-11.021
▁br	-11.022
:00	-11.022
pre	-11.0226
▁arch	-11.0228
mon	-11.0229
una	-11.025
000	-11.0261
▁risks	-11.0262
▁flat	-11.0264
▁examination	-11.027
▁fl	-11.027
▁installment	-11.0276
▁friendship	-11.0276
▁influencer	-11.028
ising	-11.0281
south	-11.0284
store	-11.0284
▁egg	-11.0285
▁sleeping	-11.029
▁minded	-11.0292
▁ent	-11.0292
▁ke	-11.0297
▁streets	-11.0303
▁earnings	-11.0304
▁rip	-11.0317
▁guarantee	-11.0325
ual	-11.0327
▁awkward	-11.0336
▁french	-11.0336
▁suzuki	-11.0336
▁knuckles	-11.0336
▁signature	-11.0337
▁bruh	-11.0337
▁industries	-11.0337
▁blog	-11.0338
▁motherboard	-11.0338
▁understood	-11.0339
▁2021	-11.034
▁jbl	-11.034
▁shall	-11.034
▁breakup	-11.0342
▁herself	-11.0342
▁thin	-11.0345
▁100,000	-11.0347
▁fe	-11.0347
▁holy	-11.0348
▁permanently	-11.0349
▁threatening	-11.0349
▁associated	-11.0357
▁reporting	-11.0358
▁beef	-11.0358
▁delayed	-11.0361
▁fm	-11.0362
▁sha	-11.0366
ries	-11.0367
▁gigs	-11.0384
▁aspects	-11.0387
looking	-11.0389
▁sides	-11.0391
▁teens	-11.0392
▁mcq	-11.0403
▁networks	-11.0404
▁neighbors	-11.0404
▁fk	-11.0413
▁hv	-11.0431
▁stamp	-11.0434
▁smartphone	-11.0434
▁legend	-11.0435
▁chair	-11.0435
▁manner	-11.0435
▁criminal	-11.0441
good	-11.0455
▁homes	-11.0458
▁managers	-11.0458
▁opt	-11.047
▁acts	-11.0487
▁invite	-11.0492
▁burn	-11.0495
▁addition	-11.0497
▁mattress	-11.0498
▁minimal	-11.05
▁removal	-11.05
▁surname	-11.05
▁duties	-11.0501
▁transferring	-11.0502
▁ssd	-11.0502
▁orphanage	-11.0502
▁accountability	-11.0503
▁leaf	-11.0506
▁promised	-11.051
▁served	-11.0517
▁beard	-11.0519
▁locked	-11.0519
▁lucky	-11.052
▁specs	-11.0525
wso	-11.0535
▁vo	-11.0537
▁suv	-11.0537
▁havelock	-11.0538
45	-11.054
▁lesser	-11.0545
▁expats	-11.0549
did	-11.0562
▁sc	-11.0567
mar	-11.0569
▁concerning	-11.0572
▁beginners	-11.0577
▁tradition	-11.0578
▁traveled	-11.058
29	-11.0586
▁operate	-11.0589
▁teenager	-11.0603
▁lecturer	-11.0604
▁gota	-11.0614
▁lesson	-11.0618
▁pub	-11.0618
▁couldnt	-11.062
▁shed	-11.0627
▁wasting	-11.0635
▁settings	-11.064
son	-11.0641
▁hook	-11.0647
ang	-11.0654
▁onwards	-11.0654
home	-11.0657
▁farm	-11.0658
▁lu	-11.066
▁frequent	-11.066
▁logo	-11.0662
▁badminton	-11.0667
▁chennai	-11.0667
▁clarification	-11.0667
▁equivalent	-11.0667
▁hesitant	-11.0667
▁satisfied	-11.0667
▁ordinary	-11.0667
▁shady	-11.0667
▁stability	-11.0667
▁shipped	-11.0668
▁jewellery	-11.0668
▁fever	-11.0669
▁neck	-11.0669
▁draw	-11.067
▁anniversary	-11.0671
▁curtin	-11.0671
▁crew	-11.0671
▁scary	-11.0672
▁vintage	-11.0672
▁industrial	-11.0673
▁exposed	-11.0673
▁circumstances	-11.0673
▁edition	-11.0674
▁com	-11.0675
▁slpp	-11.0678
▁sufficient	-11.0679
▁naturally	-11.0687
▁launched	-11.0688
▁painful	-11.0692
▁chem	-11.0695
ey	-11.0704
red	-11.0712
▁gpa	-11.0738
mit	-11.075
▁gaining	-11.0751
▁hostels	-11.0758
▁denim	-11.0759
▁reserve	-11.076
▁registering	-11.0763
▁advisor	-11.0764
▁rep	-11.0765
▁salons	-11.0767
▁safely	-11.0769
▁spice	-11.0771
▁excuse	-11.0771
▁allowance	-11.0772
▁internationally	-11.0776
ise	-11.0778
▁lion	-11.0786
urgent	-11.0789
):	-11.0798
▁codes	-11.0799
▁mu	-11.0804
▁32	-11.0805
▁yrs	-11.0807
▁alive	-11.0811
▁weekly	-11.0811
▁ra	-11.0815
▁careers	-11.0816
▁gang	-11.0819
▁jaya	-11.082
▁breath	-11.0826
▁brief	-11.083
▁produce	-11.0836
▁kapruka	-11.0837
▁spicy	-11.0837
▁breast	-11.0837
▁comparison	-11.0837
▁exciting	-11.0837
▁automatically	-11.0837
▁dying	-11.0837
▁hatton	-11.0837
▁pets	-11.0837
▁engagement	-11.0838
▁esim	-11.0838
▁hardware	-11.0839
▁capable	-11.0839
▁affiliated	-11.0841
▁ireland	-11.0843
▁nut	-11.0843
▁participate	-11.0846
▁processor	-11.0852
▁ignored	-11.0855
▁tab	-11.0861
ama	-11.0864
ization	-11.0866
ow	-11.0867
▁exists	-11.0872
▁centers	-11.09
▁doc	-11.0912
▁marrying	-11.0914
▁cope	-11.0928
▁plane	-11.093
▁combination	-11.0942
▁receipt	-11.0942
▁pattern	-11.0943
▁nail	-11.0944
▁log	-11.0959
▁stated	-11.0961
▁consult	-11.0962
does	-11.0978
▁1-2	-11.0983
▁wasted	-11.0986
pp	-11.0987
fer	-11.099
▁ev	-11.0991
▁assault	-11.0992
▁describe	-11.0997
▁convince	-11.0998
▁researching	-11.1
26	-11.1
▁si	-11.1
▁ultimate	-11.1002
▁anonymous	-11.1002
stood	-11.1007
ery	-11.1007
▁lgbt	-11.1009
▁genocide	-11.1009
▁grocery	-11.1009
▁muscle	-11.1009
▁silva	-11.1009
▁square	-11.1009
▁symbol	-11.1009
▁entertainment	-11.1009
▁spring	-11.1009
▁awful	-11.101
▁visible	-11.101
▁rising	-11.1011
▁liquid	-11.1013
▁river	-11.1014
▁eng	-11.1017
▁dms	-11.1018
▁ingredients	-11.1019
▁stressful	-11.1021
▁pvt	-11.1023
▁detailed	-11.1026
18	-11.1026
▁trainer	-11.103
▁cigars	-11.1031
▁rumors	-11.1033
▁sadly	-11.104
▁beware	-11.1041
▁attractions	-11.1043
▁apologi	-11.1047
▁tons	-11.1048
ier	-11.1056
▁pos	-11.1056
▁operations	-11.1063
▁transfers	-11.1065
eat	-11.1066
▁gal	-11.1067
ley	-11.1078
thank	-11.1078
ten	-11.1081
ff	-11.1086
train	-11.1091
▁ages	-11.1093
▁designed	-11.1109
▁debate	-11.1109
▁crack	-11.1109
▁fo	-11.1122
▁weed	-11.1124
▁monkey	-11.1125
▁reported	-11.1125
▁audit	-11.1128
▁speaks	-11.1131
rate	-11.1135
▁accepting	-11.1136
because	-11.1137
17	-11.1162
▁dated	-11.1169
▁leak	-11.1171
nu	-11.1178
sabaragamuwa	-11.1184
▁loneliness	-11.1184
▁preparing	-11.1184
▁spouse	-11.1184
▁appearance	-11.1185
▁suspended	-11.1185
▁records	-11.1186
▁consumption	-11.1187
▁chemical	-11.1187
post	-11.1187
▁uoc	-11.1188
▁annex	-11.1192
▁haha	-11.1192
▁elected	-11.1193
port	-11.1196
▁wire	-11.1198
▁fianc	-11.1203
▁traders	-11.121
14	-11.1211
hr	-11.1219
▁clinical	-11.1223
pt	-11.1232
ani	-11.1234
▁landscape	-11.1234
▁learnt	-11.1241
▁advised	-11.1253
▁plays	-11.1262
▁bug	-11.1269
▁regard	-11.127
▁improved	-11.127
▁referr	-11.1275
▁detail	-11.128
400	-11.1281
▁venues	-11.1285
▁inch	-11.1286
▁lil	-11.1289
▁gi	-11.1289
▁lecture	-11.1293
▁rentals	-11.1295
▁gpu	-11.1298
▁plug	-11.1301
▁discussing	-11.1303
hand	-11.1307
▁withdrawal	-11.1308
world	-11.1312
including	-11.1315
▁gather	-11.1318
box	-11.1318
▁marriages	-11.1321
zz	-11.1331
▁efforts	-11.1331
▁kiss	-11.1333
▁01	-11.1333
▁appeal	-11.1335
card	-11.1337
ala	-11.1343
▁consume	-11.1347
▁travels	-11.1351
▁calculate	-11.1352
use	-11.1355
▁pfc	-11.1358
▁privately	-11.1361
lan	-11.1363
▁equal	-11.1363
▁atmosphere	-11.1363
▁bullshit	-11.1363
▁diaspora	-11.1363
▁dilemma	-11.1363
▁feasible	-11.1363
▁silent	-11.1363
▁unnecessary	-11.1363
▁agriculture	-11.1363
▁bmw	-11.1363
▁fraud	-11.1363
▁quota	-11.1363
▁republic	-11.1363
▁coldplay	-11.1363
▁newbie	-11.1363
▁filing	-11.1363
▁leadership	-11.1363
▁criteria	-11.1364
▁vfs	-11.1364
▁overwhelmed	-11.1364
▁denied	-11.1364
▁controversial	-11.1364
▁meanwhile	-11.1364
▁clueless	-11.1365
▁dhl	-11.1366
▁cutting	-11.1368
▁fastest	-11.1369
▁faith	-11.137
ud	-11.137
mal	-11.1374
▁established	-11.1376
▁acca	-11.1379
▁10,000	-11.1382
▁casually	-11.1386
▁startups	-11.1402
▁pills	-11.1405
▁importantly	-11.1408
▁gained	-11.1419
tries	-11.1425
▁continued	-11.1428
ima	-11.1437
bus	-11.1438
▁pal	-11.1439
▁usb	-11.144
tom	-11.1449
▁procedures	-11.1451
▁renewing	-11.1453
kin	-11.1457
▁quote	-11.1467
▁division	-11.1473
▁faces	-11.1475
▁pera	-11.1479
▁cave	-11.148
▁camp	-11.1481
ini	-11.1481
fo	-11.149
galle	-11.1499
▁drain	-11.1499
▁tested	-11.151
run	-11.1513
▁buyer	-11.1515
1000	-11.1516
▁packs	-11.1519
▁1-	-11.1521
▁publish	-11.1528
▁indoor	-11.1531
▁encourage	-11.1533
▁resolve	-11.1534
got	-11.154
▁motivation	-11.1541
▁2024.	-11.1542
▁album	-11.1545
▁artificial	-11.1545
▁category	-11.1545
▁unforgettable	-11.1545
▁vacancy	-11.1545
▁burden	-11.1545
▁kidney	-11.1545
▁spray	-11.1545
▁abortion	-11.1545
▁comfortably	-11.1545
▁harassment	-11.1545
tb	-11.1545
▁winning	-11.1546
▁cabinet	-11.1546
▁obsessed	-11.1547
▁kollupitiya	-11.1547
▁surely	-11.1547
▁perera	-11.1548
▁login	-11.155
▁nightlife	-11.1551
▁python	-11.1551
▁rape	-11.1557
▁bout	-11.1557
▁moon	-11.1558
▁fup	-11.1559
▁witnessed	-11.1559
ik	-11.1561
▁conducting	-11.1565
▁edge	-11.1573
ag	-11.1587
ice	-11.1587
long	-11.1596
▁machines	-11.1599
▁driven	-11.16
▁cus	-11.1616
▁sum	-11.1619
▁pushing	-11.1622
▁qa	-11.1624
▁navigat	-11.1624
▁labs	-11.163
▁ministers	-11.1632
▁te	-11.1634
▁worship	-11.1638
▁unusual	-11.1639
▁circles	-11.1644
▁promise	-11.1653
▁mon	-11.1654
ure	-11.1656
ph	-11.1659
bb	-11.1659
▁hero	-11.1661
▁barber	-11.1664
▁finger	-11.1664
▁politician	-11.1664
▁celebration	-11.1666
▁improvement	-11.1671
▁cartoon	-11.1672
hour	-11.1687
▁sight	-11.1688
▁format	-11.1691
▁hole	-11.17
▁tattoos	-11.1704
▁tvs	-11.1709
▁workout	-11.1716
▁suppose	-11.1719
▁activate	-11.1723
read	-11.1728
▁technologies	-11.173
▁insecure	-11.173
▁presence	-11.173
▁sauce	-11.173
▁musk	-11.173
▁sigirya	-11.173
▁pepper	-11.173
▁protection	-11.1733
▁bambalapitiya	-11.1734
▁engaged	-11.1746
▁streams	-11.1746
▁600	-11.1753
▁cis	-11.1757
▁02	-11.1765
▁admin	-11.1765
br	-11.1768
▁fits	-11.1768
▁posh	-11.1771
lic	-11.1777
▁2024?	-11.1783
tri	-11.1787
▁owning	-11.1788
▁began	-11.1791
▁academics	-11.1795
▁discussed	-11.1808
▁guests	-11.1811
▁films	-11.1822
▁treating	-11.1832
▁sponsor	-11.1834
▁wins	-11.1844
▁saree	-11.1852
▁instance	-11.1853
front	-11.1855
▁va	-11.1867
known	-11.187
private	-11.1871
▁drives	-11.1871
when	-11.1871
gg	-11.1873
link	-11.1876
▁ti	-11.1879
▁kg	-11.188
▁sheet	-11.1882
▁sing	-11.1896
▁destroy	-11.1901
▁prison	-11.1917
▁meds	-11.1917
▁admit	-11.1918
▁captain	-11.1919
▁cotton	-11.1919
▁derana	-11.1919
▁durable	-11.1919
▁lyceum	-11.1919
▁rat	-11.1919
▁premier	-11.1919
▁alliance	-11.1919
▁rtx	-11.1919
▁clubbing	-11.1919
▁diverse	-11.1919
▁neighborhood	-11.1919
▁yellow	-11.1919
▁ousl	-11.1919
▁scamming	-11.1919
▁kfc	-11.1919
▁nonsense	-11.1919
▁lemm	-11.192
▁secretary	-11.192
▁favor	-11.1921
▁chatting	-11.1923
▁heritage	-11.1923
▁min	-11.1924
▁bottom	-11.1924
▁england	-11.1924
▁granted	-11.1926
▁chosen	-11.1927
▁emotionally	-11.1929
▁ge	-11.1936
▁leaked	-11.1937
▁shein	-11.1941
▁sexually	-11.1946
▁pl	-11.1947
▁boil	-11.1947
▁alevels	-11.1949
▁creators	-11.196
law	-11.1963
▁par	-11.1969
▁habits	-11.1979
▁lap	-11.1981
▁females	-11.1982
ear	-11.1983
gra	-11.1994
▁decades	-11.2007
▁preferences	-11.2009
▁hosting	-11.201
▁function	-11.2012
▁protest	-11.2016
▁button	-11.2019
goda	-11.2019
izing	-11.2024
ram	-11.2028
▁label	-11.203
▁statements	-11.2039
▁punishment	-11.2044
▁console	-11.2044
▁fragrance	-11.2044
▁certification	-11.2045
▁sentence	-11.2045
▁meter	-11.2046
▁rajapaksha	-11.2046
bar	-11.2046
▁1:	-11.205
lon	-11.205
19	-11.2056
▁owns	-11.2058
▁requesting	-11.2064
▁teen	-11.2067
▁shock	-11.2078
▁ux	-11.2086
srilankan	-11.2092
▁creep	-11.2096
pc	-11.21
▁batticaloa	-11.2111
▁cautious	-11.2111
▁happiness	-11.2111
▁replied	-11.2111
▁whilst	-11.2111
▁borrow	-11.2111
▁sinharaja	-11.2111
▁stumbl	-11.2111
▁greetings	-11.2111
▁tldr	-11.2111
▁pollution	-11.2111
▁hotspot	-11.2111
▁cinec	-11.2111
▁nike	-11.2112
▁busses	-11.2114
▁motivated	-11.2114
▁fi	-11.2118
▁rec	-11.2118
▁proposed	-11.2121
made	-11.2122
▁aunties	-11.2122
ative	-11.2123
▁swing	-11.2128
used	-11.2136
▁generated	-11.2137
▁damaged	-11.2138
▁cell	-11.2138
▁scheduled	-11.2138
▁har	-11.2139
▁thousands	-11.2139
▁tees	-11.2139
▁sti	-11.2141
▁voters	-11.2142
▁introverted	-11.2144
▁assets	-11.2147
▁packed	-11.2154
▁bros	-11.2155
13	-11.2161
being	-11.2163
▁blocking	-11.2166
▁safer	-11.217
pura	-11.2175
▁certifications	-11.218
▁bell	-11.218
ses	-11.2186
▁tri	-11.2194
▁lands	-11.22
▁stops	-11.22
▁lay	-11.2201
▁mn	-11.2215
▁towns	-11.2227
5%	-11.2233
mn	-11.2236
▁raining	-11.2237
▁vaccine	-11.2241
▁commitment	-11.2241
▁investigation	-11.2241
▁novel	-11.2241
▁cigarette	-11.2244
▁stone	-11.2244
▁battle	-11.2245
▁answered	-11.225
▁cast	-11.225
list	-11.2252
mirissa	-11.2259
▁trends	-11.2262
well	-11.2277
▁48	-11.2277
▁downloading	-11.2278
▁shout	-11.228
▁fluent	-11.2301
▁railways	-11.2303
▁stole	-11.2304
▁bribe	-11.2307
▁applicable	-11.2307
▁john	-11.2307
▁keels	-11.2307
▁mutual	-11.2307
▁packaging	-11.2307
▁stunning	-11.2307
▁playstation	-11.2307
▁catholic	-11.2307
▁thick	-11.2307
▁karma	-11.2308
▁nanu	-11.2308
▁accessible	-11.2308
▁thru	-11.2308
▁hookup	-11.2308
▁lord	-11.2309
▁profession	-11.231
▁counseling	-11.2311
▁sm	-11.2311
600	-11.2312
▁elderly	-11.2313
▁disappointing	-11.2313
▁portable	-11.2315
▁inspired	-11.2316
▁hoppers	-11.232
istic	-11.2325
▁effectively	-11.2328
▁script	-11.2329
▁leaning	-11.2333
▁bookings	-11.2341
ible	-11.2342
▁anger	-11.2347
▁entrepreneurs	-11.235
▁passengers	-11.236
▁dealers	-11.2364
▁graphics	-11.2365
▁sus	-11.2372
▁protests	-11.2375
star	-11.2378
▁installments	-11.2388
▁teenagers	-11.2389
▁approached	-11.2391
▁lovers	-11.2395
bu	-11.2398
▁holders	-11.2403
▁ta	-11.243
▁panel	-11.2442
▁bla	-11.2442
▁scientist	-11.2444
ali	-11.2449
▁medications	-11.245
▁trick	-11.2455
maths	-11.246
ep	-11.247
city	-11.2472
years	-11.248
▁intend	-11.2491
▁cod	-11.2495
▁;	-11.2495
▁advertise	-11.2495
▁educate	-11.2498
▁unexpected	-11.25
▁inappropriate	-11.2504
▁ofc	-11.2507
▁browsing	-11.2507
▁enhance	-11.2507
▁frustration	-11.2507
▁museum	-11.2507
▁satellite	-11.2507
▁sambol	-11.2507
▁ltd	-11.2507
▁xiaomi	-11.2507
▁victory	-11.2507
▁jeep	-11.2507
▁biological	-11.2507
▁admitted	-11.2508
▁virginity	-11.2508
▁generate	-11.2508
▁swear	-11.2509
▁semi	-11.251
▁difficulties	-11.2513
▁accused	-11.2516
▁excel	-11.2519
▁noodles	-11.2522
5000	-11.2528
▁dust	-11.253
chasing	-11.2534
▁tiny	-11.2536
ium	-11.2554
▁tariffs	-11.2564
88	-11.2564
ought	-11.2568
▁routers	-11.2569
▁waves	-11.257
00	-11.2572
▁recs	-11.258
ves	-11.2587
ken	-11.2588
▁handled	-11.2592
au	-11.2594
▁characters	-11.2599
▁ties	-11.26
▁deed	-11.26
▁sen	-11.2602
▁teams	-11.2602
300	-11.2603
▁delays	-11.2624
▁fool	-11.2627
▁encounter	-11.2627
▁sizes	-11.2629
▁depends	-11.2632
▁demanding	-11.2635
ml	-11.2642
▁kitten	-11.2644
▁bite	-11.2644
▁trap	-11.2645
▁podcast	-11.2645
▁manufacturer	-11.2648
asia	-11.265
has	-11.2655
▁enjoyed	-11.2657
▁gu	-11.2662
food	-11.2663
99	-11.2664
play	-11.2666
nne	-11.2672
▁cooler	-11.2675
▁hop	-11.2679
▁3-	-11.2683
cut	-11.2686
agala	-11.2687
▁buddhists	-11.2687
force	-11.2701
▁ears	-11.2708
▁exploit	-11.271
▁fantasy	-11.2711
▁flavour	-11.2711
▁jerome	-11.2711
▁penalty	-11.2711
▁subtitles	-11.2711
▁vacancies	-11.2711
▁wickremesinghe	-11.2711
▁overrated	-11.2711
▁desktop	-11.2711
▁24/7	-11.2711
▁damro	-11.2712
▁seafood	-11.2712
▁fiverr	-11.2712
▁expressway	-11.2712
▁isolated	-11.2713
▁ayurveda	-11.2714
▁180	-11.2715
▁phase	-11.2717
▁cbsl	-11.2718
▁spark	-11.2719
▁desperately	-11.2722
▁freely	-11.2725
▁invited	-11.2725
▁conducted	-11.2725
▁raw	-11.2727
▁sneakers	-11.2731
▁authorized	-11.2731
may	-11.2733
▁burning	-11.2746
▁bucks	-11.275
cular	-11.2755
33	-11.2758
▁buyers	-11.2764
▁heck	-11.2766
down	-11.2767
▁2:	-11.2767
stop	-11.2789
che	-11.2796
▁welcomed	-11.2797
▁hopes	-11.2802
▁funding	-11.2829
▁specializ	-11.2838
▁bet	-11.2838
▁contain	-11.2848
▁bond	-11.2851
▁bathroom	-11.2852
▁habit	-11.2853
▁resource	-11.2855
ther	-11.2855
▁scammer	-11.2856
▁tank	-11.286
now	-11.2868
▁coin	-11.2871
face	-11.2876
yes	-11.2879
▁adjust	-11.2897
▁reject	-11.2898
▁implement	-11.2902
▁popp	-11.2903
▁cinemas	-11.2905
▁scuba	-11.2908
gov	-11.291
▁del	-11.2913
▁constitution	-11.2915
▁length	-11.2918
▁pharmacies	-11.2919
▁promising	-11.2919
▁strategy	-11.2919
▁wilpattu	-11.2919
▁collapse	-11.2919
▁aviation	-11.292
▁default	-11.292
▁appreciation	-11.292
▁photoshoot	-11.292
▁biomedical	-11.292
▁shelter	-11.292
▁meditation	-11.292
▁urban	-11.292
▁pride	-11.292
▁hobby	-11.2921
▁9-5	-11.2921
▁ntb	-11.2921
▁rais	-11.2921
▁gossip	-11.2922
▁&#10;	-11.2922
▁innovation	-11.2923
▁democracy	-11.2923
▁kingdom	-11.2923
▁importance	-11.2923
best	-11.2924
▁viable	-11.2924
▁vietnam	-11.2924
▁appointed	-11.2925
▁japura	-11.2926
ku	-11.2929
▁disconnected	-11.2932
▁mistaken	-11.2933
▁woke	-11.2935
▁mechatronics	-11.2936
▁perspectives	-11.2939
▁restricted	-11.2939
ib	-11.2944
▁hide	-11.2951
▁cam	-11.2956
▁oils	-11.2956
▁suppliers	-11.2957
▁correctly	-11.296
▁conflicting	-11.2961
▁closest	-11.2963
▁dig	-11.2964
care	-11.2965
▁stu	-11.2971
▁odi	-11.2973
ham	-11.2981
▁attacked	-11.2996
▁wind	-11.3026
▁prep	-11.3036
▁sci	-11.3036
▁vapes	-11.3039
lely	-11.3042
▁amex	-11.3059
▁operation	-11.3062
right	-11.3062
▁disease	-11.3066
▁aspect	-11.3066
▁fabric	-11.3067
ld	-11.3067
▁wave	-11.3068
▁def	-11.3076
▁intel	-11.3077
▁bcs	-11.3078
▁seconds	-11.3079
▁aid	-11.3084
awa	-11.3087
▁800	-11.3089
▁scar	-11.3094
▁profits	-11.3094
nce	-11.31
▁wing	-11.3104
▁witness	-11.3112
▁dump	-11.3115
ada	-11.3122
▁(5	-11.3123
▁4)	-11.3128
▁licensed	-11.3131
▁conference	-11.3132
▁fridge	-11.3132
▁ignoring	-11.3132
▁suicidal	-11.3132
▁swift	-11.3132
▁tennis	-11.3132
▁allergy	-11.3132
▁broadcast	-11.3132
▁grandparents	-11.3132
▁closing	-11.3132
▁microsoft	-11.3132
▁toddler	-11.3132
▁navy	-11.3132
▁mainstream	-11.3133
▁plot	-11.3133
▁stopping	-11.3135
▁lesbian	-11.3136
▁cycling	-11.3136
▁thursday	-11.3137
▁facial	-11.3137
▁nine	-11.3137
▁offence	-11.3137
▁elon	-11.3138
▁bpo	-11.314
▁approximately	-11.3141
▁overthinking	-11.3141
mer	-11.3141
bad	-11.3141
▁pathetic	-11.3143
▁moral	-11.3145
▁quoted	-11.3146
▁hopeless	-11.3146
▁grid	-11.3147
▁dresses	-11.3147
-19	-11.3148
▁implemented	-11.315
▁answering	-11.3151
▁cozy	-11.3151
▁visits	-11.3156
▁everytime	-11.316
ants	-11.3162
ane	-11.3163
▁globally	-11.3168
▁asians	-11.3173
▁laughing	-11.3176
▁complained	-11.3176
▁relations	-11.3179
▁nationals	-11.318
▁hub	-11.318
▁fu	-11.3181
▁targeting	-11.3181
eee	-11.3186
▁millions	-11.3198
▁scars	-11.3199
▁legends	-11.3219
▁vent	-11.3221
▁mothers	-11.3227
▁dip	-11.3232
▁wheel	-11.3233
chi	-11.3263
its	-11.3268
▁highlight	-11.3269
▁campaigns	-11.3272
▁donation	-11.3284
▁row	-11.3286
▁supplement	-11.3288
mas	-11.329
▁factor	-11.3292
▁ants	-11.3293
ties	-11.3294
▁sorted	-11.3294
▁2025?	-11.3296
▁guard	-11.3301
▁sticker	-11.3301
travel	-11.3302
advice	-11.3302
sinhala	-11.3302
pool	-11.3303
▁requests	-11.3306
▁700	-11.3308
▁su	-11.3327
▁joint	-11.3331
ons	-11.3335
▁accommodations	-11.334
▁teenage	-11.3346
responsibilities	-11.335
▁groceries	-11.335
▁identification	-11.335
▁refusing	-11.335
▁resolution	-11.335
▁seylan	-11.335
▁sunglasses	-11.335
▁columbo	-11.335
▁depressing	-11.335
spiring	-11.335
▁verified	-11.335
▁animation	-11.335
▁queer	-11.335
▁combank	-11.335
▁numer	-11.335
▁chaos	-11.335
▁inverter	-11.335
▁jail	-11.3351
▁propaganda	-11.3351
▁database	-11.3352
▁cashier	-11.3352
▁experiment	-11.3352
▁habarana	-11.3352
▁certified	-11.3352
▁eelam	-11.3356
▁aragalaya	-11.3358
▁components	-11.3358
▁wednesday	-11.336
suing	-11.336
▁pissed	-11.3362
▁mood	-11.3364
▁kings	-11.3365
ave	-11.337
▁published	-11.337
pan	-11.3373
part	-11.3375
owned	-11.3379
▁talented	-11.338
▁guessing	-11.3383
shan	-11.3385
▁biscuits	-11.3386
▁5-6	-11.3392
▁ten	-11.3392
buy	-11.3393
▁doors	-11.3394
▁mates	-11.3403
▁packets	-11.3412
▁backpacking	-11.3414
▁hd	-11.3424
▁meetings	-11.3425
▁logic	-11.3435
▁ty	-11.3441
▁figures	-11.3442
▁ric	-11.3444
ple	-11.3446
called	-11.3447
▁mountains	-11.3447
ory	-11.3451
▁tutors	-11.3465
▁russians	-11.3469
ese	-11.3474
▁devs	-11.3483
▁filter	-11.3487
▁colleague	-11.3506
▁snack	-11.3506
▁expat	-11.3506
▁byd	-11.3507
▁expense	-11.351
ila	-11.351
▁stranger	-11.3514
▁07	-11.3522
ner	-11.3523
people	-11.3524
about	-11.3525
▁adapt	-11.3527
gh	-11.3529
mostly	-11.3534
▁adds	-11.3538
▁embarrass	-11.3543
vent	-11.3544
▁diy	-11.3547
▁roast	-11.3555
▁breaks	-11.356
▁fixing	-11.3561
▁gig	-11.3564
01	-11.3566
▁holds	-11.3566
▁taxis	-11.3569
▁bright	-11.3569
▁bubble	-11.3572
▁excellent	-11.3572
▁facility	-11.3572
▁landlord	-11.3572
▁sightseeing	-11.3572
▁violation	-11.3572
▁bamba	-11.3572
▁detect	-11.3572
▁amendment	-11.3572
▁taboo	-11.3572
▁convo	-11.3573
▁90%	-11.3573
volving	-11.3573
▁grandfather	-11.3575
▁panic	-11.3576
▁disrespectful	-11.3576
▁profitable	-11.3577
▁african	-11.3577
▁2016	-11.3578
▁bypass	-11.358
▁exhausted	-11.358
▁angel	-11.358
▁mentality	-11.358
▁comedy	-11.3581
▁fiction	-11.3583
▁dji	-11.3584
▁roaming	-11.3585
▁widely	-11.3588
▁pfca	-11.3588
▁larger	-11.3593
mg	-11.36
gs	-11.3602
▁calories	-11.361
▁buds	-11.3621
▁acbt	-11.3632
▁recipes	-11.3632
▁insist	-11.3633
▁dan	-11.3638
▁strangers	-11.3641
▁std	-11.3644
▁manufacturers	-11.3645
▁traditions	-11.3661
▁acquire	-11.3663
▁isp	-11.3674
▁fav	-11.3675
▁staring	-11.3675
▁texts	-11.3682
▁seniors	-11.3692
tar	-11.3706
▁lies	-11.371
top	-11.3713
▁mega	-11.3715
▁balls	-11.3717
ev	-11.3722
▁disorder	-11.3732
▁neighbour	-11.3733
▁consultation	-11.3733
▁cabs	-11.3735
gar	-11.3737
away	-11.3743
▁ups	-11.3743
▁plates	-11.3744
check	-11.3749
▁openly	-11.3753
▁res	-11.3757
▁replica	-11.3758
▁buildings	-11.3758
▁2-	-11.376
▁hu	-11.3766
▁lift	-11.3772
▁covering	-11.3774
▁disrupt	-11.3782
▁cos	-11.3784
▁og	-11.3789
▁therapists	-11.3789
high	-11.3792
▁gel	-11.3792
▁consistent	-11.3793
▁manual	-11.3796
uka	-11.3797
▁mentions	-11.3799
▁knee	-11.3799
▁beneficial	-11.3799
▁calculation	-11.3799
▁paradise	-11.3799
▁perceive	-11.3799
▁principal	-11.3799
▁tuesday	-11.3799
▁vague	-11.3799
▁memorable	-11.3799
▁scandal	-11.3799
▁abusive	-11.3799
▁reliability	-11.3799
▁flex	-11.3799
▁breach	-11.38
▁stance	-11.38
▁redmi	-11.3802
▁kalutara	-11.3802
▁offensive	-11.3802
▁wow	-11.3804
▁bullied	-11.3804
▁primarily	-11.3805
▁wfh	-11.3806
▁curly	-11.3806
▁vary	-11.3807
▁beforehand	-11.3807
▁negotiate	-11.3807
▁vegan	-11.3809
▁essentially	-11.3814
▁exit	-11.3816
▁8.	-11.3819
▁checkout	-11.3821
▁beliefs	-11.3826
shop	-11.3835
▁strongly	-11.3835
aka	-11.3852
▁iam	-11.3856
▁vendors	-11.3857
▁cosmetics	-11.3858
▁mal	-11.3862
elle	-11.3882
▁toys	-11.3885
sala	-11.3893
▁explaining	-11.3893
ware	-11.3899
ster	-11.3919
▁consultants	-11.3921
▁promo	-11.3931
▁rings	-11.3951
van	-11.3951
▁whales	-11.3953
study	-11.3956
▁hurts	-11.3963
▁spirit	-11.3964
▁elder	-11.3965
▁tariff	-11.3966
▁plantation	-11.3967
▁packet	-11.3967
▁euro	-11.3967
▁1500	-11.3969
▁screenshot	-11.3974
▁audi	-11.398
▁accountant	-11.3982
▁meetup	-11.3983
national	-11.3984
▁3000	-11.4004
▁span	-11.4005
▁scream	-11.4005
ue	-11.4011
ered	-11.4019
inch	-11.4021
▁establish	-11.4025
vil	-11.4025
▁jealous	-11.4026
▁accommodate	-11.4032
▁automation	-11.4032
▁dengue	-11.4032
▁halloween	-11.4032
▁offense	-11.4032
▁perception	-11.4032
▁philosophy	-11.4032
▁carried	-11.4032
▁prompt	-11.4032
▁transplant	-11.4032
▁narrow	-11.4032
▁throat	-11.4032
▁foster	-11.4032
▁nepal	-11.4032
▁2008	-11.4032
▁unpopular	-11.4032
▁maid	-11.4033
▁controlled	-11.4033
▁laid	-11.4033
▁documentary	-11.4034
ept	-11.4034
▁scenery	-11.4034
▁sunrise	-11.4035
▁dirty	-11.4036
▁freight	-11.4036
▁qatar	-11.4037
▁defense	-11.4038
▁trapped	-11.4038
ability	-11.4038
▁pending	-11.4042
▁commit	-11.4042
▁paste	-11.4045
▁torn	-11.4046
▁pleasant	-11.4046
ky	-11.4052
27	-11.4054
▁stronger	-11.4055
▁promoted	-11.4061
▁mt	-11.4064
▁prize	-11.4065
dis	-11.4076
▁adapter	-11.4078
900	-11.4088
mini	-11.4089
▁hack	-11.4099
▁treats	-11.4102
▁seal	-11.4102
▁novels	-11.4111
▁cc	-11.412
▁weddings	-11.4122
tical	-11.4133
tv	-11.4134
▁forwarding	-11.4137
▁gum	-11.4138
▁amid	-11.4148
▁mps	-11.4157
arot	-11.4162
▁ranges	-11.4165
▁oceans	-11.4174
▁silence	-11.4176
▁33	-11.4179
▁remains	-11.418
▁appointments	-11.4184
▁boards	-11.4185
▁pad	-11.4196
▁dial	-11.4197
▁whi	-11.4198
▁subreddits	-11.4199
sim	-11.4199
▁snake	-11.4202
▁aesthetic	-11.4203
▁jersey	-11.4203
▁module	-11.4203
▁nomad	-11.4204
▁affair	-11.4204
▁deadline	-11.4205
male	-11.4209
hal	-11.4209
▁writer	-11.422
school	-11.4221
week	-11.4222
since	-11.4222
ical	-11.4226
▁tl	-11.4229
5,000	-11.4243
▁waited	-11.4249
▁stages	-11.4251
▁youtuber	-11.4252
▁chan	-11.4253
try	-11.4257
▁forgotten	-11.4261
yr	-11.4264
▁slight	-11.4266
tel	-11.4268
▁reccomend	-11.4269
▁confess	-11.427
▁contemplat	-11.427
▁incredible	-11.427
▁intimacy	-11.427
▁junction	-11.427
▁portuguese	-11.427
▁unethical	-11.427
▁volume	-11.427
▁wikipedia	-11.427
▁welcoming	-11.427
▁conversion	-11.427
▁silly	-11.427
▁oversized	-11.427
▁disappointment	-11.427
▁hatred	-11.427
▁excessive	-11.427
▁saudi	-11.427
▁reduction	-11.427
▁spill	-11.427
▁recruitment	-11.4271
▁legion	-11.4271
▁oppenheimer	-11.4272
▁signals	-11.4272
▁manifesto	-11.4272
▁hobbies	-11.4273
▁manufacture	-11.4274
▁overwhelming	-11.4274
▁criticism	-11.4274
▁gpt	-11.4274
▁smth	-11.4276
▁symptoms	-11.4277
▁netherlands	-11.4281
▁2010	-11.4283
▁trained	-11.4283
▁dependent	-11.4283
▁calculated	-11.4285
▁wealthy	-11.4287
▁followers	-11.4287
▁cruiser	-11.4288
▁destroyed	-11.4292
ade	-11.4296
▁arent	-11.4297
▁enrolled	-11.4301
late	-11.4302
war	-11.4302
09	-11.4303
▁measures	-11.4307
▁statue	-11.4311
▁basics	-11.4319
▁harsh	-11.4322
▁unity	-11.4326
▁anc	-11.4332
love	-11.4334
non	-11.4335
▁musical	-11.4336
rent	-11.4339
▁chips	-11.4342
▁grad	-11.4345
▁wht	-11.4355
▁attempts	-11.4361
▁recall	-11.4363
▁thi	-11.4379
▁legs	-11.4385
▁monks	-11.4388
▁concepts	-11.4389
▁photographers	-11.439
▁lan	-11.4397
▁versions	-11.4406
udi	-11.4412
▁introduc	-11.4416
▁torrent	-11.4419
-10	-11.4428
▁slip	-11.443
▁employers	-11.4432
54	-11.4439
▁hits	-11.4443
▁wars	-11.4446
▁ju	-11.4446
▁recipe	-11.4448
▁passenger	-11.4448
▁advertisement	-11.4448
jan	-11.445
light	-11.4452
hz	-11.4452
▁boot	-11.4458
▁chocolates	-11.4459
should	-11.4466
▁cheat	-11.447
▁demo	-11.447
▁nov	-11.4477
▁steal	-11.4481
bank	-11.4489
▁notification	-11.4493
32	-11.4494
▁colors	-11.4497
▁conduct	-11.45
02	-11.4502
zing	-11.4504
pal	-11.4504
▁visual	-11.4507
test	-11.4509
▁clarity	-11.4514
▁engaging	-11.4514
▁enlighten	-11.4514
▁implications	-11.4514
▁intuitive	-11.4514
▁serving	-11.4514
▁twenties	-11.4514
▁fireworks	-11.4514
▁twist	-11.4514
▁occurred	-11.4514
▁neuro	-11.4514
▁skeptical	-11.4514
▁cim	-11.4514
▁connectivity	-11.4514
▁reload	-11.4515
▁inquiry	-11.4515
▁odel	-11.4515
80%	-11.4516
▁dislike	-11.4516
▁automatic	-11.4518
▁bundle	-11.4518
▁aud	-11.452
▁rejection	-11.452
▁rap	-11.452
▁workload	-11.4521
▁ego	-11.4521
▁pitch	-11.4521
▁consistently	-11.4521
▁ravana	-11.4522
▁seven	-11.4523
▁wholesale	-11.4524
▁imposed	-11.4524
▁winter	-11.4524
▁threatened	-11.4524
▁34	-11.4527
gala	-11.4529
▁quiz	-11.4529
▁convinced	-11.453
▁360	-11.453
▁separately	-11.4531
▁iron	-11.4538
▁technically	-11.4538
pu	-11.4538
▁amongst	-11.454
uc	-11.4544
▁wherever	-11.4547
▁mining	-11.4552
▁singing	-11.4553
▁hp	-11.4553
hrs	-11.4562
▁retake	-11.4565
▁difficulty	-11.4569
▁secured	-11.4572
ict	-11.458
key	-11.4582
▁meetups	-11.4584
ters	-11.4587
view	-11.4589
▁humble	-11.4593
▁zip	-11.4594
▁reminder	-11.4595
..)	-11.4596
▁logg	-11.4601
▁sin	-11.4607
▁raja	-11.4613
▁threats	-11.4618
here	-11.462
val	-11.4623
▁founder	-11.4623
▁xd	-11.4625
uber	-11.4626
▁travellers	-11.4627
▁poster	-11.4634
▁nose	-11.4637
▁hates	-11.4637
▁disc	-11.4638
▁rains	-11.4645
▁religions	-11.465
▁addressed	-11.4651
▁brokers	-11.4661
▁wet	-11.4662
800	-11.4665
▁dispose	-11.4668
ong	-11.4683
▁isps	-11.469
india	-11.4712
was	-11.4713
▁listing	-11.4714
dialog	-11.4716
pickme	-11.4716
house	-11.4717
▁don	-11.4723
▁stands	-11.4734
▁gathering	-11.4735
▁depart	-11.4736
sion	-11.4739
▁trigger	-11.4746
▁screw	-11.4747
▁decline	-11.4754
tin	-11.4761
▁tone	-11.4761
▁aggressive	-11.4761
▁loyal	-11.4763
▁airpods	-11.4764
▁century	-11.4764
▁confusion	-11.4764
▁devops	-11.4764
▁kangaroo	-11.4764
▁libraries	-11.4764
▁removing	-11.4764
▁vibrant	-11.4764
▁violent	-11.4764
▁celebrating	-11.4764
▁refurbished	-11.4764
▁autism	-11.4764
▁sleeve	-11.4764
▁spike	-11.4764
▁agenda	-11.4764
▁vishwa	-11.4764
▁injection	-11.4764
▁rooftop	-11.4764
▁copies	-11.4764
▁parade	-11.4765
▁ocd	-11.4765
▁postgraduate	-11.4765
▁injured	-11.4766
▁orange	-11.4766
▁fwb	-11.4766
▁grammar	-11.4768
▁joy	-11.4769
▁documentation	-11.4769
▁03	-11.477
east	-11.4771
▁yelling	-11.4772
ava	-11.4773
▁dell	-11.4776
▁(10	-11.4778
▁forecast	-11.4785
▁aunty	-11.4786
▁deeper	-11.4786
▁msg	-11.4788
▁ceo	-11.4789
▁organized	-11.4789
▁treasur	-11.4793
▁shake	-11.4795
▁laughed	-11.4796
▁mission	-11.4807
▁jumping	-11.4812
▁poly	-11.4824
▁regional	-11.4825
residential	-11.483
▁000	-11.4832
▁kandyan	-11.4832
▁ct	-11.4847
▁someday	-11.485
ui	-11.4851
▁cultures	-11.4854
▁scenes	-11.4861
▁environmental	-11.4872
▁mill	-11.4886
:30	-11.4887
▁bois	-11.4887
cost	-11.4888
ght	-11.4901
gr	-11.4908
▁tuks	-11.4912
0/-	-11.4916
▁resid	-11.4922
ua	-11.4924
▁fds	-11.4927
taking	-11.4935
▁mee	-11.4936
▁sectors	-11.4938
person	-11.4942
▁bail	-11.4942
▁reservation	-11.4953
▁cosmetic	-11.4954
▁font	-11.4955
▁folk	-11.4957
▁turtle	-11.496
▁justify	-11.4963
physics	-11.4972
friends	-11.4973
▁vip	-11.4975
▁sweat	-11.4979
▁cri	-11.4991
▁fights	-11.4994
▁killer	-11.4997
▁mentor	-11.4998
ets	-11.5001
ric	-11.5001
▁clip	-11.5007
▁approve	-11.5009
▁aqua	-11.5014
days	-11.5014
▁polite	-11.5015
▁lens	-11.5018
▁stat	-11.5019
▁superior	-11.5019
▁percent	-11.502
▁trek	-11.502
▁barista	-11.502
▁celebrities	-11.502
▁collaborate	-11.502
▁comprehensive	-11.502
▁conclusion	-11.502
▁equity	-11.502
▁graduating	-11.502
▁increment	-11.502
▁kadawatha	-11.502
▁retreat	-11.502
▁sapphire	-11.502
▁sirasa	-11.502
▁tobacco	-11.502
▁lottery	-11.502
▁guidelines	-11.502
▁grind	-11.502
▁obsession	-11.502
▁terrorism	-11.502
▁unemployed	-11.5021
▁orientation	-11.5021
▁announcement	-11.5022
▁alongside	-11.5022
▁stem	-11.5022
▁playlist	-11.5023
▁banana	-11.5023
▁evil	-11.5023
▁controlling	-11.5023
▁accessories	-11.5024
▁hungry	-11.5026
▁ecu	-11.5026
▁captured	-11.5031
▁annoyed	-11.5031
vc	-11.5032
▁secondary	-11.5033
▁chase	-11.5037
▁tuktuks	-11.5038
▁intended	-11.5042
▁docs	-11.5043
▁).	-11.5047
▁stealing	-11.5049
▁award	-11.505
▁tune	-11.5053
▁governments	-11.5054
apped	-11.5061
▁organiz	-11.5062
▁bothered	-11.5076
ju	-11.5082
▁americans	-11.5083
▁waterfalls	-11.5083
kind	-11.5091
▁flip	-11.5092
▁gp	-11.5092
▁prof	-11.5096
▁idp	-11.5099
▁iran	-11.51
▁podcasts	-11.5106
▁rot	-11.5109
▁collecting	-11.5125
▁persons	-11.5125
▁arrives	-11.5127
▁proposals	-11.513
cess	-11.5133
▁terrorists	-11.5135
▁ft	-11.5136
▁beating	-11.5141
▁periods	-11.5141
▁(19	-11.5144
▁courts	-11.5148
▁sara	-11.5148
▁rag	-11.5148
▁examples	-11.515
▁(4	-11.5151
rk	-11.5152
▁guns	-11.5156
05	-11.5158
cha	-11.5159
shi	-11.516
▁upwork	-11.5168
mbo	-11.517
▁loos	-11.5175
▁65	-11.5179
▁permits	-11.5184
▁relate	-11.5187
▁hint	-11.5201
▁males	-11.5209
▁timing	-11.5217
▁condom	-11.5217
▁vendor	-11.5225
▁lakh	-11.523
commerce	-11.5233
▁crash	-11.5235
experience	-11.5235
rio	-11.5235
paid	-11.5239
indian	-11.524
▁forces	-11.5241
room	-11.5257
lin	-11.5269
76	-11.527
▁stuffs	-11.5273
▁sticks	-11.5275
▁straw	-11.5283
▁allegations	-11.5283
▁buddies	-11.5283
▁garage	-11.5283
▁invitation	-11.5283
▁nintendo	-11.5283
▁paranoid	-11.5283
▁pouches	-11.5283
▁presidency	-11.5283
▁unavailable	-11.5283
▁exceed	-11.5283
▁filth	-11.5283
▁possibilities	-11.5283
▁litter	-11.5284
▁thrive	-11.5284
▁underground	-11.5285
▁unpaid	-11.5286
▁alien	-11.5286
▁pandemic	-11.5286
▁tele	-11.5287
▁pearson	-11.5288
▁vast	-11.5288
▁predict	-11.5288
▁peotv	-11.5288
▁disturbing	-11.5289
▁pension	-11.529
▁charm	-11.5291
▁20%	-11.5292
▁branches	-11.5292
▁18%	-11.5292
▁urge	-11.5292
▁mango	-11.5296
▁declined	-11.5296
▁malay	-11.5298
▁cheated	-11.5302
▁thus	-11.5305
▁saas	-11.5306
point	-11.5309
▁caste	-11.531
▁lean	-11.5314
▁greatest	-11.5314
▁peers	-11.5315
▁embarrassing	-11.5316
▁sooo	-11.5317
▁sr	-11.5321
▁suffered	-11.5322
▁pointers	-11.5322
▁settled	-11.5324
slt	-11.533
▁vegetables	-11.533
▁landed	-11.533
▁abused	-11.5331
▁cm	-11.5331
rich	-11.5332
▁cabin	-11.5335
ria	-11.5336
▁episodes	-11.5337
▁achieved	-11.5338
▁bull	-11.5341
▁mf	-11.5345
▁kia	-11.5346
▁grads	-11.5355
▁crossing	-11.5359
▁gbp	-11.5359
▁recorded	-11.5361
▁donations	-11.5364
hana	-11.5371
▁minds	-11.5371
▁panels	-11.5371
▁warn	-11.5373
▁bride	-11.5374
▁counting	-11.5376
your	-11.5378
▁aka	-11.5385
▁texted	-11.5388
▁daytime	-11.5388
▁aboard	-11.5392
▁tablets	-11.54
▁scores	-11.54
▁fruits	-11.54
▁arguments	-11.5405
▁clinics	-11.5406
▁admissions	-11.5421
tc	-11.5422
▁downloaded	-11.5426
▁caps	-11.5437
service	-11.5439
▁trainers	-11.5439
-5	-11.5446
▁hustles	-11.5449
▁licenses	-11.5452
▁econ	-11.5456
near	-11.5457
▁toll	-11.5463
▁um	-11.5474
▁desire	-11.5475
▁mc	-11.5479
▁causes	-11.5484
▁sponsorship	-11.5487
▁initiative	-11.5487
▁waterfall	-11.5488
▁uniform	-11.549
▁cas	-11.549
▁loads	-11.5497
rum	-11.5501
▁comic	-11.5501
visit	-11.5503
tourist	-11.5506
▁resign	-11.5506
▁border	-11.5509
▁investor	-11.5515
▁treasure	-11.5522
▁gardens	-11.5523
▁groom	-11.5527
▁sole	-11.5535
ash	-11.5535
▁succeed	-11.5536
▁eco	-11.5538
▁capture	-11.5542
▁africa	-11.5547
▁occasional	-11.5549
▁illness	-11.5552
pala	-11.5553
▁companion	-11.5553
▁borella	-11.5553
▁ethernet	-11.5553
▁immense	-11.5553
▁manchester	-11.5553
▁puppy	-11.5553
▁syndrome	-11.5553
▁pinnawala	-11.5554
▁gazette	-11.5554
▁retain	-11.5554
▁sentiment	-11.5554
▁tongue	-11.5554
▁biriyani	-11.5554
▁committee	-11.5554
▁exposing	-11.5554
▁honey	-11.5554
▁arugambay	-11.5554
▁typing	-11.5554
▁igcse	-11.5554
▁intercity	-11.5554
▁chess	-11.5554
▁10-15	-11.5554
▁sanath	-11.5554
▁mosquito	-11.5554
▁replacing	-11.5554
▁snus	-11.5555
▁diagnosis	-11.5556
▁tipping	-11.5556
▁shopify	-11.5556
▁formula	-11.5556
▁minority	-11.5556
▁thalawathugoda	-11.5557
▁ucl	-11.5557
▁llc	-11.5558
▁panadura	-11.5558
▁wound	-11.5559
▁propose	-11.5559
▁recognised	-11.5561
▁grass	-11.5561
▁oneplus	-11.5563
▁loop	-11.5564
▁stepp	-11.5566
▁addicted	-11.5568
▁prioritize	-11.5568
▁advertised	-11.5569
▁instruments	-11.5573
▁slide	-11.5573
▁drained	-11.5579
▁hyper	-11.5581
plan	-11.5582
isation	-11.5582
rry	-11.5583
▁buggers	-11.5586
▁visitor	-11.5591
▁lacks	-11.5591
▁newspapers	-11.5593
▁divorced	-11.5593
▁keys	-11.5594
▁nz	-11.5596
under	-11.5596
▁farming	-11.5599
ake	-11.5603
▁recording	-11.5603
▁relaxed	-11.5604
▁bali	-11.5606
▁accordingly	-11.5616
▁avoiding	-11.5616
▁epic	-11.5618
▁norms	-11.562
▁condoms	-11.5622
form	-11.5625
▁placement	-11.5626
▁riders	-11.5627
▁verbal	-11.5628
raj	-11.5633
▁sciences	-11.5649
▁instances	-11.565
▁belt	-11.5656
▁patterns	-11.5659
▁pubs	-11.5662
▁converting	-11.5664
▁criminals	-11.5664
gy	-11.5666
▁ports	-11.5669
▁exporting	-11.5672
▁nasa	-11.5679
▁laks	-11.5687
riya	-11.5688
▁residents	-11.569
▁divide	-11.5696
▁norm	-11.5696
hra	-11.5697
▁hrs	-11.5702
▁rob	-11.5712
▁stare	-11.5724
▁gamer	-11.575
though	-11.5751
▁socially	-11.5753
je	-11.5753
live	-11.5755
31	-11.5756
▁lite	-11.5761
▁temperature	-11.5763
▁psychologists	-11.5764
▁venture	-11.5764
▁organisation	-11.5765
▁headache	-11.5766
▁shell	-11.5768
▁ripp	-11.5768
▁ukrainian	-11.5768
▁aws	-11.5769
▁pill	-11.5775
▁stall	-11.5776
▁hiru	-11.5779
software	-11.5781
▁pakistani	-11.5781
million	-11.5783
hotel	-11.5784
sorry	-11.5784
▁ch	-11.5786
still	-11.5791
▁sacrifice	-11.5792
master	-11.5792
▁surround	-11.5804
▁lacking	-11.5804
▁overstay	-11.5806
▁questioning	-11.5809
▁owe	-11.5811
▁deduct	-11.5813
▁pricey	-11.5821
▁weigh	-11.5825
js	-11.5829
▁brutal	-11.583
▁favour	-11.5831
ith	-11.5831
▁asleep	-11.5831
▁babies	-11.5831
▁gynecomastia	-11.5831
▁hesitate	-11.5831
▁leisure	-11.5831
▁nursing	-11.5831
▁physician	-11.5831
▁scientific	-11.5831
▁upgrading	-11.5831
▁valorant	-11.5831
▁association	-11.5831
▁bitcoin	-11.5831
▁whatsoever	-11.5831
▁tragic	-11.5831
▁ubereats	-11.5831
▁vitz	-11.5831
▁torture	-11.5831
▁mintpay	-11.5831
▁defeat	-11.5832
▁petition	-11.5832
▁repost	-11.5832
▁unmarried	-11.5832
▁chapter	-11.5832
▁underwear	-11.5833
▁convenience	-11.5835
▁beans	-11.5835
▁2014	-11.5836
▁delicious	-11.5836
▁societies	-11.5836
▁funeral	-11.5836
▁sup	-11.5836
▁regions	-11.5836
▁adoption	-11.5837
▁defence	-11.5839
▁2/3	-11.5839
▁downsouth	-11.5839
▁allegedly	-11.584
▁painting	-11.584
▁sand	-11.5841
▁thingy	-11.5841
▁thankfully	-11.5842
mount	-11.5844
▁cz	-11.5846
▁che	-11.5852
78	-11.5853
▁endless	-11.5856
▁knowledgeable	-11.5857
▁earners	-11.5859
self	-11.5859
gged	-11.5872
▁drawing	-11.5887
▁hacker	-11.5902
▁rig	-11.5909
▁neighbours	-11.5913
▁consist	-11.5919
▁dose	-11.5922
▁worrying	-11.5924
▁ri	-11.5925
28	-11.5928
ach	-11.5929
▁20,000	-11.593
▁(25	-11.5933
lankan	-11.5935
▁deaths	-11.5936
sara	-11.5938
▁nuts	-11.5942
▁roti	-11.5943
lab	-11.5946
▁cha	-11.5946
using	-11.5948
▁rolls	-11.5972
win	-11.599
press	-11.5991
▁fishing	-11.5992
thara	-11.5993
▁serves	-11.5995
▁differ	-11.5997
▁cleaner	-11.6013
lar	-11.603
▁credits	-11.6039
-8	-11.6049
▁narrative	-11.6049
▁restriction	-11.6052
▁interaction	-11.6052
65	-11.6061
dha	-11.6069
xt	-11.6069
guide	-11.6069
▁flood	-11.6072
without	-11.6072
▁accidents	-11.608
▁bud	-11.6083
▁tan	-11.6087
rfc	-11.6088
▁achiev	-11.6092
44	-11.6096
ify	-11.6096
▁grounds	-11.6097
▁scooters	-11.6099
▁object	-11.6101
▁wagon	-11.6105
▁til	-11.6109
▁disrespect	-11.6111
▁jo	-11.6114
▁spiritual	-11.6116
▁uncertain	-11.6117
▁scrap	-11.6117
▁advisable	-11.6117
▁alibaba	-11.6117
▁attestation	-11.6117
▁piercing	-11.6117
▁pyramid	-11.6117
▁submission	-11.6117
▁supreme	-11.6117
▁unhealthy	-11.6117
▁marvel	-11.6117
▁minecraft	-11.6117
▁simplytek	-11.6117
▁boundaries	-11.6117
▁blaming	-11.6117
▁intense	-11.6117
▁schengen	-11.6117
▁hilarious	-11.6117
preferential	-11.6117
▁perahera	-11.6117
▁relief	-11.6117
pitiya	-11.6117
▁automobile	-11.6117
▁emerg	-11.6117
▁impressive	-11.6117
▁nuwaraeliya	-11.6118
▁charity	-11.6118
▁cpu	-11.6119
▁brush	-11.6119
▁bucket	-11.6119
▁quitting	-11.6119
8%	-11.6122
▁avurudu	-11.6123
▁2009	-11.6123
▁homemade	-11.6124
▁irl	-11.6124
▁proven	-11.6124
ign	-11.6124
▁distances	-11.6126
▁scrolling	-11.6129
▁smoothly	-11.613
▁revealed	-11.6133
▁pax	-11.6135
pping	-11.6136
▁virus	-11.6137
▁fellas	-11.6139
inary	-11.614
▁ver	-11.6144
▁secretly	-11.6144
▁produced	-11.6144
ture	-11.6145
▁jam	-11.6148
▁tht	-11.6149
▁lg	-11.6149
▁acknowledge	-11.6151
▁featured	-11.6157
ook	-11.616
▁recovered	-11.6163
▁illegally	-11.6164
▁bare	-11.6171
▁undergo	-11.6173
▁indie	-11.6175
having	-11.6176
▁learner	-11.618
▁timeline	-11.6184
▁polo	-11.6187
▁heal	-11.6189
▁gr	-11.6194
▁accountable	-11.6196
▁hacks	-11.6198
▁mens	-11.6198
▁feeding	-11.62
▁behave	-11.6201
▁bird	-11.6207
▁mud	-11.6207
▁jana	-11.6209
▁fingers	-11.6221
lla	-11.6221
▁18-	-11.6223
▁undergraduates	-11.6229
▁reserves	-11.6231
▁chairs	-11.6235
▁idiots	-11.6242
▁marking	-11.6242
▁cop	-11.6244
months	-11.6245
150	-11.6246
▁pup	-11.6248
hs	-11.625
▁3.5	-11.6254
▁wan	-11.6257
▁inland	-11.6261
ena	-11.6262
mt	-11.6265
▁pur	-11.6283
▁%	-11.6284
▁strikes	-11.6289
▁160	-11.6295
▁publicly	-11.63
-30	-11.6309
▁screening	-11.6326
core	-11.6332
▁rage	-11.6333
▁hiv	-11.6341
▁accomodation	-11.6343
▁pee	-11.6343
▁craving	-11.6344
▁exercise	-11.6344
▁outcome	-11.6344
rag	-11.6345
sea	-11.6346
data	-11.6354
▁follows	-11.6354
▁np	-11.6357
▁printer	-11.6358
something	-11.6363
effective	-11.6364
▁disappear	-11.6365
june	-11.6368
▁commented	-11.6373
wan	-11.638
▁exempt	-11.6385
▁forgive	-11.6386
▁clock	-11.6399
▁decrease	-11.6399
▁privilege	-11.64
▁sharp	-11.6405
▁revolut	-11.641
▁cannabis	-11.6411
▁diversity	-11.6411
▁escalate	-11.6411
▁huawei	-11.6411
▁neutral	-11.6411
▁auction	-11.6411
▁lasik	-11.6411
▁apparel	-11.6411
▁genetic	-11.6411
▁television	-11.6411
▁ashamed	-11.6411
▁chartered	-11.6411
▁ngl	-11.6411
▁grill	-11.6411
▁biased	-11.6411
▁species	-11.6412
▁surface	-11.6412
▁romance	-11.6412
▁harmful	-11.6412
▁merch	-11.6412
▁nawala	-11.6412
▁sunny	-11.6412
▁abusing	-11.6412
▁indeed	-11.6412
▁worldwide	-11.6413
▁ethnicity	-11.6413
▁restructuring	-11.6413
▁rupavahini	-11.6413
▁bakery	-11.6414
▁hiding	-11.6415
▁santa	-11.6415
▁discontinued	-11.6416
▁fa	-11.6417
▁pray	-11.6417
▁baseus	-11.6417
▁rating	-11.6417
▁relic	-11.6417
▁pork	-11.6418
▁iesl	-11.6418
▁assessment	-11.6418
▁raid	-11.642
▁disconnect	-11.6421
▁moderate	-11.6421
▁equally	-11.6422
▁earphones	-11.6424
▁spectacles	-11.6426
▁offline	-11.6426
▁256	-11.6427
▁classmates	-11.6431
▁screwed	-11.6431
▁thrown	-11.6435
▁gta	-11.6435
▁reader	-11.6444
▁kindle	-11.6451
▁dmt	-11.6454
▁mechanics	-11.6454
▁spas	-11.6457
▁offend	-11.6458
▁10-	-11.6459
▁aswell	-11.6462
▁predictions	-11.6466
▁900	-11.6466
▁qr	-11.6471
▁hunting	-11.6473
▁shots	-11.6473
▁rolling	-11.6473
▁researched	-11.6475
▁offices	-11.648
▁guysss	-11.6487
▁bot	-11.6488
▁nomads	-11.6494
▁char	-11.6507
early	-11.6508
▁sights	-11.6514
▁cartoons	-11.6518
▁excuses	-11.6528
▁temp	-11.6533
▁(24	-11.6551
▁(6	-11.6557
▁inspect	-11.6557
▁ama	-11.6567
▁fold	-11.6569
▁helpless	-11.6569
mid	-11.657
▁ren	-11.6575
▁hons	-11.6576
▁ravi	-11.6577
▁posters	-11.6582
▁siri	-11.6583
▁deserves	-11.6597
▁colours	-11.6608
▁adventures	-11.6612
▁tik	-11.6616
paying	-11.6626
▁qs	-11.6626
▁hip	-11.6627
▁hash	-11.6631
full	-11.6646
▁crab	-11.6647
▁barrier	-11.6647
▁breakdown	-11.6648
▁creator	-11.6648
order	-11.6649
▁headphone	-11.665
style	-11.6659
▁malls	-11.666
ude	-11.6663
normal	-11.6666
nugegoda	-11.6666
google	-11.6666
would	-11.6666
soft	-11.6667
▁reveal	-11.6669
get	-11.667
making	-11.6671
▁regrets	-11.6672
nuwara	-11.6674
▁ds	-11.6678
aud	-11.6681
open	-11.6685
adi	-11.6686
▁balanc	-11.6687
▁reward	-11.6687
▁secrets	-11.6691
case	-11.6693
▁pools	-11.6698
▁piss	-11.6702
▁apologize	-11.6703
▁mature	-11.6704
▁mole	-11.6713
▁danger	-11.6714
▁bangkok	-11.6714
▁bluetooth	-11.6714
▁calendar	-11.6714
▁czech	-11.6714
▁diabetes	-11.6714
▁disaster	-11.6714
▁emotions	-11.6714
▁generous	-11.6714
▁jungle	-11.6714
▁legacy	-11.6714
▁messaging	-11.6714
▁nostalgic	-11.6714
▁qualify	-11.6714
▁unbearable	-11.6714
▁universal	-11.6714
▁digging	-11.6714
▁homagama	-11.6714
▁calculator	-11.6714
▁rescue	-11.6714
▁grandmother	-11.6714
▁juice	-11.6714
▁collar	-11.6714
▁journalism	-11.6714
▁hmu	-11.6715
▁lush	-11.6715
▁fuss	-11.6715
▁abey	-11.6715
▁communist	-11.6715
▁flagship	-11.6715
▁unsafe	-11.6716
▁mosquitoes	-11.6717
▁continuously	-11.6717
▁underpaid	-11.6718
▁ki	-11.6718
▁dili	-11.6718
▁democratic	-11.6719
▁tournament	-11.6719
dar	-11.672
▁occasionally	-11.6722
▁nsfw	-11.6722
▁affection	-11.6722
▁popularity	-11.6724
▁lend	-11.6724
▁palestine	-11.6725
▁grabb	-11.6726
▁inconvenience	-11.6728
▁stir	-11.6728
▁dye	-11.6729
▁float	-11.6731
▁dnd	-11.6732
▁questioned	-11.6732
▁processed	-11.6732
▁liberal	-11.6732
▁50,000	-11.6733
▁trousers	-11.6736
▁inclusive	-11.6736
▁applicants	-11.6738
▁malaysian	-11.6738
▁wishes	-11.6743
▁healing	-11.6746
▁arabia	-11.6746
▁rushed	-11.675
▁economical	-11.6755
fu	-11.6775
ari	-11.6785
phil	-11.6786
▁sn	-11.6787
▁bowl	-11.6787
▁relat	-11.6796
▁screenshots	-11.6802
▁icc	-11.6806
code	-11.6814
▁tid	-11.6818
2025	-11.6818
▁token	-11.6821
▁tu	-11.6823
▁admins	-11.6823
▁trending	-11.6825
▁qu	-11.6833
▁manga	-11.6842
mor	-11.6846
2023	-11.6861
wise	-11.6862
▁bass	-11.6881
▁islam	-11.6898
▁lover	-11.6908
▁enthusiast	-11.6912
▁wo	-11.6915
▁entrepreneur	-11.6915
▁references	-11.6915
▁reg	-11.6925
700	-11.6928
▁fined	-11.6929
watta	-11.6942
▁replying	-11.6943
▁involve	-11.6948
▁parked	-11.6949
phone	-11.6949
▁peanut	-11.696
source	-11.696
▁reform	-11.6962
▁tropica	-11.6963
▁reaction	-11.6963
▁sw	-11.6964
▁mcdonald	-11.6965
▁container	-11.6966
▁counselor	-11.6969
▁genre	-11.6969
▁otps	-11.6976
reddit	-11.6977
white	-11.6978
power	-11.6978
august	-11.6979
could	-11.6979
anyone	-11.6981
▁whereas	-11.6988
▁tear	-11.7002
ile	-11.7007
lew	-11.7011
▁recognize	-11.7015
▁5'	-11.7017
lock	-11.7017
▁cho	-11.7021
▁tha	-11.7021
▁literal	-11.7022
▁transcript	-11.7024
▁eg	-11.7026
▁baggage	-11.7027
▁civic	-11.7027
▁courage	-11.7027
▁efficiency	-11.7027
▁hambantota	-11.7027
▁moderators	-11.7027
▁practicing	-11.7027
▁remedies	-11.7027
▁disabled	-11.7027
▁drove	-11.7027
▁retro	-11.7027
▁personnel	-11.7027
▁poruwa	-11.7027
▁ferry	-11.7027
▁orthodontist	-11.7027
▁disposable	-11.7027
▁participation	-11.7027
▁unregistered	-11.7027
▁prominen	-11.7028
▁pipe	-11.7028
▁acceptance	-11.7029
▁20-30	-11.703
uni	-11.703
▁bless	-11.7032
▁approx	-11.7034
▁mor	-11.7034
▁fallen	-11.7034
▁30%	-11.7034
very	-11.7038
▁grey	-11.7038
▁settlement	-11.704
take	-11.704
▁kottawa	-11.704
▁customized	-11.7041
▁ensur	-11.7044
▁outage	-11.7044
▁catering	-11.7052
▁techno	-11.7055
▁instructions	-11.7057
▁importers	-11.7058
lap	-11.7059
▁thankyou	-11.706
▁fishy	-11.7064
▁musicians	-11.7064
▁weekdays	-11.7068
ments	-11.7073
▁occasions	-11.7074
▁exclud	-11.7076
▁consulting	-11.7078
▁doable	-11.7079
▁culturally	-11.7082
wo	-11.7084
▁instructors	-11.7085
▁cents	-11.7086
▁oldest	-11.7087
ef	-11.7096
▁shares	-11.7097
▁;)	-11.7097
arch	-11.7098
▁sims	-11.7098
▁socialist	-11.7099
▁polos	-11.71
▁plantations	-11.7117
4%	-11.7122
▁diseases	-11.7125
▁baila	-11.7127
▁processes	-11.7128
▁youtubers	-11.7133
▁vaccines	-11.7134
06	-11.7148
books	-11.7151
▁mist	-11.7152
▁displayed	-11.7152
▁77	-11.7161
▁scan	-11.7161
▁valued	-11.7168
▁departments	-11.7181
41	-11.7184
▁5:	-11.7189
▁exceptional	-11.7194
▁psa	-11.7204
▁trusts	-11.7206
▁concerts	-11.7211
▁js	-11.7212
▁curat	-11.7223
▁promotions	-11.723
fully	-11.7232
▁mint	-11.7243
ank	-11.7255
pper	-11.7258
▁110	-11.727
last	-11.7271
▁organize	-11.7272
▁merchant	-11.7283
▁episode	-11.7283
▁teledrama	-11.7288
▁architect	-11.7289
79	-11.729
▁logical	-11.7292
official	-11.7299
sub	-11.7299
07	-11.73
built	-11.7301
serious	-11.7301
▁trails	-11.7303
▁historic	-11.7304
▁flower	-11.7308
wood	-11.7312
job	-11.7321
▁3:	-11.7327
▁colo	-11.7331
▁confront	-11.7333
▁reverse	-11.7338
▁slot	-11.7339
hole	-11.734
▁redditor	-11.7341
▁expose	-11.7343
▁bald	-11.7345
▁drag	-11.7346
▁extract	-11.7347
▁billing	-11.7348
▁arguing	-11.7349
▁arrack	-11.7349
▁bureau	-11.7349
▁creatine	-11.7349
▁embark	-11.7349
▁lecturing	-11.7349
▁miserable	-11.7349
▁misleading	-11.7349
▁nanotek	-11.7349
▁neglect	-11.7349
▁nostalgia	-11.7349
▁outstanding	-11.7349
▁preparation	-11.7349
▁racial	-11.7349
▁rajapakse	-11.7349
▁ryzen	-11.7349
▁snorkelling	-11.7349
▁stomach	-11.7349
▁stretch	-11.7349
▁valentine	-11.7349
▁muay	-11.7349
▁kiribathgoda	-11.7349
▁bbc	-11.7349
▁thief	-11.7349
▁mileage	-11.7349
▁query	-11.7349
▁linux	-11.7349
▁wije	-11.735
▁surgeries	-11.735
▁hopping	-11.735
▁involvement	-11.735
▁regime	-11.735
▁interactive	-11.7351
▁merit	-11.7351
air	-11.7352
indu	-11.7352
▁fond	-11.7352
▁continuing	-11.7352
▁bungalow	-11.7353
▁validity	-11.7355
▁assigned	-11.7356
▁tick	-11.7356
▁loyalty	-11.7357
▁exports	-11.7357
▁exemption	-11.7359
▁snap	-11.7359
▁headset	-11.7362
▁anonymously	-11.7362
▁512	-11.7363
▁lodge	-11.7363
▁monitors	-11.7364
▁rocket	-11.7365
▁zen	-11.7366
▁divided	-11.7367
▁nelum	-11.737
▁voices	-11.7372
▁considerable	-11.7374
▁ham	-11.7379
▁ease	-11.7381
▁escorts	-11.7381
say	-11.7384
▁bombings	-11.739
▁tailored	-11.7394
▁stations	-11.7395
▁decor	-11.7396
▁shocking	-11.7396
giri	-11.7402
▁understandable	-11.7407
▁blamed	-11.7411
▁mari	-11.7412
▁coaching	-11.7414
▁involves	-11.7418
▁responded	-11.7419
then	-11.7421
▁pu	-11.7423
▁interactions	-11.7425
▁lifting	-11.7427
▁coat	-11.7427
▁5%	-11.7444
▁(23	-11.7445
dh	-11.7446
▁acid	-11.7448
▁bl	-11.7454
▁stickers	-11.7457
▁investigations	-11.746
▁dressed	-11.7461
wala	-11.7462
▁prob	-11.7463
▁pile	-11.7467
cl	-11.7468
▁nails	-11.7476
wella	-11.7482
▁examinations	-11.7484
ified	-11.7486
▁jet	-11.7492
fc	-11.7501
▁slc	-11.7501
▁sab	-11.7502
tea	-11.7508
▁lank	-11.7509
▁demands	-11.7513
▁guides	-11.7516
▁thankful	-11.7516
▁seo	-11.752
date	-11.7526
▁schemes	-11.7531
than	-11.7532
59	-11.7541
pls	-11.7543
▁bun	-11.7544
▁6-	-11.7547
▁lit	-11.7547
▁cleared	-11.7549
▁wished	-11.7551
hd	-11.7555
artial	-11.7558
▁99	-11.7559
56	-11.7574
ide	-11.7578
▁advantages	-11.7581
▁dia	-11.7585
▁safaris	-11.7585
▁distribut	-11.759
▁ski	-11.7592
▁villas	-11.7593
▁bin	-11.7596
body	-11.7599
▁wears	-11.7606
▁attraction	-11.7619
▁nerd	-11.7619
▁ranks	-11.7622
▁tshirt	-11.7623
eur	-11.7625
▁contractor	-11.7626
▁beng	-11.7626
tm	-11.7626
while	-11.7629
▁mic	-11.7632
social	-11.7634
except	-11.7635
credit	-11.7635
ceylon	-11.7637
watch	-11.7638
tch	-11.7639
▁blend	-11.7643
▁fulfill	-11.7652
▁costly	-11.7652
▁resorts	-11.7655
▁tables	-11.7658
▁observ	-11.7664
tte	-11.7667
▁firstly	-11.7672
▁recieve	-11.7675
46	-11.7679
▁shoulder	-11.7679
▁ph	-11.768
▁bankrupt	-11.7682
▁quest	-11.7683
▁assurance	-11.7683
▁attorney	-11.7683
▁categories	-11.7683
▁extensive	-11.7683
▁faculties	-11.7683
▁generic	-11.7683
▁odyssey	-11.7683
▁rabies	-11.7683
▁switzerland	-11.7683
▁transparency	-11.7683
▁dubbed	-11.7683
▁tasty	-11.7683
▁finasteride	-11.7683
▁intrigu	-11.7683
▁appreciating	-11.7683
▁heaven	-11.7683
▁specified	-11.7683
▁italian	-11.7683
▁curries	-11.7683
▁iconic	-11.7683
▁iptv	-11.7683
▁hindi	-11.7683
▁wrapped	-11.7683
▁yamaha	-11.7683
▁harini	-11.7683
▁objective	-11.7683
▁sensor	-11.7683
▁distribution	-11.7683
▁frozen	-11.7684
▁hometown	-11.7684
▁loq	-11.7684
▁knock	-11.7684
▁limitations	-11.7685
▁combat	-11.7685
▁sketchy	-11.7686
▁lore	-11.7686
▁whitening	-11.7686
▁healthier	-11.7687
▁dirt	-11.7687
▁boutique	-11.7688
▁midigama	-11.7688
▁authenticity	-11.7689
▁strengthen	-11.7689
▁marxist	-11.769
▁supervisor	-11.769
▁punch	-11.769
▁rider	-11.7691
▁mali	-11.7693
▁installation	-11.7693
▁rally	-11.7693
▁dna	-11.7696
▁inquired	-11.7696
▁judgement	-11.7696
▁supplies	-11.7697
▁vice	-11.7698
ology	-11.7699
chandra	-11.7702
▁eaten	-11.7703
▁walks	-11.7704
older	-11.7707
hood	-11.7713
▁sponsored	-11.7713
ji	-11.7715
had	-11.7715
▁messy	-11.7716
▁coping	-11.7717
onic	-11.7724
▁pte	-11.7724
▁disclose	-11.7726
▁paye	-11.7727
▁sue	-11.7729
▁04	-11.773
▁performed	-11.7735
▁appealing	-11.7735
▁backend	-11.7735
road	-11.7741
▁believes	-11.7743
▁pg	-11.7746
▁supposedly	-11.7747
▁forums	-11.7748
ony	-11.775
▁launching	-11.775
▁43	-11.7752
▁organisations	-11.7763
▁thinkpad	-11.7767
▁sooner	-11.7785
▁existed	-11.779
▁tracks	-11.7791
iness	-11.7796
▁(21	-11.7804
▁sums	-11.7806
▁cow	-11.7807
▁cb	-11.7811
▁reli	-11.7818
▁pulling	-11.7819
▁respected	-11.782
▁5-	-11.783
▁humans	-11.7834
tis	-11.7858
hiru	-11.7862
▁remembers	-11.7871
▁chart	-11.7871
▁6:	-11.7873
▁pockets	-11.7874
▁socialize	-11.7879
▁nah	-11.788
▁meets	-11.7899
▁matching	-11.7906
▁halls	-11.7909
▁bath	-11.7915
▁vid	-11.7916
▁approaching	-11.7917
▁cur	-11.7921
ened	-11.7924
▁indicate	-11.7932
▁flavor	-11.7943
proving	-11.7947
▁uncles	-11.7948
▁scare	-11.7952
via	-11.7956
aga	-11.7956
▁margin	-11.796
▁essay	-11.796
▁tyre	-11.7962
▁conductor	-11.7963
born	-11.797
▁increases	-11.7971
▁sam	-11.7972
put	-11.7973
probably	-11.798
doctor	-11.798
university	-11.798
cheap	-11.798
green	-11.798
bell	-11.7981
▁parliamentar	-11.7984
▁wat	-11.7985
▁journalist	-11.7987
ites	-11.7989
▁swap	-11.7989
zone	-11.7991
atta	-11.7994
▁secur	-11.7996
▁ros	-11.8
dea	-11.8003
▁hindus	-11.8004
bro	-11.8005
▁(22	-11.8008
founder	-11.801
77	-11.8017
▁aired	-11.8017
▁curse	-11.8017
▁dept	-11.8027
▁cellular	-11.8027
▁contributing	-11.8027
▁controversy	-11.8027
▁etiquette	-11.8027
▁futsal	-11.8027
▁gynecologist	-11.8027
▁ignorant	-11.8027
▁karaoke	-11.8027
▁mechanism	-11.8027
▁necessarily	-11.8027
▁palestinian	-11.8027
▁premises	-11.8027
▁qualities	-11.8027
▁redeem	-11.8027
▁reducing	-11.8027
▁refrigerator	-11.8027
▁toronto	-11.8027
▁bikini	-11.8027
▁irrelevant	-11.8027
▁pvr	-11.8027
▁queen	-11.8027
▁videographer	-11.8027
▁unrealistic	-11.8027
▁attire	-11.8027
▁flair	-11.8028
▁bankruptcy	-11.8028
▁quantity	-11.8028
▁misinformation	-11.8028
▁waterproof	-11.8028
▁textbooks	-11.8028
▁interrupt	-11.8028
▁intentionally	-11.8028
▁realistically	-11.8028
▁satisfaction	-11.803
▁ecommerce	-11.803
▁naive	-11.8031
▁crystal	-11.8032
▁relocat	-11.8032
▁combo	-11.8032
▁grama	-11.8033
▁upcountry	-11.8033
▁burnt	-11.8035
▁downloads	-11.8035
▁slap	-11.8037
▁taller	-11.8037
▁bash	-11.8038
▁retired	-11.8043
▁continues	-11.8044
▁instantly	-11.8044
▁observed	-11.8045
▁inspection	-11.8046
▁ditch	-11.8047
▁dealer	-11.8048
▁disappeared	-11.8048
▁ridiculously	-11.8049
▁resigned	-11.805
▁05	-11.805
▁crashed	-11.805
▁7:	-11.8052
▁storm	-11.8052
▁achievements	-11.8055
▁cid	-11.8056
▁fathers	-11.8059
08	-11.8061
▁checkup	-11.8061
▁shaped	-11.8066
▁30,000	-11.8066
▁lastly	-11.8068
udu	-11.8069
▁tied	-11.8069
▁jumped	-11.8069
▁rail	-11.8071
▁raped	-11.8074
▁125	-11.8076
▁1%	-11.8076
▁vis	-11.8081
▁nurses	-11.8085
▁(27	-11.8088
▁cater	-11.8091
▁struggled	-11.8092
▁restart	-11.8093
▁headaches	-11.8111
▁cu	-11.8112
thanks	-11.8112
▁eur	-11.8115
▁converted	-11.8115
▁collected	-11.8116
▁stats	-11.8116
▁turtles	-11.8118
▁certainly	-11.812
▁hopeful	-11.8123
▁lifetime	-11.8128
▁writers	-11.8132
ghz	-11.8133
▁protecting	-11.8137
▁drops	-11.8138
▁maintained	-11.8138
▁contains	-11.8139
▁sized	-11.8142
92	-11.8143
west	-11.8147
▁deck	-11.8152
pet	-11.8156
▁bugs	-11.8158
log	-11.8162
▁reside	-11.8164
▁dine	-11.8166
▁smartphones	-11.817
▁sltc	-11.8174
▁cent	-11.8178
▁aug	-11.8185
▁brit	-11.8185
nut	-11.819
und	-11.8195
3%	-11.8195
too	-11.82
ulla	-11.82
▁nila	-11.82
▁ot	-11.8212
▁shave	-11.8225
▁paris	-11.8251
87	-11.8256
▁(8	-11.8256
▁reconnect	-11.826
tax	-11.8274
▁birds	-11.8278
▁oppos	-11.828
▁phy	-11.8287
iva	-11.8292
▁dies	-11.8296
▁headed	-11.8308
unk	-11.8308
▁checks	-11.8314
▁140	-11.8317
▁professor	-11.8317
▁centres	-11.8317
▁earbud	-11.8319
▁prediction	-11.8319
▁instructor	-11.8323
▁dynamic	-11.8327
▁tracker	-11.8329
word	-11.8334
bound	-11.8336
▁workshop	-11.8337
business	-11.8337
sliit	-11.8337
▁wc	-11.8338
brand	-11.8338
block	-11.8342
▁actor	-11.8342
▁asset	-11.8354
par	-11.8354
▁aged	-11.8358
-7	-11.8359
dj	-11.8361
▁elect	-11.8365
▁24-	-11.8365
▁restrict	-11.8366
▁:/	-11.8367
clear	-11.8367
▁wax	-11.8369
eta	-11.8372
▁backgrounds	-11.8375
▁surprising	-11.8378
▁alleged	-11.8378
▁sneak	-11.8379
idk	-11.838
▁respective	-11.8384
▁gorgeous	-11.8385
▁multiplayer	-11.8385
▁ottawa	-11.8385
▁rainforest	-11.8385
▁residency	-11.8385
▁strategic	-11.8385
▁unaware	-11.8385
▁unprofessional	-11.8385
▁yogurt	-11.8385
▁draft	-11.8385
▁steel	-11.8385
▁helakuru	-11.8385
▁mannar	-11.8385
▁hilton	-11.8385
▁tasting	-11.8385
▁applies	-11.8385
▁participants	-11.8385
▁ruling	-11.8385
▁stain	-11.8385
▁consultancy	-11.8385
▁mystery	-11.8385
▁dolby	-11.8385
▁disney	-11.8385
▁cancellation	-11.8385
▁distress	-11.8385
▁joking	-11.8385
▁wellawatta	-11.8385
▁unacceptable	-11.8385
▁photocopy	-11.8385
path	-11.8385
▁rack	-11.8385
▁gemini	-11.8385
▁batting	-11.8386
▁mutt	-11.8387
▁skinned	-11.8387
▁lowkey	-11.8387
▁integration	-11.8388
▁10-12	-11.8388
▁genie	-11.8389
▁glow	-11.8389
▁upvote	-11.8389
▁arches	-11.8391
▁geek	-11.8391
▁wholesome	-11.8391
▁cylinder	-11.8391
▁millionaire	-11.8391
cm	-11.8391
▁enable	-11.8391
▁2012	-11.8394
▁nationalism	-11.8395
▁scolded	-11.8396
▁roller	-11.8396
▁pidurangala	-11.8396
▁spelling	-11.8396
▁highland	-11.8397
▁kotte	-11.8397
▁comeback	-11.8398
pot	-11.8398
▁roommate	-11.8399
▁debat	-11.8399
▁manageable	-11.8407
▁ez	-11.8411
▁annually	-11.8413
▁kindness	-11.8413
48	-11.8417
▁techniques	-11.842
▁consulted	-11.8421
laws	-11.8423
▁lego	-11.8424
98	-11.8426
▁screaming	-11.8428
94	-11.8428
tec	-11.843
lly	-11.8434
▁influenced	-11.8436
▁hundreds	-11.8437
▁85	-11.8441
▁inspiration	-11.8442
▁ranking	-11.8444
▁fingerprints	-11.8444
▁usdt	-11.8451
▁upi	-11.8457
▁teledramas	-11.8459
▁jobless	-11.8459
▁diya	-11.8462
▁medicines	-11.8462
▁clay	-11.8471
▁bitch	-11.8482
▁modules	-11.8486
▁fines	-11.8488
▁shorter	-11.8488
▁macbooks	-11.8492
▁accountants	-11.8495
▁backup	-11.8498
▁encounters	-11.8503
▁rajapakshas	-11.851
ou	-11.8511
7%	-11.8511
polar	-11.8513
##	-11.8519
▁vers	-11.8525
▁advisors	-11.8527
▁logos	-11.853
▁friendships	-11.8535
▁4-	-11.8536
▁heyy	-11.8538
▁cares	-11.8539
yu	-11.8541
ishing	-11.8542
▁finals	-11.8546
▁hii	-11.8548
++	-11.8549
▁tier	-11.8556
▁teache	-11.8558
▁uda	-11.8567
gbp	-11.8567
wear	-11.8568
▁compete	-11.8568
▁2023,	-11.8574
▁agreements	-11.8574
-12	-11.8581
▁pathways	-11.8586
▁et	-11.8588
▁forms	-11.8588
kala	-11.8591
▁atms	-11.8591
▁insider	-11.8599
▁outdoors	-11.8604
▁theft	-11.8604
▁revolution	-11.8607
▁flu	-11.8611
▁author	-11.8612
sure	-11.8612
39	-11.8615
ek	-11.8624
▁nationalist	-11.8627
▁damages	-11.8642
▁forum	-11.8645
ification	-11.8662
▁pcb	-11.8665
▁expire	-11.8677
▁beds	-11.8685
▁technician	-11.8687
▁vitamin	-11.8687
▁suitcase	-11.8688
▁disadvantage	-11.8688
▁coworker	-11.8688
▁honor	-11.8689
▁supplier	-11.869
▁gut	-11.8691
▁planner	-11.8692
▁vegetable	-11.8697
▁toilet	-11.8699
wheel	-11.8701
▁showcase	-11.8702
▁expectation	-11.8703
stock	-11.8707
approved	-11.8707
government	-11.8707
physical	-11.8707
family	-11.8707
science	-11.8707
april	-11.8707
nat	-11.8707
wife	-11.8708
cafe	-11.8708
human	-11.8709
▁blast	-11.8711
▁nil	-11.8714
next	-11.8716
▁alevel	-11.8718
▁mit	-11.872
42	-11.8728
▁cul	-11.8728
ene	-11.8729
track	-11.8731
▁38	-11.8735
zzy	-11.8742
▁dragg	-11.8744
▁determine	-11.8744
▁maker	-11.8746
▁unfortunate	-11.8749
▁retire	-11.8749
▁wrap	-11.8755
▁distant	-11.8755
▁fonseka	-11.8755
▁glomark	-11.8755
▁kataragama	-11.8755
▁mazda	-11.8755
▁philippines	-11.8755
▁poverty	-11.8755
▁reckless	-11.8755
▁thieves	-11.8755
▁unreasonable	-11.8755
▁welfare	-11.8755
▁hygiene	-11.8755
▁mortgage	-11.8755
▁rmv	-11.8755
▁turkey	-11.8755
▁zlt	-11.8755
▁botanic	-11.8755
▁wasantha	-11.8755
▁carbon	-11.8755
▁boast	-11.8755
▁beloved	-11.8755
▁counselling	-11.8755
▁hurry	-11.8755
▁finland	-11.8755
▁regulator	-11.8755
▁vijaya	-11.8755
▁governance	-11.8755
▁kegalle	-11.8755
▁delusional	-11.8755
▁delhi	-11.8756
▁redirect	-11.8756
▁terminate	-11.8756
▁spanish	-11.8756
▁wordpress	-11.8756
▁scent	-11.8756
▁patches	-11.8756
▁antique	-11.8756
▁tire	-11.8756
▁betting	-11.8757
▁nutrition	-11.8757
fs	-11.8757
▁define	-11.8758
▁rope	-11.8758
▁variant	-11.8758
▁worthwhile	-11.8759
▁beachfront	-11.8759
▁structural	-11.876
tia	-11.8761
▁snow	-11.8761
▁updating	-11.8762
iest	-11.8762
▁postponed	-11.8763
▁orthopedi	-11.8764
▁fitting	-11.8764
jo	-11.8767
▁bodies	-11.8767
▁economically	-11.8768
roll	-11.8769
▁impressed	-11.8769
▁surprisingly	-11.877
hara	-11.8774
▁noticeable	-11.8775
▁gallery	-11.8775
▁workforce	-11.8776
▁offended	-11.8777
▁shipment	-11.8778
org	-11.8778
▁alarming	-11.8779
▁depth	-11.8779
▁operated	-11.8781
▁addresses	-11.8787
▁campuses	-11.8787
og	-11.8789
▁taxation	-11.8791
▁1.2	-11.8791
cover	-11.8791
▁grooming	-11.8793
▁melt	-11.8794
▁oily	-11.8794
head	-11.8796
▁adopted	-11.8797
▁bake	-11.8799
▁ghosted	-11.8799
uch	-11.88
▁soldiers	-11.8802
▁shine	-11.8802
▁getaway	-11.8804
▁unlocked	-11.8805
▁washed	-11.8814
nds	-11.8816
▁xx	-11.8818
▁expires	-11.8822
▁upgraded	-11.8823
▁ven	-11.8826
▁journalists	-11.8827
▁bu	-11.8829
cash	-11.8831
nic	-11.8835
vin	-11.8836
▁lied	-11.8837
▁volunteering	-11.8842
▁paintings	-11.8845
▁initiatives	-11.8847
▁bas	-11.8851
▁coconuts	-11.8852
▁boots	-11.8857
▁presentation	-11.8862
▁oppose	-11.8864
▁districts	-11.8864
▁ward	-11.887
▁colleges	-11.8873
edge	-11.8878
ature	-11.8879
▁lin	-11.888
49	-11.8882
▁responding	-11.8884
▁rats	-11.8888
▁shifting	-11.8894
▁gpus	-11.8898
▁caring	-11.89
set	-11.8904
ott	-11.8916
▁md	-11.8919
rant	-11.8934
▁mat	-11.8935
tag	-11.8943
add	-11.8946
▁intentions	-11.8949
mic	-11.896
ban	-11.8963
▁arms	-11.8965
▁attitudes	-11.897
ologist	-11.8973
▁roman	-11.9002
bt	-11.9009
▁surgeons	-11.9024
ata	-11.9032
md	-11.9042
▁dc	-11.9043
▁chi	-11.9044
▁4:	-11.9044
▁1990	-11.9052
▁vac	-11.9058
ition	-11.9067
▁occur	-11.9072
▁migrant	-11.9072
▁tale	-11.9072
▁observation	-11.9073
▁calorie	-11.9073
▁sibling	-11.9074
▁theater	-11.9075
col	-11.9077
enter	-11.9081
85	-11.9083
range	-11.9084
specially	-11.9087
▁10000	-11.9089
market	-11.909
weligama	-11.9092
mainly	-11.9092
before	-11.9092
group	-11.9092
student	-11.9092
female	-11.9092
speed	-11.9092
gmail	-11.9094
▁annoy	-11.9095
▁mock	-11.9095
jaya	-11.9096
▁addressing	-11.9098
▁rome	-11.91
stick	-11.9101
clubs	-11.9103
▁liver	-11.9104
▁errors	-11.9108
dog	-11.911
34	-11.9111
sales	-11.9111
usa	-11.9112
▁harass	-11.9121
▁imagin	-11.9124
▁dl	-11.9128
▁possess	-11.9131
▁contest	-11.9133
▁approximate	-11.9133
▁batter	-11.9134
shorts	-11.9135
anna	-11.9136
38	-11.9136
▁disagree	-11.9137
ography	-11.9138
▁entertain	-11.9139
maker	-11.9139
▁alphabet	-11.9139
▁brunch	-11.9139
▁conservation	-11.9139
▁descent	-11.9139
▁dessert	-11.9139
▁disclaimer	-11.9139
▁dispute	-11.9139
▁durability	-11.9139
▁gradually	-11.9139
▁luxurious	-11.9139
▁nishantha	-11.9139
▁pardon	-11.9139
▁platinum	-11.9139
▁pregnancy	-11.9139
▁questionnaire	-11.9139
▁ritalin	-11.9139
▁saturated	-11.9139
▁serene	-11.9139
▁settling	-11.9139
▁significance	-11.9139
▁straightforward	-11.9139
▁toastmasters	-11.9139
▁transparent	-11.9139
▁tunnel	-11.9139
▁mosque	-11.914
▁dunhill	-11.914
▁altair	-11.914
▁gdp	-11.914
▁participating	-11.914
▁deactivate	-11.914
▁sedan	-11.914
▁telephone	-11.914
▁humor	-11.914
▁timetable	-11.914
▁glassdoor	-11.914
▁alterations	-11.914
▁marissa	-11.914
▁gentleman	-11.914
▁cliq	-11.914
▁:')	-11.914
▁theories	-11.914
▁ragama	-11.914
▁caption	-11.914
▁nadu	-11.9141
▁priorities	-11.9141
▁surfboard	-11.9141
▁broad	-11.9141
▁grave	-11.9141
▁exploitation	-11.9141
▁trace	-11.9141
▁99%	-11.9142
▁rubber	-11.9142
▁cancelling	-11.9142
▁sacr	-11.9142
▁greet	-11.9142
▁bandara	-11.9142
▁rust	-11.9142
▁academically	-11.9143
▁130	-11.9143
97	-11.9143
▁governor	-11.9143
▁poker	-11.9143
▁intelligent	-11.9144
▁infant	-11.9144
▁2013	-11.9145
▁crib	-11.9147
▁ramen	-11.9147
▁cult	-11.9147
talk	-11.9148
▁mask	-11.9148
▁servants	-11.9149
▁arise	-11.9152
▁conscious	-11.9152
▁determined	-11.9154
▁declared	-11.9155
▁homies	-11.9157
▁precautions	-11.9157
▁psychiatrists	-11.9157
▁motion	-11.9161
▁nationality	-11.9161
fit	-11.9162
▁alcoholic	-11.9163
▁peacefully	-11.9163
▁dam	-11.9164
▁cure	-11.9167
▁slang	-11.9168
▁thesis	-11.9171
72	-11.9172
▁privileged	-11.9173
▁shore	-11.9175
▁souvenirs	-11.9175
ina	-11.9175
max	-11.9176
▁topup	-11.9176
▁workarounds	-11.9183
ister	-11.9188
ced	-11.9192
▁laying	-11.9196
▁val	-11.9197
▁remittances	-11.9201
▁discounted	-11.9203
▁06	-11.9205
▁considerations	-11.9207
▁mild	-11.9209
▁backpacker	-11.9209
▁actors	-11.9215
▁350	-11.9215
haul	-11.9216
▁fired	-11.9216
▁ut	-11.9221
hong	-11.9222
▁styles	-11.9225
▁moms	-11.9226
▁parenting	-11.9244
▁torrents	-11.9246
▁palm	-11.925
▁clo	-11.9251
▁wheels	-11.926
▁branding	-11.9269
▁scientists	-11.927
▁ratio	-11.927
▁delivering	-11.9276
▁celebrations	-11.9281
omi	-11.9283
▁joe	-11.9288
▁sons	-11.9294
▁bone	-11.9299
news	-11.9299
▁bal	-11.9309
▁israelis	-11.9315
▁carriers	-11.9318
oa	-11.9318
▁modifie	-11.9321
▁accus	-11.9333
nam	-11.9344
▁roots	-11.9354
64	-11.9355
999	-11.9356
▁starter	-11.9356
▁brid	-11.9359
trad	-11.9362
▁happend	-11.9364
▁](	-11.9367
▁sheer	-11.9375
▁450	-11.9376
▁chilling	-11.9377
▁lasting	-11.9381
▁meters	-11.9382
▁troubles	-11.9387
islamic	-11.9389
▁accents	-11.9392
▁profiles	-11.9392
▁undergrads	-11.9395
ros	-11.9399
82	-11.94
▁eras	-11.9401
▁exception	-11.9402
▁walls	-11.9403
oom	-11.9422
▁tie	-11.9437
gin	-11.9442
▁cloth	-11.9447
ole	-11.9451
▁craft	-11.9455
▁analysts	-11.9464
▁leopard	-11.9472
▁nurse	-11.9473
▁4000	-11.9474
▁chilli	-11.9475
▁fingerprint	-11.9476
load	-11.9477
lets	-11.9479
think	-11.9484
jj	-11.9485
foreign	-11.9486
▁consideration	-11.9486
▁editor	-11.9486
▁googled	-11.9488
turn	-11.949
economic	-11.9492
water	-11.9492
international	-11.9492
ticket	-11.9492
canada	-11.9492
small	-11.9493
final	-11.9494
▁threaten	-11.9498
cannot	-11.9499
▁workplaces	-11.9507
▁lamp	-11.9509
▁wander	-11.9512
these	-11.9523
▁es	-11.953
▁fade	-11.9531
personal	-11.9531
▁guilt	-11.9534
▁blank	-11.9537
fest	-11.9538
ona	-11.9538
▁terror	-11.9538
▁aerospace	-11.9539
▁alternate	-11.9539
▁balcony	-11.9539
▁ceylinco	-11.9539
▁consulate	-11.9539
▁credible	-11.9539
▁eczema	-11.9539
▁eligibility	-11.9539
▁encouraging	-11.9539
▁evaluation	-11.9539
▁expiry	-11.9539
▁flexibility	-11.9539
▁folklore	-11.9539
▁frequency	-11.9539
▁googling	-11.9539
▁knife	-11.9539
▁mawatha	-11.9539
▁minneriya	-11.9539
▁queries	-11.9539
▁substance	-11.9539
▁temporarily	-11.9539
▁thriving	-11.9539
▁tragedy	-11.9539
▁unbiased	-11.9539
▁belarus	-11.954
▁invalid	-11.954
▁hectic	-11.954
▁udawalawa	-11.954
▁robotics	-11.954
masterchef	-11.954
▁buzz	-11.954
▁breed	-11.954
▁naked	-11.954
▁noob	-11.954
▁narcissistic	-11.954
▁drastically	-11.954
▁gross	-11.954
ject	-11.954
▁ceiling	-11.954
▁herbal	-11.954
▁globe	-11.954
▁golf	-11.954
▁precious	-11.954
▁liking	-11.954
▁refresh	-11.954
▁deriv	-11.954
▁racing	-11.954
▁junk	-11.954
▁blackmail	-11.954
▁ideology	-11.954
▁pirate	-11.954
▁moir	-11.9541
▁hbb	-11.9541
▁fedex	-11.9541
▁overcrowded	-11.9541
▁misplaced	-11.9541
▁wrist	-11.9541
▁automated	-11.9542
▁purse	-11.9542
▁piliyandala	-11.9543
▁pronunciation	-11.9543
▁southwest	-11.9543
▁lads	-11.9543
▁kong	-11.9543
▁twin	-11.9543
▁deny	-11.9543
▁attachment	-11.9544
▁downfall	-11.9544
▁zoo	-11.9544
▁paperwork	-11.9544
▁compatible	-11.9545
atory	-11.9545
▁exhibition	-11.9545
▁wickramasinghe	-11.9545
▁roadside	-11.9545
▁awake	-11.9547
▁kcc	-11.9547
▁blockchain	-11.9548
▁koombiyo	-11.9548
▁referral	-11.9549
▁spar	-11.9549
kada	-11.955
rail	-11.9552
▁disregard	-11.9553
▁normalized	-11.9553
▁tenant	-11.9553
▁reportedly	-11.9555
▁tackle	-11.9556
▁specialization	-11.9556
▁browser	-11.9557
▁eh	-11.9558
▁newswire	-11.9558
▁confronted	-11.9561
▁slave	-11.9564
graph	-11.9564
location	-11.9564
ache	-11.9564
nayake	-11.9565
▁reccomendations	-11.9566
▁flirting	-11.9566
▁pest	-11.9566
▁partying	-11.9567
cse	-11.9567
▁wired	-11.9567
▁champions	-11.9568
▁guaranteed	-11.9568
▁pillows	-11.9571
▁sealed	-11.9571
▁alter	-11.9575
▁productive	-11.9579
▁weapons	-11.9579
mr	-11.9579
▁teachings	-11.9591
▁uploaded	-11.9597
▁shouting	-11.9597
boys	-11.9597
▁node	-11.9609
▁transitioning	-11.9614
▁tolerate	-11.9621
▁wisely	-11.9622
▁notified	-11.9623
▁slots	-11.9623
▁hills	-11.9625
▁professionally	-11.9636
▁pit	-11.9636
▁stalls	-11.9637
350	-11.9643
▁tasted	-11.9648
▁tears	-11.9648
boy	-11.9659
▁hy	-11.966
▁inputs	-11.967
▁questionable	-11.9672
leg	-11.9672
04	-11.9673
▁oled	-11.968
▁labels	-11.968
▁fragrances	-11.9681
▁loo	-11.9686
▁presented	-11.9686
▁plugs	-11.9691
▁monkeys	-11.9695
▁combinations	-11.9698
▁receipts	-11.9698
▁balanced	-11.9699
waka	-11.9708
▁refunded	-11.9711
▁suspects	-11.9712
66	-11.9718
▁cables	-11.972
▁thr	-11.9721
ipped	-11.9722
▁stressing	-11.9728
▁conflicts	-11.9734
▁directors	-11.9737
!).	-11.9742
ora	-11.9747
▁polls	-11.9749
▁researcher	-11.9754
ads	-11.9755
▁bn	-11.9758
▁pra	-11.9763
▁pens	-11.9766
▁comm	-11.9769
▁seating	-11.9771
▁42	-11.9775
▁accelerat	-11.9778
anning	-11.9783
▁shr	-11.9784
▁gateways	-11.9789
tone	-11.9791
▁37	-11.9798
nz	-11.9799
pola	-11.9802
▁essentials	-11.9806
▁30-	-11.9818
▁schooling	-11.9819
▁eli	-11.983
▁backpacks	-11.9831
▁seeming	-11.9835
▁reco	-11.9837
friend	-11.9838
▁boom	-11.9841
▁threads	-11.9842
▁controls	-11.9844
sex	-11.9845
▁inability	-11.9847
▁avoided	-11.9858
▁warnings	-11.9858
villa	-11.9866
▁yu	-11.9886
▁buffets	-11.9886
▁contribution	-11.9889
▁helmet	-11.9889
▁asshole	-11.989
▁remittance	-11.9897
▁lee	-11.9902
▁sch	-11.9904
script	-11.9908
australia	-11.9908
budget	-11.9908
fall	-11.9909
intern	-11.9913
pick	-11.9915
base	-11.9916
▁8-	-11.9916
july	-11.9919
party	-11.992
tips	-11.9921
▁rog	-11.9922
▁cruise	-11.9924
lifting	-11.9925
etf	-11.9926
▁flirt	-11.9928
▁modeling	-11.9931
rap	-11.9938
clean	-11.994
scale	-11.9943
dani	-11.9951
▁dp	-11.9952
▁hung	-11.9952
▁assess	-11.9954
▁arpico	-11.9956
▁blatant	-11.9956
▁concrete	-11.9956
▁corolla	-11.9956
▁curricular	-11.9956
▁dehiwela	-11.9956
▁dignity	-11.9956
▁explicit	-11.9956
▁fantastic	-11.9956
▁happily	-11.9956
▁innovex	-11.9956
▁kaduwela	-11.9956
▁kalpitiya	-11.9956
▁katunayake	-11.9956
▁literacy	-11.9956
▁logitech	-11.9956
▁physiotherapist	-11.9956
▁pigeon	-11.9956
▁prestigious	-11.9956
▁reluctant	-11.9956
▁transgender	-11.9956
▁ukraine	-11.9956
▁unwanted	-11.9956
▁wardrobe	-11.9956
▁admire	-11.9956
▁eight	-11.9956
▁thrift	-11.9956
▁ambuluwawa	-11.9956
▁unstable	-11.9956
metropolitan	-11.9956
▁alpha	-11.9956
▁coincidence	-11.9956
▁psychological	-11.9956
▁assured	-11.9956
▁blok	-11.9956
▁technological	-11.9956
▁corporation	-11.9956
▁serial	-11.9956
▁loophole	-11.9956
▁worries	-11.9956
▁bmich	-11.9956
▁gamage	-11.9956
▁nuwan	-11.9956
▁mtfe	-11.9957
▁vaping	-11.9957
▁chili	-11.9957
▁invade	-11.9957
cpex	-11.9957
▁declare	-11.9957
▁wives	-11.9957
▁nfc	-11.9958
▁tution	-11.9958
▁dumbass	-11.9958
▁dick	-11.9959
▁manipulation	-11.9959
▁lime	-11.9959
▁classroom	-11.9959
▁beaten	-11.996
▁cutoff	-11.9961
▁specifications	-11.9961
▁surgical	-11.9961
▁exchang	-11.9962
▁rapidly	-11.9962
▁diplomatic	-11.9962
▁repeatedly	-11.9962
▁existence	-11.9962
▁dino	-11.9963
▁equality	-11.9965
▁unrelated	-11.9966
▁payhere	-11.9966
▁eid	-11.9968
▁selfish	-11.9968
watte	-11.997
▁sword	-11.9971
▁dandruff	-11.9972
▁milo	-11.9972
▁banger	-11.9972
▁2005	-11.9974
▁poisoning	-11.9978
▁rapist	-11.9979
▁classical	-11.9979
np	-11.9983
▁riots	-11.9983
▁modi	-11.9985
▁begun	-11.9985
▁triggered	-11.9985
▁resolved	-11.9986
▁severely	-11.9988
▁enjoyable	-11.9989
▁thriller	-11.999
▁producers	-11.9992
▁yard	-11.9997
▁magical	-12.0002
girls	-12.0005
▁reels	-12.0006
rc	-12.0008
▁bend	-12.0011
▁separated	-12.0012
9%	-12.0012
▁homeless	-12.0012
▁bang	-12.0013
▁bound	-12.0013
▁diplomas	-12.0014
dried	-12.0015
▁celebrated	-12.0016
▁functioning	-12.0018
▁wonders	-12.0021
▁fog	-12.0021
▁enthusiastic	-12.0021
▁crossed	-12.0031
▁authors	-12.0032
▁someplace	-12.0033
▁poorly	-12.0035
▁flavors	-12.0038
▁10+	-12.0038
.5%	-12.0043
▁crown	-12.0043
▁advocat	-12.0045
8,000	-12.0047
▁tshirts	-12.0054
dri	-12.0054
acle	-12.0057
▁5+	-12.0059
▁timings	-12.0064
▁sorta	-12.0065
music	-12.0069
▁bowler	-12.0076
▁grip	-12.0078
▁literar	-12.0078
▁euros	-12.0079
asi	-12.0083
▁ships	-12.0083
▁bonds	-12.0093
▁lip	-12.0098
▁expo	-12.0101
▁readers	-12.0109
eu	-12.0114
▁landscapes	-12.0117
▁dough	-12.0124
▁ec	-12.0126
▁dub	-12.0127
tive	-12.0142
▁fc	-12.0144
fty	-12.0154
▁theatres	-12.0156
▁cad	-12.0166
ooo	-12.0172
▁6-7	-12.0181
▁parcels	-12.0182
▁targets	-12.0191
fm	-12.02
▁mono	-12.0207
hit	-12.0213
▁touching	-12.0225
▁surfer	-12.0232
naya	-12.0233
▁measure	-12.0233
000/-	-12.0235
adu	-12.0239
shin	-12.0247
▁blocks	-12.025
▁villages	-12.0251
36	-12.026
1/	-12.0264
▁kl	-12.0265
▁prints	-12.0278
▁limiting	-12.0288
real	-12.0291
▁por	-12.0293
▁strip	-12.0298
▁insult	-12.0305
▁wallets	-12.0319
▁yay	-12.032
▁occasion	-12.032
placing	-12.0321
▁exp	-12.0322
flow	-12.0322
▁buck	-12.0322
▁ect	-12.0323
▁infection	-12.0324
▁slit	-12.0324
two	-12.0326
▁thrill	-12.0327
▁shifts	-12.0334
mobile	-12.0336
▁nc	-12.0338
▁sections	-12.0339
resident	-12.0341
finance	-12.0343
muslim	-12.0343
switch	-12.0343
video	-12.0343
western	-12.0343
nothing	-12.0344
youtube	-12.0344
▁sd	-12.0346
▁hires	-12.0347
▁prop	-12.0354
bond	-12.0357
▁mala	-12.0358
▁alarm	-12.0364
tier	-12.0366
▁dh	-12.0366
ious	-12.0369
▁browse	-12.0372
sss	-12.0382
▁utter	-12.0385
2000	-12.0386
▁construct	-12.0388
▁spec	-12.0388
▁collective	-12.0389
▁sustain	-12.0389
▁chronic	-12.0391
▁chrome	-12.0391
surviving	-12.0391
▁bollywood	-12.0391
▁conspiracy	-12.0391
▁contrast	-12.0391
▁exploration	-12.0391
▁html	-12.0391
▁ladder	-12.0391
▁magistrate	-12.0391
▁miracle	-12.0391
▁nolimit	-12.0391
▁outsourcing	-12.0391
▁pohottu	-12.0391
▁seiko	-12.0391
▁slippers	-12.0391
▁stadium	-12.0391
▁substantial	-12.0391
▁tsunami	-12.0391
▁vaccination	-12.0391
▁valuation	-12.0391
▁werahera	-12.0391
▁crochet	-12.0391
▁dfcc	-12.0391
▁glitch	-12.0391
▁inferior	-12.0391
▁invoice	-12.0391
▁sourcing	-12.0391
▁brick	-12.0391
▁ecosystem	-12.0391
▁scalp	-12.0391
▁snapchat	-12.0391
▁strawberry	-12.0391
▁actress	-12.0391
▁aftermath	-12.0391
▁attested	-12.0391
▁chilaw	-12.0391
▁genius	-12.0391
▁noisy	-12.0391
▁recycling	-12.0391
▁rehabilitation	-12.0391
▁javascript	-12.0391
▁cheque	-12.0391
▁username	-12.0391
del	-12.0391
▁mentorship	-12.0391
▁introduction	-12.0391
▁firmware	-12.0391
▁minorities	-12.0392
jetwing	-12.0392
▁lube	-12.0392
▁perches	-12.0393
▁furthermore	-12.0393
▁frankly	-12.0394
▁artwork	-12.0394
▁collaboration	-12.0394
▁relaxation	-12.0395
▁baking	-12.0395
▁7-8	-12.0395
▁erpm	-12.0396
▁ubuy	-12.0397
▁distracted	-12.0397
▁humidity	-12.0397
▁utterly	-12.0398
▁pcos	-12.0398
▁adequate	-12.0399
▁handsome	-12.0399
ode	-12.0399
▁sets	-12.0399
▁journeys	-12.04
▁bitten	-12.0401
▁coursework	-12.0402
250	-12.0402
▁politely	-12.0402
▁donor	-12.0404
/5	-12.0404
▁sail	-12.0405
lysis	-12.0405
▁fluently	-12.0406
▁||	-12.0409
▁imei	-12.041
▁harassed	-12.0411
▁recieved	-12.0411
▁blazer	-12.0413
▁salad	-12.0414
▁1.3	-12.0414
▁reflection	-12.0417
▁pearl	-12.0423
▁upfront	-12.0423
dev	-12.0424
▁farmers	-12.0424
▁desi	-12.0425
▁highlighted	-12.0426
▁recruiters	-12.0427
▁damm	-12.0427
▁mushrooms	-12.0428
▁labeled	-12.0431
▁alto	-12.0432
game	-12.0433
▁pace	-12.0435
▁horoscopes	-12.0437
▁benz	-12.0438
▁outfits	-12.044
▁tube	-12.0441
ung	-12.045
▁embrace	-12.0452
▁establishments	-12.0452
▁phrases	-12.0453
his	-12.0454
▁sco	-12.0455
▁frameworks	-12.0455
▁olympics	-12.0455
▁rev	-12.046
▁corn	-12.0463
▁sep	-12.047
inc	-12.0473
▁dynamics	-12.0473
▁workshops	-12.0473
▁rankings	-12.0473
ct	-12.0473
sexual	-12.0474
93	-12.0475
▁gains	-12.0479
▁understands	-12.0489
▁incorrect	-12.0492
▁bots	-12.0493
▁misuse	-12.0499
▁recordings	-12.05
pass	-12.0502
▁mfs	-12.0504
▁overtime	-12.0506
▁advertisements	-12.0512
▁dar	-12.0518
▁meta	-12.0518
▁marketers	-12.0519
ifying	-12.0521
trip	-12.0523
vy	-12.0528
vert	-12.0531
▁sundays	-12.0534
▁sud	-12.0537
▁pads	-12.0539
▁deeds	-12.054
nia	-12.0542
▁romania	-12.055
▁barbers	-12.0551
▁workouts	-12.0552
▁cared	-12.0564
▁doubting	-12.0565
▁asf	-12.0568
▁operates	-12.057
▁frames	-12.0579
▁cli	-12.058
▁farms	-12.0582
▁monitoring	-12.0589
eez	-12.059
▁ichem	-12.0594
▁curl	-12.0606
▁asiri	-12.0607
▁layer	-12.0613
▁sala	-12.0613
▁veg	-12.0614
▁corrected	-12.0616
▁routines	-12.0621
cd	-12.0623
▁signing	-12.0623
▁nay	-12.0624
▁aia	-12.0635
▁yea	-12.0647
▁subscriptions	-12.0654
▁motorbikes	-12.0654
hard	-12.0655
3000	-12.0657
oya	-12.0659
▁whatnot	-12.0659
▁pops	-12.0669
▁emailed	-12.0671
3|	-12.069
lash	-12.0692
▁dadd	-12.0699
naka	-12.0699
weera	-12.0699
▁holdings	-12.07
-6	-12.071
(20	-12.0714
▁computers	-12.0717
▁massages	-12.0724
▁crowds	-12.0729
bike	-12.0735
▁39	-12.0735
▁lag	-12.074
▁sal	-12.0751
aw	-12.0754
▁soda	-12.0756
▁8000	-12.0758
▁frown	-12.0759
▁schedules	-12.0761
▁mrs	-12.0766
gard	-12.0774
▁mechanic	-12.0775
▁hamper	-12.0778
▁garment	-12.0778
▁olympic	-12.0779
▁winner	-12.0779
▁hundred	-12.0779
▁string	-12.0779
▁biscuit	-12.0779
▁thousand	-12.0779
▁framework	-12.078
▁touring	-12.078
▁newspaper	-12.0781
▁mate	-12.0785
lea	-12.0787
▁ul	-12.0787
logical	-12.0792
peak	-12.0796
▁(16	-12.0797
▁cheer	-12.0797
minute	-12.0798
academic	-12.0798
sigiriya	-12.0798
writing	-12.0798
website	-12.0798
movie	-12.0798
speaking	-12.0798
middle	-12.0798
▁grant	-12.0798
yeah	-12.0798
space	-12.0799
▁bothers	-12.08
driven	-12.0801
1.5	-12.0816
mail	-12.0819
▁chew	-12.082
▁bur	-12.0822
lage	-12.0823
atu	-12.0825
▁relocate	-12.0826
▁pump	-12.0828
driver	-12.0828
▁wheeler	-12.0829
▁impress	-12.0832
price	-12.0832
▁14-	-12.0833
▁criticize	-12.0834
▁initiate	-12.0834
▁clearing	-12.0834
fire	-12.0835
/10	-12.0836
kw	-12.0836
▁devi	-12.0836
▁judgment	-12.0841
▁utilit	-12.0845
▁stigma	-12.0845
majestic	-12.0845
thyroid	-12.0845
▁adventurous	-12.0845
▁algorithm	-12.0845
▁altogether	-12.0845
▁assumption	-12.0845
▁astrologer	-12.0845
▁audacity	-12.0845
▁bedfordshire	-12.0845
▁ergonomic	-12.0845
▁fascinating	-12.0845
▁frimi	-12.0845
▁homophobic	-12.0845
▁ignorance	-12.0845
▁jordan	-12.0845
▁occupation	-12.0845
▁pharmaceutical	-12.0845
▁pharmacist	-12.0845
▁phenomenon	-12.0845
▁ramayana	-12.0845
▁refugee	-12.0845
▁societal	-12.0845
▁sysco	-12.0845
▁translating	-12.0845
▁bracelet	-12.0846
▁pasikuda	-12.0846
▁kithul	-12.0846
▁smiling	-12.0846
▁complications	-12.0846
▁proficiency	-12.0846
▁championship	-12.0846
▁drift	-12.0846
▁massacre	-12.0846
▁readily	-12.0846
▁resistance	-12.0846
▁terminal	-12.0846
▁brake	-12.0846
▁communism	-12.0846
▁glory	-12.0846
▁matale	-12.0846
▁1/2	-12.0846
▁dozen	-12.0846
▁palace	-12.0846
▁gaza	-12.0846
▁textile	-12.0846
▁irish	-12.0846
▁unhappy	-12.0846
▁copyright	-12.0847
▁blade	-12.0847
▁intro	-12.0847
▁telecom	-12.0847
▁definition	-12.0847
▁photoshop	-12.0847
▁attendance	-12.0848
kwh	-12.0848
▁showroom	-12.0849
▁lightning	-12.0849
▁broader	-12.0851
▁crop	-12.0851
▁nutritionist	-12.0851
▁avg	-12.0851
▁chats	-12.0851
▁ratmalana	-12.0851
▁unused	-12.0851
▁disgusted	-12.0852
▁unclear	-12.0852
▁completion	-12.0852
▁beast	-12.0852
▁aircraft	-12.0853
▁postpaid	-12.0854
ase	-12.0854
▁rear	-12.0854
▁5-10	-12.0855
▁inches	-12.0856
▁panda	-12.0856
▁prophet	-12.0856
▁365	-12.0858
▁uop	-12.0858
▁2011	-12.0859
▁adjustment	-12.0862
▁ultimately	-12.0863
▁fails	-12.0863
2.5	-12.0864
▁bts	-12.0864
▁enabled	-12.0866
▁rash	-12.0867
▁youngest	-12.0867
▁trc	-12.0871
▁elements	-12.0872
▁tactics	-12.0872
▁flooded	-12.0873
▁dalada	-12.0874
▁flavored	-12.0874
▁wandering	-12.0877
▁2500	-12.0879
sell	-12.0881
shark	-12.0882
▁fulfilling	-12.0884
▁sql	-12.0887
bath	-12.0887
▁fixes	-12.0888
▁stars	-12.0889
▁thala	-12.0891
▁worn	-12.0892
▁assaulted	-12.0892
▁gall	-12.0896
hala	-12.0901
▁gmail	-12.0905
▁dha	-12.0911
siri	-12.0911
▁targeted	-12.0912
▁repeated	-12.0912
▁1,000	-12.0916
▁merry	-12.0917
-3	-12.0928
▁disadvantages	-12.0929
▁2024)	-12.0929
▁coworkers	-12.0929
▁creams	-12.0931
mins	-12.0933
▁bust	-12.0934
spa	-12.0936
▁viva	-12.0937
▁coloured	-12.0938
▁contractors	-12.094
ride	-12.094
▁wh	-12.094
▁pastor	-12.094
▁longest	-12.0942
▁fortune	-12.0944
▁appeared	-12.0944
▁mcdonalds	-12.0944
▁3%	-12.0948
▁lighter	-12.0949
▁suited	-12.0953
▁(26	-12.0955
▁loading	-12.096
▁listings	-12.0973
▁highlights	-12.0988
▁handful	-12.099
rave	-12.1
▁sued	-12.1001
▁supporter	-12.1003
▁commitments	-12.1004
▁sarees	-12.101
▁camps	-12.1012
▁quotes	-12.1017
▁gin	-12.1019
liya	-12.1021
▁sheets	-12.1029
▁stamps	-12.1035
▁shortages	-12.1042
▁closely	-12.1048
▁pas	-12.1056
▁shortly	-12.1058
▁announce	-12.1059
▁consumers	-12.106
▁27-	-12.1066
91	-12.1066
▁mg	-12.1081
hale	-12.1084
▁plea	-12.1097
cat	-12.111
▁hearts	-12.113
pur	-12.1132
▁chip	-12.1134
▁bitter	-12.1145
cation	-12.1148
▁css	-12.1148
▁vets	-12.1151
47	-12.1152
▁introverts	-12.1154
uli	-12.1155
grade	-12.1156
▁wipe	-12.1157
girl	-12.1158
hey	-12.1166
▁interviewed	-12.1166
held	-12.1167
harm	-12.1167
boda	-12.1182
ones	-12.1185
▁chains	-12.1201
spot	-12.1202
▁singers	-12.1202
▁raises	-12.1207
▁---	-12.1217
ddle	-12.1221
▁:-	-12.1226
▁smoker	-12.1227
95	-12.1228
▁delivers	-12.1238
▁xl	-12.1246
drive	-12.1248
▁sama	-12.1248
▁serviced	-12.125
▁mobiles	-12.1252
▁rav	-12.1253
▁cre	-12.1253
▁neurologist	-12.1254
▁clown	-12.1254
▁magazine	-12.1254
▁beside	-12.1255
▁rumor	-12.1256
▁establishment	-12.1256
▁dragon	-12.1256
▁functional	-12.1257
▁cakes	-12.1258
lol	-12.1264
▁sigh	-12.1265
tile	-12.1266
▁uh	-12.1267
distance	-12.1274
temporary	-12.1274
whether	-12.1274
interest	-12.1275
debit	-12.1275
close	-12.1276
btw	-12.1276
trick	-12.1276
currently	-12.1277
▁contracts	-12.1278
▁exhaust	-12.1278
cuz	-12.1279
drop	-12.1281
▁rose	-12.1283
▁clouds	-12.1288
same	-12.1288
pack	-12.1289
▁accord	-12.1294
▁featur	-12.1296
page	-12.1296
▁integrat	-12.1299
1,000	-12.1302
▁attach	-12.1302
▁roam	-12.1304
▁iraj	-12.1307
▁rom	-12.131
▁combine	-12.1311
▁pasta	-12.1315
▁rub	-12.1315
▁119	-12.1316
▁rapid	-12.1316
▁potato	-12.1319
▁drastic	-12.1321
▁disgrace	-12.1321
▁abolish	-12.1322
▁absorb	-12.1322
▁acquisition	-12.1322
▁ambitious	-12.1322
▁asylum	-12.1322
▁bargain	-12.1322
▁beruwala	-12.1322
▁biotechnology	-12.1322
▁celebrity	-12.1322
▁chaotic	-12.1322
▁circulating	-12.1322
▁credentials	-12.1322
▁crocodile	-12.1322
▁devastated	-12.1322
▁empire	-12.1322
▁entitled	-12.1322
▁extracurricular	-12.1322
▁fascinate	-12.1322
▁fluency	-12.1322
▁goddamn	-12.1322
▁incompetent	-12.1322
▁lasantha	-12.1322
▁laundry	-12.1322
▁microwave	-12.1322
▁mumbai	-12.1322
▁nephew	-12.1322
▁niece	-12.1322
▁nilaveli	-12.1322
▁puppies	-12.1322
▁rooster	-12.1322
▁supremacy	-12.1322
▁terrified	-12.1322
▁threshold	-12.1322
▁vicinity	-12.1322
▁warrenty	-12.1322
ault	-12.1322
▁coupon	-12.1322
▁disguise	-12.1322
▁expedite	-12.1322
▁thumb	-12.1322
▁marlboro	-12.1322
▁monopoly	-12.1322
▁furious	-12.1322
▁concentrate	-12.1322
▁saloon	-12.1322
▁partially	-12.1322
▁indirectly	-12.1322
▁quantities	-12.1322
▁traction	-12.1322
▁dodgy	-12.1322
▁proxim	-12.1322
▁knw	-12.1322
▁enforcement	-12.1322
▁monster	-12.1322
▁examiner	-12.1322
▁motive	-12.1322
▁prevalent	-12.1322
▁excess	-12.1322
▁priest	-12.1322
▁fortress	-12.1323
▁wages	-12.1323
▁injury	-12.1323
▁taco	-12.1323
▁halt	-12.1323
▁universe	-12.1324
▁greenery	-12.1324
▁reception	-12.1324
▁ccna	-12.1324
▁perks	-12.1325
▁curve	-12.1325
▁tcl	-12.1326
▁homestay	-12.1326
▁administrati	-12.1326
▁deliveries	-12.1326
▁poson	-12.1327
▁halfway	-12.1327
▁cooling	-12.1327
▁messenger	-12.1328
▁omg	-12.1328
▁9000	-12.1329
▁sewan	-12.1329
▁chai	-12.133
▁strain	-12.1331
▁sinhale	-12.1332
▁pun	-12.1332
▁divisional	-12.1332
▁taxpayer	-12.1333
▁affiliate	-12.1333
▁dismissed	-12.1333
▁usaid	-12.1333
▁mindful	-12.1336
▁newborn	-12.1337
ranging	-12.1337
kara	-12.1339
▁ashen	-12.1339
▁praise	-12.1339
▁dhamma	-12.134
▁deductions	-12.1347
▁reselling	-12.1347
▁losses	-12.1347
fd	-12.1348
▁solving	-12.1349
▁metro	-12.1349
▁caa	-12.135
▁cou	-12.1351
crisp	-12.1354
▁pointless	-12.1355
drew	-12.1355
▁county	-12.1357
▁notebook	-12.136
▁cough	-12.1364
▁myths	-12.1366
▁3-5	-12.1368
▁moor	-12.1369
▁shoulders	-12.1369
▁contributed	-12.1374
▁immigrants	-12.1376
▁grading	-12.1377
▁30+	-12.1378
▁socio	-12.138
▁miles	-12.138
▁structured	-12.138
▁protector	-12.1382
▁judged	-12.1384
▁sse	-12.1385
▁spiders	-12.1386
sir	-12.1387
▁analog	-12.1389
▁bday	-12.139
▁kissing	-12.1398
▁pada	-12.1399
▁assholes	-12.1399
▁dads	-12.1404
▁yearly	-12.1413
▁tyres	-12.1416
▁protected	-12.1417
▁merchants	-12.1422
smart	-12.1423
▁counted	-12.1429
▁outcomes	-12.1432
▁uploading	-12.1432
▁95	-12.1441
▁comics	-12.1442
itha	-12.1443
▁recovering	-12.1448
▁notifications	-12.1455
-40	-12.1458
▁jerseys	-12.1458
▁filters	-12.1469
▁fabrics	-12.1474
fb	-12.1476
▁tender	-12.1484
fill	-12.1486
▁cla	-12.1489
▁guli	-12.1494
safe	-12.1497
▁gifting	-12.1498
▁sofa	-12.15
▁powered	-12.1501
nawa	-12.1502
▁withdrawals	-12.1505
-2024	-12.151
▁gods	-12.151
▁geo	-12.1513
▁handy	-12.1525
god	-12.1531
susl	-12.1531
▁pala	-12.1537
▁versa	-12.154
▁pilots	-12.1548
rama	-12.1556
▁beats	-12.1564
▁cleaned	-12.1571
big	-12.1576
▁merc	-12.1585
▁creates	-12.1591
▁dressing	-12.1593
cking	-12.1593
▁favorites	-12.1596
los	-12.1596
▁rama	-12.1608
▁festivals	-12.1611
▁tent	-12.1612
hill	-12.1612
fyi	-12.1615
▁hela	-12.1618
▁hug	-12.1633
dum	-12.1647
▁transform	-12.1649
▁ruins	-12.1655
▁1.8	-12.1656
▁rajapaksas	-12.1662
▁exchanges	-12.1666
▁bh	-12.1674
▁sore	-12.1682
▁similarly	-12.1688
▁wor	-12.1691
2024	-12.1692
pg	-12.1701
anthi	-12.1704
▁sav	-12.1715
▁complains	-12.1717
▁tee	-12.1733
▁(28	-12.1737
▁verb	-12.1742
▁photograph	-12.1743
inda	-12.1744
▁yk	-12.1744
bn	-12.1745
uva	-12.1751
▁cocktail	-12.1754
▁honour	-12.1754
▁costume	-12.1754
▁representative	-12.1755
▁spider	-12.1755
▁washroom	-12.1755
▁cigar	-12.1757
▁badge	-12.1758
▁chef	-12.1759
▁programmes	-12.1759
▁lighting	-12.1769
▁ironic	-12.1771
kbps	-12.1772
exclud	-12.1773
weight	-12.1774
authorized	-12.1774
religious	-12.1774
hopefully	-12.1774
traditional	-12.1774
according	-12.1774
degree	-12.1774
original	-12.1774
complete	-12.1774
health	-12.1774
heard	-12.1774
expensive	-12.1774
passport	-12.1774
▁dramas	-12.1775
wide	-12.1775
repost	-12.1777
again	-12.1778
left	-12.1779
▁jp	-12.178
▁regrett	-12.1787
▁delet	-12.1795
ado	-12.1798
dex	-12.1801
▁bid	-12.1803
▁pour	-12.1804
dont	-12.1806
▁investigate	-12.181
lit	-12.1813
▁numb	-12.1817
▁govern	-12.1818
▁freeze	-12.182
▁homosexual	-12.1821
yoshitha	-12.1822
provincial	-12.1822
▁allergic	-12.1822
▁amazed	-12.1822
▁arrogant	-12.1822
▁automotive	-12.1822
▁batalanda	-12.1822
▁believing	-12.1822
▁boycott	-12.1822
▁ceramic	-12.1822
▁convincing	-12.1822
▁coordinate	-12.1822
▁dilshan	-12.1822
▁distinct	-12.1822
▁dolphin	-12.1822
▁gesture	-12.1822
▁kotmale	-12.1822
▁maradana	-12.1822
▁minoxidil	-12.1822
▁municipal	-12.1822
▁patience	-12.1822
▁peacock	-12.1822
▁precise	-12.1822
▁ratnapura	-12.1822
▁resonate	-12.1822
▁roblox	-12.1822
▁samaposha	-12.1822
▁sanctuary	-12.1822
▁shangri	-12.1822
▁slasscom	-12.1822
▁substitute	-12.1822
▁survival	-12.1822
▁vezel	-12.1822
▁caravan	-12.1822
▁consuming	-12.1822
▁shortlisted	-12.1822
▁agricultural	-12.1822
▁amateur	-12.1822
▁bandarawela	-12.1822
▁stafford	-12.1822
▁diamond	-12.1822
▁pedro	-12.1822
misunderstanding	-12.1822
▁milestone	-12.1822
▁pleasure	-12.1822
▁varieties	-12.1822
▁disturbance	-12.1822
▁dickwella	-12.1822
▁leap	-12.1822
▁gloves	-12.1822
▁cryptocurrency	-12.1822
▁horse	-12.1822
▁ambition	-12.1822
▁thermal	-12.1822
▁wallpaper	-12.1822
▁begging	-12.1822
▁echo	-12.1822
▁koththu	-12.1822
▁summarize	-12.1822
▁batik	-12.1822
▁vivo	-12.1822
marital	-12.1822
▁donating	-12.1822
▁constructive	-12.1822
▁rainfall	-12.1822
▁lanaka	-12.1823
▁jazz	-12.1823
▁prank	-12.1823
▁facilitate	-12.1823
▁sandals	-12.1823
▁bribery	-12.1823
▁latter	-12.1823
▁provision	-12.1823
▁emigration	-12.1823
▁polish	-12.1823
▁copper	-12.1824
▁smog	-12.1824
▁70%	-12.1824
▁+94	-12.1824
▁nvm	-12.1824
▁reopen	-12.1824
▁delight	-12.1824
▁generator	-12.1825
▁sltmobitel	-12.1825
▁chamara	-12.1825
▁ffs	-12.1825
▁drill	-12.1825
poli	-12.1825
▁gram	-12.1826
▁amdt	-12.1826
▁coke	-12.1826
▁gimm	-12.1826
▁silk	-12.1826
▁downhill	-12.1826
▁viu	-12.1827
▁atmos	-12.1827
▁dramatic	-12.1827
▁thigh	-12.1827
▁preach	-12.1828
▁150,000	-12.1828
▁allocated	-12.1828
azy	-12.183
bag	-12.1833
▁antibiotics	-12.1834
studying	-12.1835
▁rabbit	-12.1836
▁visually	-12.1836
▁2007	-12.1836
▁quarter	-12.1836
▁dsi	-12.1838
▁punished	-12.1838
▁2004	-12.184
▁heroes	-12.1841
alaya	-12.1842
▁firsthand	-12.1845
▁blindly	-12.1847
▁pawn	-12.1848
▁phobia	-12.1848
hammer	-12.1851
azer	-12.1851
▁rumours	-12.1855
▁poop	-12.1861
▁insisted	-12.1861
▁justified	-12.1862
many	-12.1862
▁levi	-12.1863
▁outright	-12.1865
▁presidents	-12.1875
▁nightclubs	-12.1876
▁rgb	-12.1878
▁worthless	-12.1878
▁performances	-12.1881
▁bumper	-12.1883
▁linen	-12.1889
2,000	-12.1896
▁apologise	-12.1897
▁situat	-12.1901
▁22-	-12.1903
▁temper	-12.1904
kanda	-12.1904
▁rod	-12.1906
▁crafts	-12.1906
▁clicked	-12.1909
size	-12.1913
▁styl	-12.1914
▁prima	-12.1916
media	-12.1918
want	-12.1919
▁pressur	-12.192
▁36	-12.1926
▁canceled	-12.1928
▁reforms	-12.193
singhe	-12.1931
▁barriers	-12.1934
▁borders	-12.1948
▁reservations	-12.1955
nov	-12.1959
▁inquire	-12.196
▁expe	-12.1962
oi	-12.1962
▁deadlines	-12.1966
▁quo	-12.1972
▁disorders	-12.1973
▁politically	-12.1975
▁cart	-12.1976
▁anyplace	-12.1976
▁hurting	-12.1977
ender	-12.1978
vs	-12.1996
▁stones	-12.1998
sun	-12.1998
tres	-12.2008
▁bangladeshi	-12.2008
▁#1	-12.2018
▁spin	-12.2021
▁demanded	-12.2026
▁manners	-12.2032
▁christians	-12.2042
▁souls	-12.2047
▁heated	-12.205
agged	-12.2053
750	-12.2057
▁scenarios	-12.2074
▁projector	-12.2084
▁interviewer	-12.2087
▁lakes	-12.2088
rawa	-12.2089
▁dare	-12.2093
nga	-12.2094
▁sweets	-12.2102
▁viewed	-12.211
▁vacations	-12.2124
course	-12.2128
pin	-12.2129
workers	-12.2132
▁madu	-12.2136
▁pod	-12.2138
▁highways	-12.2151
fun	-12.2156
▁dreaming	-12.2169
jun	-12.2175
▁surveying	-12.2183
▁ras	-12.2187
mates	-12.2198
▁retrieve	-12.22
▁rated	-12.2207
rel	-12.2212
▁soooo	-12.2215
lead	-12.2228
▁chal	-12.2229
▁2.4	-12.2231
▁clone	-12.2235
pid	-12.2237
rop	-12.2245
found	-12.2253
▁innovat	-12.226
▁kink	-12.2275
▁europeans	-12.2279
▁compliment	-12.228
▁tension	-12.2281
▁shade	-12.2282
▁soldier	-12.2283
▁troll	-12.2284
rging	-12.2286
plus	-12.2287
asking	-12.2287
stay	-12.2292
state	-12.2293
mobitel	-12.2297
bentota	-12.23
culture	-12.23
cultural	-12.23
relationship	-12.23
content	-12.23
jaffna	-12.23
negombo	-12.23
suggestions	-12.23
ideally	-12.2301
income	-12.2301
model	-12.2301
field	-12.2301
import	-12.2301
write	-12.2302
super	-12.2302
third	-12.2304
3,000	-12.2307
sense	-12.2311
▁resell	-12.232
▁poison	-12.232
▁flee	-12.2323
▁trader	-12.2324
▁addict	-12.2328
▁spoil	-12.2331
▁troubl	-12.2332
▁punish	-12.2334
▁6000	-12.2336
▁postpone	-12.2337
▁predator	-12.2342
▁nsb	-12.2343
uspicious	-12.2345
▁prince	-12.2347
▁humid	-12.2347
ivity	-12.2348
▁athurugiriya	-12.2348
▁ayubowan	-12.2348
▁bangalore	-12.2348
▁burglar	-12.2348
▁circuit	-12.2348
▁contradict	-12.2348
▁creativity	-12.2348
▁critique	-12.2348
▁curfew	-12.2348
▁currencies	-12.2348
▁elaborate	-12.2348
▁expiring	-12.2348
▁foriegn	-12.2348
▁fountain	-12.2348
▁grasp	-12.2348
▁helicopter	-12.2348
▁hypocrisy	-12.2348
▁maldivian	-12.2348
▁marmite	-12.2348
▁mathews	-12.2348
▁monument	-12.2348
▁ntorq	-12.2348
▁physique	-12.2348
▁porsche	-12.2348
▁rainbow	-12.2348
▁revenge	-12.2348
▁robbery	-12.2348
▁secretariat	-12.2348
▁spontaneous	-12.2348
▁sydney	-12.2348
▁telugu	-12.2348
▁translator	-12.2348
▁vulnerable	-12.2348
▁roadmap	-12.2348
▁struc	-12.2348
▁yield	-12.2348
▁embedd	-12.2348
▁retard	-12.2348
▁absence	-12.2348
▁collateral	-12.2348
▁suprise	-12.2348
▁20-25	-12.2348
▁arcade	-12.2348
▁intermediat	-12.2348
▁kerala	-12.2348
▁bloom	-12.2348
▁inviting	-12.2348
▁caution	-12.2348
▁jayaweera	-12.2348
▁mistress	-12.2348
▁dhabi	-12.2348
▁pedophile	-12.2348
izabe	-12.2348
▁memorize	-12.2348
▁inquiries	-12.2348
▁faint	-12.2348
▁lightweight	-12.2349
▁sushi	-12.2349
▁productivity	-12.2349
▁ginger	-12.235
▁viewpoint	-12.235
▁sheeran	-12.235
▁subaru	-12.235
▁factories	-12.235
▁mastercard	-12.235
▁anker	-12.235
▁waist	-12.235
▁flies	-12.2351
▁microless	-12.2351
mint	-12.2351
▁rlly	-12.2352
▁simulator	-12.2352
▁marut	-12.2352
▁capped	-12.2352
▁pedo	-12.2352
▁coral	-12.2352
▁submitting	-12.2353
▁ddr	-12.2353
▁horny	-12.2353
▁backyard	-12.2354
▁mendis	-12.2354
▁1980	-12.2355
▁muru	-12.2355
▁brainwash	-12.2355
▁voter	-12.2355
▁throttled	-12.2356
▁neat	-12.2356
▁beachside	-12.2357
▁retailers	-12.2357
▁validation	-12.2357
▁occupied	-12.2357
▁15-20	-12.2357
▁backlash	-12.2357
▁cds	-12.2358
▁envelope	-12.2358
▁foam	-12.2358
▁vps	-12.2358
▁prohibited	-12.2359
▁dungeon	-12.236
ome	-12.236
▁fox	-12.236
▁ancestors	-12.2361
▁prescribe	-12.2361
▁giveaway	-12.2361
▁initiated	-12.2361
▁outsider	-12.2362
▁paycheck	-12.2362
▁converse	-12.2362
thought	-12.2363
▁cor	-12.2364
▁homeland	-12.2369
▁briefly	-12.2369
▁modest	-12.2371
▁comparable	-12.2374
▁dmv	-12.2375
funded	-12.2375
/2024	-12.2378
▁exhausting	-12.2379
▁077	-12.2381
▁bombing	-12.2382
▁approaches	-12.2383
▁esteem	-12.2384
▁independently	-12.2386
▁memori	-12.2387
change	-12.2387
▁warned	-12.2388
uma	-12.2389
▁zte	-12.2389
▁shutt	-12.2393
▁beverages	-12.2394
▁operators	-12.2394
▁ethics	-12.2394
▁cricketers	-12.2395
▁cracked	-12.2401
cons	-12.2402
▁smarter	-12.2403
▁girlies	-12.2407
▁departing	-12.2408
▁kam	-12.2409
▁hay	-12.2411
▁:-)	-12.2413
▁pods	-12.2417
▁slid	-12.2419
▁debts	-12.2425
entrepreneurship	-12.2425
aaaa	-12.2427
legal	-12.2428
achchi	-12.2428
▁hormone	-12.2428
▁innovati	-12.243
▁loaded	-12.2431
▁auditor	-12.2434
▁76	-12.2436
▁leopards	-12.2438
▁painted	-12.2441
▁observations	-12.2442
▁honors	-12.2445
▁nope	-12.2445
▁chin	-12.2445
▁kand	-12.2445
▁500,000	-12.2446
▁trim	-12.2449
▁5,000	-12.2452
ues	-12.2453
▁abu	-12.2457
▁ems	-12.2459
▁corrupted	-12.2462
▁peanuts	-12.2463
▁counselors	-12.2463
sooriya	-12.2469
▁fryer	-12.247
▁ratings	-12.2471
bia	-12.2478
ffy	-12.2482
▁performing	-12.2497
▁podi	-12.25
▁unrest	-12.2505
▁rewards	-12.2507
▁consultations	-12.2508
fact	-12.2511
chu	-12.2514
▁weirdly	-12.2514
▁registrations	-12.2515
▁aita	-12.2521
▁fence	-12.2522
▁consoles	-12.2537
ading	-12.2538
ravind	-12.2539
▁mob	-12.2545
▁touched	-12.256
▁alt	-12.256
▁lions	-12.2567
-14	-12.2581
boo	-12.2587
▁explored	-12.2588
▁optional	-12.2591
▁sg	-12.2594
▁mirrors	-12.26
▁nap	-12.2603
iit	-12.2603
▁decently	-12.2605
▁thoughtful	-12.2605
aged	-12.2608
▁portions	-12.261
▁secondly	-12.2618
▁sur	-12.2619
▁displays	-12.2625
▁djs	-12.2629
▁usable	-12.2651
kb	-12.2657
▁exc	-12.2659
▁permissions	-12.2663
ease	-12.2664
▁speeding	-12.2673
▁cooker	-12.2674
▁cage	-12.2675
▁acquir	-12.2675
ace	-12.2677
▁nir	-12.2682
gate	-12.269
▁psych	-12.269
▁wewa	-12.2712
▁structures	-12.2726
hop	-12.2741
▁competitions	-12.2745
▁sq	-12.2751
▁mm	-12.2763
vol	-12.2766
iate	-12.2769
ically	-12.2773
ipping	-12.2781
▁relation	-12.2784
▁72	-12.279
▁squeeze	-12.2794
▁vans	-12.2795
▁nag	-12.2804
▁gifted	-12.2816
▁flora	-12.2818
▁cg	-12.2819
arachchi	-12.2822
▁1300	-12.2823
▁vari	-12.2828
52	-12.2828
oon	-12.2829
▁fry	-12.2834
▁digit	-12.2835
▁fundamental	-12.2835
▁phrase	-12.2837
▁belief	-12.2837
▁bugger	-12.2843
▁fiance	-12.2844
miss	-12.2845
▁musician	-12.2846
▁arab	-12.2848
▁bump	-12.2851
▁reel	-12.2852
election	-12.2852
▁suite	-12.2853
guard	-12.2853
claim	-12.2854
channel	-12.2856
jvp	-12.2856
crypto	-12.2856
black	-12.2856
computer	-12.2856
vehicle	-12.2856
moratuwa	-12.2856
basically	-12.2856
active	-12.2857
living	-12.286
camp	-12.286
money	-12.2861
▁scold	-12.2861
text	-12.2864
▁shin	-12.2864
their	-12.2865
mann	-12.2868
eliya	-12.2868
almost	-12.2871
▁releas	-12.2878
▁jayawardena	-12.288
▁abandon	-12.2886
▁afterward	-12.2887
waiting	-12.2888
▁recognise	-12.2893
▁weekday	-12.2896
▁cert	-12.2899
single	-12.2899
▁compromise	-12.2899
▁erp	-12.2901
▁privatiz	-12.2903
▁pok	-12.2903
▁david	-12.2903
▁academia	-12.2904
▁allergies	-12.2904
▁ambassador	-12.2904
▁austria	-12.2904
▁dairy	-12.2904
▁decency	-12.2904
▁deficit	-12.2904
▁dissertation	-12.2904
▁emirates	-12.2904
▁empathy	-12.2904
▁essence	-12.2904
▁ethanol	-12.2904
▁excellence	-12.2904
▁flamingo	-12.2904
▁github	-12.2904
▁mathematical	-12.2904
▁millennials	-12.2904
▁nawaloka	-12.2904
▁recurring	-12.2904
▁refrain	-12.2904
▁repetitive	-12.2904
▁riyasewana	-12.2904
▁secluded	-12.2904
▁senanayake	-12.2904
▁singlish	-12.2904
▁suspicion	-12.2904
▁termination	-12.2904
▁traits	-12.2904
▁transmission	-12.2904
▁vacuum	-12.2904
▁wolverine	-12.2904
▁crappy	-12.2904
▁prevail	-12.2904
▁unwind	-12.2904
▁50-60	-12.2904
▁compulsory	-12.2904
▁infinity	-12.2904
▁robbed	-12.2904
▁crispy	-12.2904
▁gyno	-12.2904
▁insects	-12.2904
▁amenities	-12.2904
▁judging	-12.2904
▁azure	-12.2904
▁rifle	-12.2904
▁tummy	-12.2904
▁summary	-12.2904
▁upstairs	-12.2904
▁interference	-12.2904
▁kingsbury	-12.2904
▁munchee	-12.2904
▁steer	-12.2904
▁jayasuriya	-12.2904
▁ideologies	-12.2904
▁gangaramaya	-12.2904
▁kuwait	-12.2904
▁variations	-12.2904
▁sarongs	-12.2904
▁pilgrimage	-12.2904
▁gentlemen	-12.2904
▁cerave	-12.2904
▁fitsair	-12.2904
▁outrageous	-12.2904
▁pegged	-12.2904
▁lipton	-12.2904
▁casio	-12.2904
▁guardian	-12.2904
▁dunno	-12.2904
flix	-12.2904
▁esports	-12.2905
▁latin	-12.2905
▁binge	-12.2905
▁skyline	-12.2906
▁canvas	-12.2906
▁serum	-12.2906
▁hornet	-12.2906
▁wreck	-12.2907
▁competent	-12.2907
▁wade	-12.2907
▁drap	-12.2907
▁clash	-12.2908
▁angle	-12.2909
due	-12.2909
▁gents	-12.291
▁smh	-12.291
▁penis	-12.291
▁executed	-12.2911
▁ashok	-12.2911
▁evolution	-12.2911
▁permitted	-12.2911
▁curb	-12.2911
▁sinha	-12.2912
▁collectively	-12.2912
▁heartbreaking	-12.2912
2%	-12.2913
▁lifemobile	-12.2913
▁vaccinated	-12.2913
▁eff	-12.2915
nayaka	-12.2915
▁extroverted	-12.2915
▁childish	-12.2915
▁possession	-12.2916
▁piano	-12.2916
▁parallel	-12.2916
▁gadgets	-12.2917
▁bow	-12.2917
▁esp	-12.2918
▁ngo	-12.2918
▁exporters	-12.2919
▁motorcycles	-12.2919
▁situationship	-12.292
▁tricky	-12.292
▁dhal	-12.2921
thora	-12.2921
▁sec	-12.2922
▁manipulated	-12.2922
▁unexpectedly	-12.2923
▁giant	-12.2924
▁appliances	-12.2925
▁apologized	-12.2925
▁parental	-12.2926
▁tate	-12.2927
▁guitarist	-12.2928
▁discovery	-12.2928
▁mb	-12.2929
aru	-12.293
nokia	-12.2933
▁gampola	-12.2933
▁thx	-12.2934
▁viewers	-12.2935
81	-12.2935
landa	-12.2936
▁arrangements	-12.2937
▁hdd	-12.2939
thar	-12.294
▁medal	-12.294
▁existent	-12.294
▁goons	-12.2943
▁55"	-12.2945
▁moreover	-12.2946
▁hardships	-12.2948
▁carefully	-12.2949
▁nas	-12.2949
oud	-12.295
▁infamous	-12.2951
▁sink	-12.2951
▁bowling	-12.2955
▁civilians	-12.2956
▁gathered	-12.2959
▁resigning	-12.2963
oid	-12.2964
▁1.4	-12.2966
▁forgetting	-12.2967
▁businessman	-12.2968
▁specialise	-12.2968
▁leaver	-12.297
imo	-12.297
▁sew	-12.2971
▁hacking	-12.2972
▁wth	-12.2973
▁tensions	-12.2975
make	-12.2975
▁freshers	-12.2977
tz	-12.2978
▁washrooms	-12.2979
▁slower	-12.2983
▁helmets	-12.2994
▁cloths	-12.2999
▁masks	-12.3002
▁betel	-12.3009
▁rani	-12.3013
▁hm	-12.3016
▁extender	-12.3019
nci	-12.3024
▁2.0	-12.3026
▁genres	-12.3028
moto	-12.303
stack	-12.3031
▁sponsorships	-12.3045
▁croc	-12.3054
▁shakes	-12.3055
▁scored	-12.3063
▁aesthetics	-12.3064
▁bugg	-12.307
▁triple	-12.3077
▁guards	-12.308
/11	-12.3084
ground	-12.3088
▁(18	-12.3089
vara	-12.3089
vana	-12.309
▁battles	-12.3101
▁functions	-12.3104
sent	-12.3108
▁listened	-12.311
lity	-12.3111
▁brin	-12.3112
uh	-12.3119
▁rave	-12.3121
▁mah	-12.3126
ose	-12.3126
▁backwards	-12.3135
▁kat	-12.314
▁bedrooms	-12.3147
oooo	-12.3147
▁mug	-12.3154
▁makers	-12.3179
▁nawa	-12.3179
dana	-12.3186
▁sx	-12.3194
▁gro	-12.3195
fts	-12.3196
▁heating	-12.3198
name	-12.321
▁tailors	-12.3213
▁talents	-12.3218
tler	-12.3227
rep	-12.323
iii	-12.3231
▁alerts	-12.3237
▁specialists	-12.3241
-45	-12.3243
▁evenings	-12.3257
tty	-12.3257
▁burgers	-12.3261
▁15000	-12.3262
ulf	-12.3269
info	-12.3272
▁http	-12.3279
ask	-12.3282
cro	-12.3287
▁studios	-12.3288
thika	-12.3295
aving	-12.3296
rock	-12.3299
▁neo	-12.33
▁sept	-12.33
▁mul	-12.33
door	-12.3303
mind	-12.3304
bsc	-12.3307
▁engines	-12.3308
▁screens	-12.3309
uses	-12.3314
▁sap	-12.3315
▁identi	-12.3317
keep	-12.3321
▁0.5	-12.3323
ggy	-12.3331
▁21-	-12.3334
▁bites	-12.334
▁georg	-12.3345
▁persist	-12.3353
▁lc	-12.3373
short	-12.3377
▁translations	-12.3379
▁dema	-12.3382
▁gaps	-12.3387
ural	-12.3389
▁commissions	-12.339
uda	-12.3392
wheeler	-12.3397
aid	-12.34
▁peel	-12.34
cause	-12.3402
▁47	-12.3407
▁floors	-12.3419
▁atheist	-12.3425
▁voucher	-12.3426
▁regulation	-12.3426
▁immigrant	-12.3432
special	-12.3437
▁behaviors	-12.3438
tiya	-12.3439
things	-12.344
count	-12.3442
condition	-12.3442
shore	-12.3443
wait	-12.3443
pvt	-12.3444
taught	-12.3444
translation	-12.3444
covid	-12.3444
arrival	-12.3444
digital	-12.3444
whatsapp	-12.3444
must	-12.3444
resort	-12.3445
/7	-12.3445
paper	-12.3446
through	-12.3446
▁journal	-12.3447
▁olevel	-12.3447
china	-12.3448
film	-12.3448
▁drum	-12.345
image	-12.345
▁outfit	-12.3452
fake	-12.3452
mods	-12.3455
fini	-12.3457
▁prioritiz	-12.3459
▁fac	-12.346
▁hav	-12.3461
find	-12.3463
▁satisfy	-12.3463
today	-12.3466
▁hunter	-12.3468
▁accomplish	-12.3468
own	-12.3469
▁petti	-12.347
▁activat	-12.3471
▁appoint	-12.3475
bishi	-12.3475
pop	-12.3478
beat	-12.3478
▁pronounce	-12.348
▁diagnose	-12.348
▁horn	-12.3483
▁ahh	-12.3484
▁thorough	-12.3485
▁sketch	-12.3486
▁coffe	-12.3487
▁nuwar	-12.3487
▁workaround	-12.3487
restaurants	-12.3491
▁census	-12.3492
▁competitor	-12.3492
▁congratulations	-12.3492
▁consensus	-12.3492
▁cunning	-12.3492
▁custody	-12.3492
▁declining	-12.3492
▁earliest	-12.3492
▁emission	-12.3492
▁emoji	-12.3492
▁exorbitant	-12.3492
▁expenditure	-12.3492
▁funniest	-12.3492
▁gambling	-12.3492
▁gotabaya	-12.3492
▁gravy	-12.3492
▁homophobia	-12.3492
▁hurdle	-12.3492
▁inconsistent	-12.3492
▁integrity	-12.3492
▁intellectual	-12.3492
▁interstellar	-12.3492
▁irritate	-12.3492
▁maturity	-12.3492
▁ninewells	-12.3492
▁nutshell	-12.3492
▁prabhakaran	-12.3492
▁proportion	-12.3492
▁ramadan	-12.3492
▁servicing	-12.3492
▁snapdragon	-12.3492
▁spiral	-12.3492
▁steady	-12.3492
▁suspension	-12.3492
▁treacle	-12.3492
▁treadmill	-12.3492
▁unfamiliar	-12.3492
▁violating	-12.3492
▁violin	-12.3492
▁blouse	-12.3492
▁casino	-12.3492
▁earrings	-12.3492
▁glance	-12.3492
▁satire	-12.3492
▁seamless	-12.3492
▁unfold	-12.3492
▁nudist	-12.3492
▁shelves	-12.3492
▁tweet	-12.3492
▁greedy	-12.3492
▁refine	-12.3492
▁emergencies	-12.3492
▁occurrence	-12.3492
▁lagoon	-12.3492
▁luckily	-12.3492
▁whiskey	-12.3492
▁widespread	-12.3492
▁segment	-12.3492
▁coils	-12.3492
▁ruwan	-12.3492
▁chief	-12.3492
▁kuluna	-12.3492
▁tissamaharama	-12.3492
▁sustainability	-12.3492
▁clever	-12.3492
▁wheat	-12.3492
▁doorstep	-12.3492
▁horrifi	-12.3492
▁fintech	-12.3492
▁hinder	-12.3492
▁smash	-12.3492
▁crook	-12.3492
▁carving	-12.3492
▁(2025)	-12.3492
▁fusion	-12.3492
▁footwear	-12.3492
▁nasty	-12.3492
▁trivia	-12.3492
▁axio	-12.3492
▁cuckold	-12.3492
▁extraordinary	-12.3493
▁resale	-12.3493
▁intent	-12.3493
▁william	-12.3493
▁grace	-12.3493
▁soundcore	-12.3493
▁humiliated	-12.3494
▁saint	-12.3494
lankans	-12.3494
▁lseg	-12.3494
dominant	-12.3494
▁entity	-12.3495
▁prolly	-12.3495
▁relatable	-12.3495
went	-12.3495
▁hail	-12.3496
▁4060	-12.3496
ander	-12.3496
▁bandwidth	-12.3496
▁charitha	-12.3496
▁heap	-12.3496
▁implant	-12.3497
▁tuf	-12.3497
▁8-10	-12.3498
▁nutritional	-12.3498
▁1970	-12.3498
▁funko	-12.3499
▁motherland	-12.3499
▁cashback	-12.35
▁peas	-12.3501
▁dire	-12.3502
▁200,000	-12.3503
▁jaw	-12.3503
▁entc	-12.3504
▁overtake	-12.3505
▁iykyk	-12.3505
▁blackout	-12.3505
▁veggies	-12.3506
▁bullet	-12.3509
▁vile	-12.351
▁speeches	-12.3511
▁spoiled	-12.3511
▁4.5	-12.3513
▁veterans	-12.3514
▁greek	-12.3515
▁cardio	-12.3516
▁litre	-12.3516
▁socialism	-12.3521
▁representation	-12.3523
▁fulfilled	-12.3523
▁60,000	-12.3528
▁searches	-12.353
▁encouraged	-12.353
▁consumed	-12.3531
▁celebs	-12.3535
▁dialogue	-12.3535
▁18+	-12.3536
flagged	-12.3536
▁fps	-12.3536
▁filtered	-12.3539
▁ray	-12.3541
ching	-12.3542
▁acres	-12.3546
▁hyped	-12.3547
inter	-12.3549
▁flooding	-12.3551
▁jackets	-12.3552
▁meantime	-12.3553
heads	-12.3555
▁counsellors	-12.3555
ello	-12.3558
stair	-12.3562
▁kinks	-12.3568
▁hardest	-12.357
▁costumes	-12.3572
adam	-12.3573
▁fate	-12.3574
cational	-12.3575
▁magazines	-12.3576
▁garments	-12.358
▁ruled	-12.3581
▁mma	-12.3582
rating	-12.3583
▁draining	-12.3585
▁contributions	-12.3588
▁belly	-12.3589
kha	-12.3591
iphone	-12.3601
▁toilets	-12.3601
ajith	-12.3604
▁imma	-12.3606
▁essays	-12.3609
▁conductors	-12.361
▁ofcourse	-12.3611
▁architects	-12.3617
▁reactions	-12.3623
▁fin	-12.3629
1996	-12.3629
chem	-12.3629
ney	-12.3639
▁desires	-12.3643
▁practiced	-12.3655
(?)	-12.3658
gone	-12.367
gath	-12.3682
▁cle	-12.3683
dasa	-12.3686
▁sadde	-12.3699
▁psycho	-12.3703
▁tile	-12.3707
▁arc	-12.3713
tuks	-12.3714
olley	-12.3714
▁indoors	-12.3717
jp	-12.3717
elecommunication	-12.3726
▁grows	-12.3728
rice	-12.3734
pen	-12.3737
insta	-12.3742
partial	-12.3744
were	-12.3745
▁loses	-12.3747
▁hs	-12.3748
▁swe	-12.3753
▁movements	-12.3771
phones	-12.3772
450	-12.379
▁nava	-12.3797
▁optic	-12.3798
▁pope	-12.3799
▁conditioners	-12.3801
▁founders	-12.3802
-13	-12.3802
arian	-12.3815
▁2023)	-12.3816
▁pause	-12.3818
▁sounded	-12.382
▁comb	-12.3834
wheelers	-12.3841
▁nan	-12.3842
▁kan	-12.3848
▁households	-12.385
▁ranting	-12.3852
▁releases	-12.3854
▁(30	-12.3855
flame	-12.3856
▁cultivat	-12.386
▁organise	-12.3865
ragging	-12.3875
▁genders	-12.3897
entry	-12.3911
▁ll	-12.3914
22)	-12.3915
▁stored	-12.3916
▁publication	-12.3922
pathi	-12.3933
aking	-12.3951
cooked	-12.3952
easing	-12.3955
▁bob	-12.3958
hera	-12.3962
women	-12.3966
tine	-12.3984
chan	-12.3994
▁sme	-12.3997
▁240	-12.4026
▁embrac	-12.4029
▁kite	-12.4042
▁glo	-12.4043
▁56	-12.4045
bata	-12.4048
▁hoodie	-12.4049
▁nerve	-12.4049
▁firearm	-12.4049
ottu	-12.4049
▁distraction	-12.4049
▁horoscope	-12.405
▁bhan	-12.4052
▁daughters	-12.4053
▁counsellor	-12.4057
security	-12.4069
external	-12.4069
drink	-12.4069
mouth	-12.4069
luxury	-12.4069
number	-12.4069
tourism	-12.4069
▁collector	-12.407
logist	-12.407
proper	-12.4072
update	-12.4072
▁peter	-12.4072
ranil	-12.4072
engineering	-12.4073
hope	-12.4073
beach	-12.4074
title	-12.4075
those	-12.4076
decent	-12.4077
▁peer	-12.4078
although	-12.4078
border	-12.408
▁provinces	-12.4083
▁clan	-12.4091
▁industri	-12.4092
express	-12.4093
race	-12.4094
▁hydra	-12.4095
within	-12.4096
▁liber	-12.4096
▁roy	-12.4099
fish	-12.41
tune	-12.4104
▁inspire	-12.4105
▁motivate	-12.4105
▁swor	-12.4106
look	-12.411
▁bully	-12.411
▁continuous	-12.411
▁aven	-12.4114
▁gentle	-12.4116
sql	-12.4116
▁accessibility	-12.4117
▁alerics	-12.4117
▁bespoke	-12.4117
▁britain	-12.4117
▁california	-12.4117
▁cemetery	-12.4117
▁chariot	-12.4117
▁cleanliness	-12.4117
▁commuting	-12.4117
▁credibility	-12.4117
▁curtain	-12.4117
▁dilmah	-12.4117
▁economist	-12.4117
▁exotic	-12.4117
▁fascist	-12.4117
▁feminine	-12.4117
▁gammanpila	-12.4117
▁gluten	-12.4117
▁hameedia	-12.4117
▁harischandra	-12.4117
▁homesick	-12.4117
▁horrendous	-12.4117
▁housemaid	-12.4117
▁illiterate	-12.4117
▁indulge	-12.4117
▁influential	-12.4117
▁insecurities	-12.4117
▁jogging	-12.4117
▁landslide	-12.4117
▁laundering	-12.4117
▁lebanon	-12.4117
▁mattala	-12.4117
▁mexico	-12.4117
▁moisturizer	-12.4117
▁monastery	-12.4117
▁mubarak	-12.4117
▁murali	-12.4117
▁postponing	-12.4117
▁purifier	-12.4117
▁quantitative	-12.4117
▁renovation	-12.4117
▁repercussions	-12.4117
▁seneviratne	-12.4117
▁skyrocket	-12.4117
▁squad	-12.4117
▁swedish	-12.4117
▁tissue	-12.4117
▁toothbrush	-12.4117
▁viharamahadevi	-12.4117
▁vinegar	-12.4117
▁winlads	-12.4117
▁freind	-12.4117
▁gastro	-12.4117
▁goverment	-12.4117
▁tutorials	-12.4117
▁bbq	-12.4117
▁cherish	-12.4117
▁notorious	-12.4117
▁prius	-12.4117
▁harvest	-12.4117
▁pradesh	-12.4117
▁aluminium	-12.4117
▁incompetence	-12.4117
▁gurus	-12.4117
▁razor	-12.4117
▁geopolitical	-12.4117
▁mythology	-12.4117
▁iqos	-12.4117
▁wristwatch	-12.4117
▁scholar	-12.4117
▁sincerely	-12.4117
▁compass	-12.4117
▁masturbation	-12.4117
▁puppet	-12.4117
▁chunk	-12.4117
▁stingy	-12.4117
▁radical	-12.4117
▁craziest	-12.4117
▁suppress	-12.4117
▁vanilla	-12.4117
▁colpetty	-12.4117
▁dealership	-12.4117
▁discourse	-12.4117
▁reliably	-12.4117
▁inexperienced	-12.4117
▁naming	-12.4117
▁biochemistry	-12.4117
▁restrain	-12.4118
▁colony	-12.4118
▁kidding	-12.4118
▁diesel	-12.4118
▁informative	-12.4118
▁ethnicities	-12.4118
▁tuck	-12.4118
▁uneducated	-12.4118
lihood	-12.4118
▁urologist	-12.4118
▁unreliable	-12.4118
ancy	-12.4118
▁washington	-12.4118
▁proceedings	-12.4118
▁hahaha	-12.4118
▁uneasy	-12.4119
▁dietician	-12.4119
▁incur	-12.4119
▁stagna	-12.4119
▁kalu	-12.4119
▁seperate	-12.412
▁7.30	-12.412
▁glue	-12.412
▁allocation	-12.412
▁christianity	-12.412
▁trav	-12.412
989	-12.4121
▁specify	-12.4121
▁subpar	-12.4121
▁navi	-12.4121
▁instructed	-12.4122
▁repayment	-12.4122
▁40%	-12.4122
gamy	-12.4122
▁brag	-12.4123
▁fortunately	-12.4123
▁downgrade	-12.4123
▁powercut	-12.4124
▁revised	-12.4124
▁thoroughly	-12.4124
▁brave	-12.4125
▁inherited	-12.4125
▁blink	-12.4125
imming	-12.4125
▁hans	-12.4126
▁professionalism	-12.4127
▁childfree	-12.4127
▁eth	-12.4127
▁headline	-12.4128
▁commun	-12.4128
▁lieu	-12.4128
▁nosy	-12.4128
▁scratches	-12.4129
▁withholding	-12.4129
▁128	-12.413
▁personalities	-12.413
▁ashes	-12.4132
▁portrayed	-12.4132
▁jealousy	-12.4133
▁overlooked	-12.4134
▁lengthy	-12.4135
yyy	-12.4135
▁churches	-12.4135
▁enforced	-12.4135
▁manually	-12.4136
▁mash	-12.4138
▁polished	-12.4139
▁mice	-12.4139
owner	-12.4139
servi	-12.4141
▁sym	-12.4141
▁wellbeing	-12.4141
saving	-12.4142
▁haunted	-12.4143
bh	-12.4145
▁unlikely	-12.4146
▁scolding	-12.4149
▁modifications	-12.415
▁bul	-12.415
citing	-12.4152
▁perm	-12.4153
▁3.2	-12.4156
▁insulting	-12.4158
▁shehan	-12.4162
▁kar	-12.4162
▁fourth	-12.4163
▁preferable	-12.4169
▁cloudy	-12.417
gun	-12.4171
▁subsequent	-12.4171
▁fooled	-12.4172
▁darker	-12.4174
▁btu	-12.4174
▁dominos	-12.4176
▁revealing	-12.4176
▁principles	-12.4176
▁builders	-12.4177
anc	-12.4177
comment	-12.4177
▁pta	-12.4178
▁crows	-12.418
such	-12.4181
bio	-12.4184
▁streamers	-12.4187
▁collectors	-12.4187
▁vouchers	-12.419
▁pim	-12.4194
cia	-12.4195
▁cub	-12.4197
▁impose	-12.4198
▁shades	-12.4198
▁cunt	-12.4205
▁dut	-12.4206
▁strings	-12.4211
▁roses	-12.4212
▁remark	-12.4213
▁olevels	-12.4213
▁calc	-12.4213
▁infections	-12.4215
▁ny	-12.4219
▁lky	-12.4225
▁migrants	-12.4229
services	-12.4229
▁underage	-12.4242
▁bru	-12.4248
▁degrad	-12.4251
gering	-12.4255
▁dias	-12.4257
inate	-12.4258
▁pho	-12.426
▁containers	-12.426
▁recharge	-12.4261
▁pt	-12.4263
▁exercises	-12.4264
▁commenc	-12.427
tip	-12.4275
▁preserve	-12.4277
hdi	-12.4278
rah	-12.4281
▁fur	-12.4284
▁radi	-12.4285
▁outline	-12.4286
▁bounce	-12.4287
▁fck	-12.4289
▁dharma	-12.4291
harma	-12.4291
▁slips	-12.4295
assa	-12.4295
waste	-12.43
▁elders	-12.4304
▁bim	-12.4308
▁lid	-12.4313
ogue	-12.4313
cuse	-12.4319
6%	-12.4321
▁fools	-12.433
▁traps	-12.433
▁joints	-12.4337
▁rx	-12.4343
▁sentences	-12.4344
▁sponsors	-12.4348
▁holes	-12.4354
▁improvements	-12.4354
▁packing	-12.4358
plant	-12.4359
▁onboard	-12.436
sportswear	-12.4363
▁coolers	-12.437
amp	-12.4376
▁evade	-12.4386
▁overlook	-12.4386
▁dreamed	-12.4389
▁hehe	-12.4396
▁ea	-12.44
▁([	-12.4407
0-100	-12.4409
▁shampoos	-12.4415
▁controllers	-12.4415
▁ghosts	-12.4415
▁starters	-12.4418
bill	-12.4425
▁laughs	-12.4443
step	-12.4444
▁1-3	-12.4445
▁scann	-12.4448
▁failures	-12.4455
▁flo	-12.4459
▁nar	-12.447
1%	-12.4471
tho	-12.4477
mother	-12.4483
▁geographic	-12.4495
never	-12.4507
▁(50	-12.4507
either	-12.4508
▁58	-12.451
▁menus	-12.4515
▁robe	-12.452
▁executives	-12.4522
▁indicat	-12.4532
rence	-12.4533
okay	-12.4542
yala	-12.4546
▁lanes	-12.4547
▁tape	-12.4551
stress	-12.4552
▁mesh	-12.4557
▁equipments	-12.4558
▁allion	-12.4559
▁qua	-12.4562
▁counters	-12.4563
alized	-12.4564
▁phi	-12.4565
▁begins	-12.4572
mah	-12.4575
▁races	-12.4577
▁rc	-12.458
hair	-12.4584
investing	-12.4587
-9	-12.4591
▁(14	-12.4595
▁drown	-12.4598
quire	-12.4606
▁dal	-12.4615
ressed	-12.4622
650	-12.4627
▁lh	-12.4637
timer	-12.4638
▁boi	-12.4653
▁pali	-12.4657
warded	-12.4665
logy	-12.4678
▁robot	-12.4678
ocr	-12.4681
▁papa	-12.4682
lift	-12.4685
▁vel	-12.4685
boot	-12.469
▁bracket	-12.4716
▁shadow	-12.4716
▁sample	-12.4716
▁weapon	-12.4717
▁technique	-12.4717
▁instruction	-12.4717
▁nightclub	-12.4718
▁jacket	-12.4718
▁resist	-12.4718
▁specialis	-12.4721
▁grandpa	-12.4726
graduate	-12.4728
▁escort	-12.4729
▁produc	-12.4729
cream	-12.4732
screen	-12.4735
virus	-12.4735
tissa	-12.4735
fiction	-12.4735
reach	-12.4735
colonial	-12.4735
bonus	-12.4735
frame	-12.4735
sufficient	-12.4736
dambulla	-12.4736
buddhist	-12.4736
protect	-12.4736
contact	-12.4736
obviously	-12.4736
question	-12.4736
december	-12.4736
similar	-12.4736
avoid	-12.4736
definitely	-12.4736
natural	-12.4736
trust	-12.4736
trans	-12.4737
salary	-12.4738
storm	-12.4739
▁dancer	-12.4739
color	-12.474
plz	-12.4741
value	-12.4742
▁1800	-12.4746
▁crow	-12.475
▁bam	-12.4752
coz	-12.4754
▁scroll	-12.4756
itsu	-12.4766
▁overthink	-12.4767
▁10-20	-12.4768
yard	-12.4768
▁discourage	-12.4772
cmb	-12.4774
▁downvote	-12.4775
▁communicat	-12.4775
▁assemble	-12.4776
▁fortunate	-12.4777
foreigners	-12.4778
▁avail	-12.4782
clined	-12.4782
▁emigrat	-12.4783
▁destin	-12.4783
▁kelani	-12.4783
▁bench	-12.4783
snorkel	-12.4783
cific	-12.4783
siehalei	-12.4783
▁abilities	-12.4783
▁alumni	-12.4783
▁aluthkade	-12.4783
▁amarasuriya	-12.4783
▁baffled	-12.4783
▁barbie	-12.4783
▁bastard	-12.4783
▁beggars	-12.4783
▁biryani	-12.4783
▁burgher	-12.4783
▁celltronics	-12.4783
▁cholesterol	-12.4783
▁compatibility	-12.4783
▁constraints	-12.4783
▁coordinator	-12.4783
▁decreasing	-12.4783
▁dhanush	-12.4783
▁durdans	-12.4783
▁evident	-12.4783
▁femboy	-12.4783
▁horrifying	-12.4783
▁hyundai	-12.4783
▁inflated	-12.4783
▁invaluable	-12.4783
▁knives	-12.4783
▁lorries	-12.4783
▁necklace	-12.4783
▁negativity	-12.4783
▁nepotism	-12.4783
▁nvidia	-12.4783
▁perpetrator	-12.4783
▁recycle	-12.4783
▁remembrance	-12.4783
▁rhetoric	-12.4783
▁savoy	-12.4783
▁skirts	-12.4783
▁steep	-12.4783
▁synerg	-12.4783
▁twitch	-12.4783
▁unbelievable	-12.4783
▁unhelpful	-12.4783
▁upskill	-12.4783
▁vaginismus	-12.4783
▁vocabulary	-12.4783
▁arthur	-12.4783
▁fetish	-12.4783
▁illusion	-12.4783
▁nipple	-12.4783
▁pavement	-12.4783
▁rehab	-12.4783
▁scatter	-12.4783
▁stutter	-12.4783
▁afaik	-12.4783
▁carpenter	-12.4783
▁hoard	-12.4783
▁lawsuit	-12.4783
▁problematic	-12.4783
▁shepherd	-12.4783
▁swallow	-12.4783
▁psychotherapist	-12.4783
kalathma	-12.4783
▁injustice	-12.4783
▁instalment	-12.4783
▁bidding	-12.4784
▁dictat	-12.4784
▁jesus	-12.4784
▁negligence	-12.4784
▁ptsd	-12.4784
▁outstation	-12.4784
▁dashboard	-12.4784
▁immature	-12.4784
▁malinga	-12.4784
▁pickleball	-12.4784
sync	-12.4784
▁braid	-12.4784
▁thushara	-12.4784
▁11.11	-12.4784
▁jayasinghe	-12.4784
▁probability	-12.4784
▁injuries	-12.4784
▁veterinar	-12.4784
▁psychedelics	-12.4784
▁ryt	-12.4784
▁clark	-12.4784
▁ranasinghe	-12.4784
shrooms	-12.4784
▁excitement	-12.4784
▁wrapping	-12.4784
▁cheek	-12.4784
▁pedal	-12.4784
▁hostess	-12.4784
▁unreserved	-12.4784
▁glaz	-12.4784
▁bleed	-12.4784
▁royce	-12.4784
▁summon	-12.4784
▁stylish	-12.4784
▁kandana	-12.4784
▁wetland	-12.4784
▁laggy	-12.4784
▁tiring	-12.4784
▁pollut	-12.4784
holic	-12.4784
▁confidential	-12.4784
▁hcm	-12.4784
▁vlogger	-12.4784
▁hypo	-12.4785
▁seminar	-12.4785
▁smartwatch	-12.4785
▁yapping	-12.4785
▁streetwear	-12.4785
▁nuance	-12.4785
▁electro	-12.4785
▁nominate	-12.4785
▁scor	-12.4785
▁marino	-12.4786
▁brutality	-12.4786
▁colonialism	-12.4786
▁resellers	-12.4786
▁civilization	-12.4786
▁implementation	-12.4786
▁ohiya	-12.4786
▁void	-12.4786
▁nutri	-12.4787
▁forehead	-12.4787
▁disposal	-12.4787
▁habitat	-12.4787
▁0%	-12.4787
▁stationery	-12.4787
▁concluded	-12.4787
▁pottery	-12.4787
▁lipo	-12.4789
▁yourselves	-12.4789
▁prisoners	-12.479
▁endorse	-12.479
▁complexion	-12.479
▁handmade	-12.479
▁nalin	-12.479
fyp	-12.479
▁hobbyist	-12.4791
▁stake	-12.4792
▁detained	-12.4792
▁financing	-12.4792
▁negotiating	-12.4792
▁receptionist	-12.4792
▁cfa	-12.4792
▁filipino	-12.4793
▁outbreak	-12.4793
▁rover	-12.4794
▁demons	-12.4794
▁optician	-12.4794
▁overcharged	-12.4794
▁whitewash	-12.4795
▁modelling	-12.4795
▁underworld	-12.4795
▁downvoted	-12.4795
▁assembled	-12.4795
▁maternal	-12.4795
▁fitted	-12.4795
▁kilo	-12.4796
▁humanity	-12.4797
▁maligawa	-12.4797
▁yelled	-12.4798
▁2006	-12.4799
▁sliate	-12.48
▁customize	-12.4801
▁negotiable	-12.4802
▁seized	-12.4803
▁foa	-12.4803
▁agri	-12.4804
▁booth	-12.4806
▁keer	-12.4806
▁sht	-12.4806
▁cameralk	-12.4807
swipe	-12.4808
▁tub	-12.4808
lee	-12.4809
▁restored	-12.481
▁voa	-12.481
▁wagonr	-12.4813
▁bait	-12.4815
▁respectfully	-12.4817
▁merge	-12.4817
▁businessmen	-12.4818
▁perch	-12.4819
▁cigs	-12.4819
▁230	-12.4819
▁94	-12.4819
▁lte	-12.4819
owed	-12.4823
▁chicks	-12.4823
▁westerners	-12.4825
▁succeeded	-12.4828
▁rivals	-12.4828
▁bookshops	-12.4828
▁herath	-12.4829
▁straps	-12.4829
mac	-12.483
▁720	-12.483
▁faulty	-12.4831
▁bold	-12.4832
▁vocals	-12.4833
▁edibles	-12.4833
▁1080	-12.4833
▁baker	-12.4833
▁mocking	-12.4834
▁25,000	-12.4835
▁blasting	-12.4835
6)	-12.4837
▁dumped	-12.484
▁insensitive	-12.4841
▁adjusted	-12.4841
▁tigers	-12.4842
▁fdi	-12.4851
▁samples	-12.4852
cure	-12.4852
▁escaped	-12.4853
▁utiliz	-12.4854
▁hooked	-12.4856
▁sweating	-12.486
▁guesses	-12.4861
▁atheists	-12.4861
▁deserved	-12.4863
fast	-12.4866
▁52	-12.4873
▁inefficient	-12.4879
▁dragons	-12.488
▁redditers	-12.4881
▁lips	-12.4884
▁armed	-12.4884
▁grants	-12.4885
▁samba	-12.4898
▁adsl	-12.4898
▁alternatively	-12.4898
▁lace	-12.49
▁probe	-12.4903
▁occurs	-12.4903
▁tales	-12.4904
▁cham	-12.4907
▁vitamins	-12.4908
▁guts	-12.4909
▁vids	-12.4921
▁boomer	-12.4929
flation	-12.4931
▁outages	-12.4932
▁analyze	-12.4934
▁professors	-12.4935
▁taxable	-12.4941
▁narratives	-12.4946
ntry	-12.4949
▁uniforms	-12.4955
▁colored	-12.4956
▁imagined	-12.4962
▁wary	-12.4967
upper	-12.4967
▁gatherings	-12.497
▁pickle	-12.4977
▁ringing	-12.4979
▁spirits	-12.4984
▁mach	-12.4985
hang	-12.4985
note	-12.4996
total	-12.4999
▁bathrooms	-12.5007
▁picky	-12.5012
▁dex	-12.5013
▁nicer	-12.5028
▁54	-12.5029
▁debited	-12.5036
63	-12.5041
▁hiri	-12.5043
▁marketer	-12.505
muni	-12.5059
▁allowances	-12.506
▁kara	-12.5064
▁vog	-12.5066
▁flats	-12.5074
▁orient	-12.5081
aline	-12.5082
▁vegetarians	-12.5098
▁deco	-12.51
abha	-12.5113
illa	-12.5117
acent	-12.5124
▁announc	-12.5127
▁wr	-12.5131
▁sunsets	-12.5146
▁singh	-12.5147
▁mun	-12.5151
▁chr	-12.5153
▁kann	-12.5154
▁7.5	-12.5156
▁hul	-12.5163
izer	-12.5179
maha	-12.5187
oj	-12.5191
▁wre	-12.5193
▁assistants	-12.5194
▁moda	-12.5197
lecommunications	-12.5219
▁originate	-12.5222
icated	-12.5229
▁seasonal	-12.5236
cross	-12.5241
nonstop	-12.5297
▁kata	-12.5307
▁hiii	-12.5308
terior	-12.5325
▁generat	-12.534
▁advocate	-12.5346
▁convention	-12.5375
egg	-12.5385
▁impos	-12.5392
▁din	-12.5395
diving	-12.5409
flux	-12.5411
▁insert	-12.5414
invest	-12.5416
▁retak	-12.542
▁utilize	-12.5423
▁varie	-12.5423
▁domino	-12.543
▁souvenir	-12.5431
▁suburb	-12.5433
▁civilian	-12.5434
uuu	-12.5439
▁partnership	-12.5439
▁sneaker	-12.544
possible	-12.5445
vision	-12.5448
esteem	-12.5449
present	-12.5449
medical	-12.5449
assuming	-12.545
subscribe	-12.545
productive	-12.545
wellawatte	-12.545
american	-12.545
ahangama	-12.545
chinese	-12.545
reason	-12.545
survey	-12.545
technical	-12.545
cloud	-12.545
dinner	-12.545
unlimited	-12.545
actually	-12.545
better	-12.545
political	-12.545
recommendations	-12.545
immigration	-12.545
specifically	-12.545
control	-12.545
grid	-12.5451
wild	-12.5451
might	-12.5451
great	-12.5451
father	-12.5452
office	-12.5452
feel	-12.5454
▁patch	-12.5457
fair	-12.546
march	-12.5465
phy	-12.5466
▁tack	-12.547
▁employ	-12.547
anka	-12.5474
luma	-12.5476
▁dismiss	-12.548
▁haunt	-12.548
btu	-12.5482
singer	-12.5482
▁vend	-12.5483
▁portray	-12.5484
▁selfie	-12.5485
▁officia	-12.5488
▁cooper	-12.5489
▁overcharge	-12.5489
hub	-12.5491
▁manipulate	-12.5491
▁apparent	-12.5491
▁accompan	-12.5492
▁imperial	-12.5492
▁unofficial	-12.5496
gamuwa	-12.5497
▁basket	-12.5498
▁astronomy	-12.5498
▁belgium	-12.5498
▁egypt	-12.5498
▁merchandise	-12.5498
▁theoretical	-12.5498
.[4]	-12.5498
hygienic	-12.5498
thuwakku	-12.5498
▁advising	-12.5498
▁artifacts	-12.5498
▁batagoda	-12.5498
▁brilliant	-12.5498
▁circumcision	-12.5498
▁condemn	-12.5498
▁crossroads	-12.5498
▁cuttlefish	-12.5498
▁dailymirror	-12.5498
▁dfsk	-12.5498
▁disheartening	-12.5498
▁equipped	-12.5498
▁expansion	-12.5498
▁gregory	-12.5498
▁identified	-12.5498
▁infected	-12.5498
▁marijuana	-12.5498
▁mediocre	-12.5498
▁misogynistic	-12.5498
▁mysterious	-12.5498
▁nuisance	-12.5498
▁overreacting	-12.5498
▁pajero	-12.5498
▁pedestrian	-12.5498
▁pristine	-12.5498
▁puzzle	-12.5498
▁rampant	-12.5498
▁remedy	-12.5498
▁rohitha	-12.5498
▁sarasavi	-12.5498
▁savior	-12.5498
▁striking	-12.5498
▁stroke	-12.5498
▁suffice	-12.5498
▁sympathy	-12.5498
▁traumatized	-12.5498
▁triangle	-12.5498
▁turmeric	-12.5498
▁unattractive	-12.5498
▁uncommon	-12.5498
▁unlucky	-12.5498
▁verdict	-12.5498
▁vinyl	-12.5498
▁vodka	-12.5498
▁wheelchair	-12.5498
▁wrestling	-12.5498
▁zombie	-12.5498
▁zoysa	-12.5498
▁billionaire	-12.5498
▁captivat	-12.5498
▁conquer	-12.5498
▁glorify	-12.5498
▁thunderstorm	-12.5498
▁heritance	-12.5498
▁thugs	-12.5498
▁unusable	-12.5498
▁unveil	-12.5498
▁lancer	-12.5498
▁obese	-12.5498
▁monetize	-12.5498
▁dawn	-12.5498
▁jayawardenepura	-12.5498
▁cringy	-12.5498
▁deaf	-12.5498
▁capabilities	-12.5498
▁hijack	-12.5498
▁kyc	-12.5498
▁demographic	-12.5498
▁prioritise	-12.5498
▁proxy	-12.5498
▁closure	-12.5498
▁creatures	-12.5498
▁shaming	-12.5498
▁hatchback	-12.5498
▁hijab	-12.5498
▁kotthu	-12.5498
▁irrigation	-12.5498
▁dummy	-12.5498
▁abnormal	-12.5498
▁neighbourhood	-12.5498
▁pounds	-12.5498
▁template	-12.5498
▁crore	-12.5498
▁multimedia	-12.5498
▁riverston	-12.5498
▁carved	-12.5498
▁lumpur	-12.5498
▁harmony	-12.5498
▁spoon	-12.5498
▁imposter	-12.5498
▁pothole	-12.5498
▁fishermen	-12.5498
▁guesthouse	-12.5498
▁picnic	-12.5498
▁persistent	-12.5498
▁apology	-12.5498
▁lorry	-12.5498
▁lurk	-12.5498
▁slmc	-12.5498
▁bisexual	-12.5498
▁shallow	-12.5498
▁outgoing	-12.5498
▁wrapper	-12.5499
▁1988/89	-12.5499
▁(2023)	-12.5499
▁liberation	-12.5499
▁commando	-12.5499
▁privet	-12.5499
▁kamala	-12.5499
▁mixture	-12.5499
▁hdmi	-12.5499
▁frizz	-12.5499
▁rational	-12.5499
▁boundary	-12.5499
▁york	-12.5499
▁utilities	-12.5499
▁lakeside	-12.5499
▁baldness	-12.5499
▁webdev	-12.5499
intende	-12.5499
▁capability	-12.5499
▁dropshipping	-12.5499
▁fulfillment	-12.5499
▁fresher	-12.5499
▁adren	-12.5499
▁probation	-12.5499
▁dasun	-12.55
▁gala	-12.55
▁wigs	-12.55
▁cupboard	-12.55
▁brokerage	-12.55
▁revert	-12.55
▁chairman	-12.5501
▁kodi	-12.5501
▁flaws	-12.5501
▁bragging	-12.5501
▁avid	-12.5501
▁xmas	-12.5501
▁hamas	-12.5502
▁weakness	-12.5502
▁petty	-12.5502
▁revision	-12.5502
▁pervert	-12.5502
▁ancestry	-12.5502
▁texture	-12.5503
▁revisit	-12.5503
▁administrator	-12.5503
▁james	-12.5505
▁disturbed	-12.5505
▁5.30	-12.5506
▁violated	-12.5506
▁enforce	-12.5506
▁stitch	-12.5506
▁tinted	-12.5507
▁selective	-12.5508
▁rohan	-12.5508
▁75%	-12.5509
▁overload	-12.551
lpl	-12.5511
▁incorporated	-12.5511
▁vijitha	-12.5511
▁backfire	-12.5511
ideapad	-12.5511
evisa	-12.5511
▁advancements	-12.5512
▁brighter	-12.5512
▁leverage	-12.5512
▁llm	-12.5513
▁cuba	-12.5513
▁jade	-12.5513
chat	-12.5514
▁similarities	-12.5515
lation	-12.5515
▁seekers	-12.5515
▁hardworking	-12.5515
▁steroids	-12.5515
▁irony	-12.5516
▁adore	-12.5518
▁postcard	-12.5518
trix	-12.552
▁tripping	-12.5521
▁incel	-12.5522
route	-12.5523
▁advisory	-12.5523
▁bland	-12.5523
▁reversed	-12.5526
▁restor	-12.5526
▁batches	-12.5527
▁kicker	-12.5527
▁nex	-12.5527
chrom	-12.5528
▁drowning	-12.5529
▁2001	-12.5531
know	-12.5532
▁fame	-12.5533
▁cif	-12.5534
▁3500	-12.5535
▁scammy	-12.5536
▁spain	-12.5536
▁ruppees	-12.5536
▁chino	-12.5537
wavy	-12.5538
▁wannabe	-12.5539
▁25%	-12.554
▁bookstores	-12.5541
▁sudu	-12.5541
▁bind	-12.5541
▁justification	-12.5547
▁described	-12.5548
swissco	-12.5548
▁modify	-12.555
▁tissa	-12.5551
▁careless	-12.5553
▁cookies	-12.5554
bikes	-12.5556
▁roasted	-12.5556
team	-12.5559
▁nano	-12.556
dating	-12.5561
suriya	-12.5563
▁switches	-12.5564
▁coursera	-12.5566
▁cord	-12.5568
▁shadows	-12.5571
▁overstaying	-12.5573
mmy	-12.5573
▁edm	-12.5578
▁egb	-12.5585
▁blender	-12.5585
▁digits	-12.5587
▁tiles	-12.5588
▁conflicted	-12.5591
▁grope	-12.5593
▁representatives	-12.5596
▁photographs	-12.5596
hari	-12.5597
▁tang	-12.5598
gre	-12.56
▁represented	-12.5603
▁protesting	-12.5607
▁attendant	-12.5609
sium	-12.5611
▁outsiders	-12.5623
▁editors	-12.5625
sage	-12.5625
▁playful	-12.5626
▁theaters	-12.5629
▁suitcases	-12.5632
▁technicians	-12.5632
▁downtime	-12.5637
taxi	-12.5639
▁hourly	-12.564
▁margins	-12.5642
▁buns	-12.5648
organised	-12.5662
▁breakdowns	-12.5662
▁crabs	-12.5662
ppl	-12.5663
▁uts	-12.5665
▁cravings	-12.5668
▁correction	-12.567
▁3/4	-12.567
▁ventures	-12.5678
▁printers	-12.5682
▁helpline	-12.5683
▁clips	-12.5692
▁vr	-12.57
▁175	-12.5703
10,000	-12.5708
▁murderer	-12.5708
▁snakes	-12.5708
▁toast	-12.5709
▁sandy	-12.5717
▁decorate	-12.5718
▁tanks	-12.5739
▁kittens	-12.5744
1.8	-12.5746
▁saf	-12.5747
▁digitally	-12.5748
▁kumari	-12.5754
pher	-12.576
▁punishments	-12.576
▁kada	-12.5764
69	-12.5768
▁caves	-12.5775
▁divisions	-12.5775
▁7000	-12.5777
▁kno	-12.5778
▁mason	-12.5781
▁debates	-12.5791
▁subtle	-12.5816
shipping	-12.5823
▁diana	-12.5824
acre	-12.5827
▁gam	-12.5839
deva	-12.5839
eye	-12.5846
▁hats	-12.5865
udge	-12.5866
▁comman	-12.5869
▁sis	-12.5872
▁verse	-12.5874
type	-12.5882
▁kir	-12.5887
▁laksh	-12.5899
▁fw	-12.59
ution	-12.5904
learning	-12.5936
duction	-12.5956
▁kumar	-12.5957
▁quantu	-12.5966
▁bras	-12.5967
▁flyer	-12.5967
▁170	-12.5973
▁pep	-12.5999
correct	-12.604
cola	-12.6063
▁los	-12.6074
▁preserv	-12.6101
cid	-12.6112
▁shorten	-12.6132
tchy	-12.6138
solicit	-12.6142
bull	-12.6144
vat	-12.6154
▁ethic	-12.6159
haza	-12.6166
action	-12.6171
▁57	-12.6178
▁psychiatri	-12.6178
▁breathe	-12.6184
cite	-12.6186
matic	-12.6188
worker	-12.619
▁550	-12.6197
▁pimple	-12.6199
▁principle	-12.62
▁beverage	-12.62
▁operator	-12.62
▁tiger	-12.62
country	-12.6206
asinghe	-12.6212
street	-12.6218
direct	-12.6218
capita	-12.6218
build	-12.6218
chemistry	-12.6218
pleasant	-12.6219
suggest	-12.6219
tangalle	-12.6219
cambridge	-12.6219
possibly	-12.6219
focused	-12.6219
mechanical	-12.6219
politics	-12.6219
citizen	-12.6219
message	-12.6219
second	-12.6219
october	-12.6219
september	-12.6219
younger	-12.6219
shock	-12.6219
repair	-12.6219
expect	-12.6219
anything	-12.6219
program	-12.6219
airport	-12.622
partner	-12.622
important	-12.622
police	-12.622
large	-12.6222
cool	-12.6224
cancel	-12.6232
apart	-12.6234
bury	-12.6235
scam	-12.6236
ltte	-12.6238
▁requir	-12.6238
▁empower	-12.624
fron	-12.6244
surf	-12.6246
▁5.5	-12.6253
quiz	-12.6253
▁throttle	-12.6255
▁locate	-12.6256
pub	-12.626
▁charith	-12.6262
▁capita	-12.6264
▁corpora	-12.6265
psychedelic	-12.6267
▁horizon	-12.6267
▁zephyr	-12.6267
yukthiya	-12.6267
▁acquaintances	-12.6267
▁affidavit	-12.6267
▁awurudu	-12.6267
▁balawegaya	-12.6267
▁centuries	-12.6267
▁cobalt	-12.6267
▁congress	-12.6267
▁crawl	-12.6267
▁cucumber	-12.6267
▁descend	-12.6267
▁dictionary	-12.6267
▁discomfort	-12.6267
▁earthquake	-12.6267
▁emphasis	-12.6267
▁energetic	-12.6267
▁evaluate	-12.6267
▁expiration	-12.6267
▁gunasekara	-12.6267
▁impaired	-12.6267
▁indigenous	-12.6267
▁investigator	-12.6267
▁jazeera	-12.6267
▁linguistic	-12.6267
▁mangrove	-12.6267
▁megathread	-12.6267
▁niladhari	-12.6267
▁omega	-12.6267
▁onlyfans	-12.6267
▁overhyped	-12.6267
▁oversaturated	-12.6267
▁paradox	-12.6267
▁plumber	-12.6267
▁predominantly	-12.6267
▁reservoir	-12.6267
▁rickshaw	-12.6267
▁sabotage	-12.6267
▁scandinavia	-12.6267
▁sembuwatta	-12.6267
▁swarnawahini	-12.6267
▁tolerance	-12.6267
▁unpredictable	-12.6267
▁unsettling	-12.6267
▁videography	-12.6267
▁westminster	-12.6267
▁wickram	-12.6267
▁yoghurt	-12.6267
▁comfy	-12.6267
▁complement	-12.6267
▁cremation	-12.6267
▁dslr	-12.6267
▁eldest	-12.6267
▁enemy	-12.6267
▁kosgoda	-12.6267
▁marathon	-12.6267
▁mercedes	-12.6267
▁prawn	-12.6267
▁prosecut	-12.6267
▁samosa	-12.6267
▁whisper	-12.6267
songwriter	-12.6267
▁baht	-12.6267
▁bdsm	-12.6267
▁elitist	-12.6267
▁pioneer	-12.6267
▁reapply	-12.6267
▁regain	-12.6267
▁caretaker	-12.6267
▁florist	-12.6267
▁issuance	-12.6267
▁discriminating	-12.6267
▁dispens	-12.6267
▁fertilizer	-12.6267
▁interfere	-12.6267
ypetco	-12.6267
▁oven	-12.6267
▁vital	-12.6267
▁melody	-12.6267
▁archeologi	-12.6267
▁ekak	-12.6267
▁brewing	-12.6267
▁appetite	-12.6267
▁surpass	-12.6267
asteride	-12.6267
▁versatile	-12.6267
▁architectural	-12.6267
▁doomed	-12.6267
▁routing	-12.6267
▁cheesecake	-12.6267
▁isolation	-12.6267
▁gamble	-12.6267
▁mortal	-12.6267
▁plunge	-12.6267
▁richard	-12.6267
▁absent	-12.6267
▁detour	-12.6267
▁itenary	-12.6267
▁shanaka	-12.6267
sarong	-12.6267
▁cramp	-12.6267
▁bella	-12.6267
minimize	-12.6267
▁spacious	-12.6267
▁socket	-12.6267
▁bengali	-12.6267
▁resilience	-12.6268
▁bloat	-12.6268
▁moham	-12.6268
▁disgraceful	-12.6268
▁barbershop	-12.6268
▁pornography	-12.6268
▁tiff	-12.6268
▁miniature	-12.6268
▁ndt	-12.6268
▁shutdown	-12.6268
▁shaping	-12.6268
▁belongings	-12.6268
▁kovil	-12.6268
▁shove	-12.6268
▁tractor	-12.6268
▁hcl	-12.6268
▁minimalist	-12.6268
▁arabic	-12.6269
▁collectible	-12.6269
▁minimalistic	-12.6269
▁cutlets	-12.6269
▁persue	-12.6269
▁baggy	-12.6269
▁gigab	-12.6269
▁260	-12.6269
eheliya	-12.6269
▁exaggerated	-12.6269
▁embarrassment	-12.6269
▁1948	-12.6269
▁refill	-12.6269
▁greenware	-12.627
▁dentistry	-12.627
▁lighthouse	-12.627
rissa	-12.627
▁restore	-12.627
▁handbag	-12.627
encies	-12.627
▁apex	-12.627
▁collagen	-12.627
▁cubes	-12.627
▁preschool	-12.627
▁lyricist	-12.6271
lakhs	-12.6271
▁navigation	-12.6271
▁passikud	-12.6272
▁codegen	-12.6272
▁prayers	-12.6272
▁60%	-12.6272
▁speedtest	-12.6272
▁prosper	-12.6272
▁sanity	-12.6272
4/5	-12.6273
▁airasia	-12.6273
mprais	-12.6273
▁cpc	-12.6273
▁250,000	-12.6273
7,000	-12.6273
▁federal	-12.6274
hoc	-12.6274
▁judgmental	-12.6274
▁configuration	-12.6275
▁huh	-12.6275
▁deprived	-12.6275
▁crackers	-12.6275
▁evolved	-12.6275
▁1960	-12.6275
▁regulated	-12.6276
every	-12.6276
▁acre	-12.6276
▁immigrated	-12.6276
▁ruby	-12.6277
▁darkness	-12.6277
▁discriminated	-12.6277
▁katubedda	-12.6277
▁dice	-12.6278
▁6-8	-12.6278
▁bcas	-12.6278
▁6:30	-12.6278
▁raider	-12.6279
▁bible	-12.6279
▁deem	-12.6279
▁ponder	-12.6279
▁hospitalized	-12.628
▁dataset	-12.628
▁alex	-12.628
park	-12.628
▁discouraged	-12.6281
kmph	-12.6282
▁5:30	-12.6282
▁idealz	-12.6282
▁deported	-12.6282
▁coaches	-12.6282
▁fries	-12.6282
▁launches	-12.6282
▁citr	-12.6283
▁distracting	-12.6284
▁stationary	-12.6285
▁excursions	-12.6287
▁;(	-12.6288
▁dvd	-12.6288
▁oop	-12.629
▁accomplished	-12.629
development	-12.6291
▁cartridges	-12.6292
▁freeloaders	-12.6292
▁warriors	-12.6292
▁quickest	-12.6292
▁lice	-12.6292
▁hydro	-12.6292
▁cleanup	-12.6292
▁landmarks	-12.6293
alph	-12.6294
▁biometric	-12.6295
▁lick	-12.6295
▁curd	-12.6296
▁subsidi	-12.6297
▁decreased	-12.6298
▁40+	-12.6298
▁franchise	-12.6299
▁unjust	-12.6299
▁daylight	-12.63
▁obligations	-12.6303
▁castle	-12.6304
clockwise	-12.6305
assis	-12.6305
▁output	-12.6307
muthu	-12.6307
▁headlights	-12.6308
thota	-12.631
▁pouring	-12.6311
▁trailer	-12.6312
▁stereotypes	-12.6313
fil	-12.6315
▁exempted	-12.6315
▁7,000	-12.6317
▁heets	-12.6319
▁colder	-12.6319
▁migraines	-12.6319
courses	-12.6321
▁oman	-12.6322
▁cashews	-12.6324
▁devil	-12.6325
eum	-12.6327
▁exes	-12.6327
▁adverts	-12.633
psychotic	-12.633
▁bathing	-12.6333
amaya	-12.6333
duwa	-12.6333
▁villain	-12.6334
▁drums	-12.6336
▁commuter	-12.6336
▁balding	-12.6337
▁coating	-12.634
4,000	-12.6341
▁partnerships	-12.6341
resistant	-12.6345
▁kbps	-12.6345
▁brackets	-12.6346
▁touristic	-12.6347
▁firearms	-12.6352
▁crashing	-12.6353
▁rolex	-12.6357
▁chopp	-12.6357
▁richer	-12.6357
hena	-12.6358
▁withdrawn	-12.6366
▁individually	-12.6371
▁quicker	-12.6373
▁chefs	-12.6374
▁reconsider	-12.6374
▁raves	-12.6375
▁bund	-12.6376
▁chained	-12.6377
▁clowns	-12.6379
▁20+	-12.6389
ncil	-12.639
▁honours	-12.6392
▁stark	-12.6397
▁breathing	-12.6401
▁interacting	-12.641
▁planners	-12.6412
▁bns	-12.6417
▁honesty	-12.6421
▁demon	-12.6422
▁09	-12.6427
▁nerds	-12.6429
▁largely	-12.6429
quit	-12.6432
web	-12.6432
tched	-12.6435
▁scans	-12.6436
amming	-12.6438
rti	-12.6449
▁accomodations	-12.6451
▁woodwork	-12.6461
▁ukrainians	-12.6462
▁temperatures	-12.6462
▁powdered	-12.6464
▁georgia	-12.6466
▁pakistanis	-12.647
▁nicest	-12.6473
▁depreciate	-12.6478
dicated	-12.6478
▁fonts	-12.6479
▁ials	-12.6505
graphic	-12.6505
▁dun	-12.6508
6,000	-12.6514
▁btec	-12.6517
siness	-12.6526
sale	-12.6529
hut	-12.6537
125	-12.6548
▁selv	-12.6555
5.6	-12.6585
▁revolve	-12.6589
▁jay	-12.659
doubted	-12.6609
usually	-12.6618
▁damb	-12.662
▁ankle	-12.6636
[...]
