{
  "version": "1.0",
  "truncation": null,
  "padding": null,
  "added_tokens": [
    {
      "id": 0,
      "content": "[UNK]",
      "single_word": false,
      "lstrip": false,
      "rstrip": false,
      "normalized": false,
      "special": true
    },
    {
      "id": 1,
      "content": "[PAD]",
      "single_word": false,
      "lstrip": false,
      "rstrip": false,
      "normalized": false,
      "special": true
    },
    {
      "id": 2,
      "content": "[CLS]",
      "single_word": false,
      "lstrip": false,
      "rstrip": false,
      "normalized": false,
      "special": true
    },
    {
      "id": 3,
      "content": "[SEP]",
      "single_word": false,
      "lstrip": false,
      "rstrip": false,
      "normalized": false,
      "special": true
    },
    {
      "id": 4,
      "content": "[MASK]",
      "single_word": false,
      "lstrip": false,
      "rstrip": false,
      "normalized": false,
      "special": true
    }
  ],
  "normalizer": {
    "type": "Sequence",
    "normalizers": [
      {
        "type": "Strip",
        "strip_left": true,
        "strip_right": true
      },
      {
        "type": "Lowercase"
      }
    ]
  },
  "pre_tokenizer": {
    "type": "Whitespace"
  },
  "post_processor": null,
  "decoder": null,
  "model": {
    "type": "WordPiece",
    "unk_token": "[UNK]",
    "continuing_subword_prefix": "##",
    "max_input_chars_per_word": 100,
    "vocab": {
      "[UNK]": 0,
      "[PAD]": 1,
      "[CLS]": 2,
      "[SEP]": 3,
      "[MASK]": 4,
      "!": 5,
      "\"": 6,
      "#": 7,
      "$": 8,
      "%": 9,
      "&": 10,
      "'": 11,
      "(": 12,
      ")": 13,
      "*": 14,
      "+": 15,
      ",": 16,
      "-": 17,
      ".": 18,
      "/": 19,
      "0": 20,
      "1": 21,
      "2": 22,
      "3": 23,
      "4": 24,
      "5": 25,
      "6": 26,
      "7": 27,
      "8": 28,
      "9": 29,
      ":": 30,
      ";": 31,
      "<": 32,
      "=": 33,
      ">": 34,
      "?": 35,
      "@": 36,
      "[": 37,
      "\\": 38,
      "]": 39,
      "^": 40,
      "_": 41,
      "`": 42,
      "a": 43,
      "b": 44,
      "c": 45,
      "d": 46,
      "e": 47,
      "f": 48,
      "g": 49,
      "h": 50,
      "i": 51,
      "j": 52,
      "k": 53,
      "l": 54,
      "m": 55,
      "n": 56,
      "o": 57,
      "p": 58,
      "q": 59,
      "r": 60,
      "s": 61,
      "t": 62,
      "u": 63,
      "v": 64,
      "w": 65,
      "x": 66,
      "y": 67,
      "z": 68,
      "{": 69,
      "|": 70,
      "}": 71,
      "~": 72,
      "£": 73,
      "©": 74,
      "«": 75,
      "¬": 76,
      "®": 77,
      "°": 78,
      "·": 79,
      "»": 80,
      "¿": 81,
      "×": 82,
      "à": 83,
      "á": 84,
      "ã": 85,
      "ä": 86,
      "æ": 87,
      "ç": 88,
      "è": 89,
      "é": 90,
      "ê": 91,
      "í": 92,
      "ï": 93,
      "ñ": 94,
      "ò": 95,
      "ó": 96,
      "ô": 97,
      "õ": 98,
      "ö": 99,
      "÷": 100,
      "ú": 101,
      "ü": 102,
      "ā": 103,
      "ī": 104,
      "ō": 105,
      "ŏ": 106,
      "ś": 107,
      "ū": 108,
      "ˇ": 109,
      "́": 110,
      "̄": 111,
      "̇": 112,
      "ά": 113,
      "α": 114,
      "β": 115,
      "κ": 116,
      "λ": 117,
      "μ": 118,
      "ν": 119,
      "τ": 120,
      "ا": 121,
      "ب": 122,
      "ت": 123,
      "خ": 124,
      "د": 125,
      "ز": 126,
      "س": 127,
      "ع": 128,
      "ف": 129,
      "ك": 130,
      "ل": 131,
      "م": 132,
      "ن": 133,
      "ه": 134,
      "ي": 135,
      "ं": 136,
      "आ": 137,
      "उ": 138,
      "क": 139,
      "ज": 140,
      "ट": 141,
      "ड": 142,
      "ण": 143,
      "त": 144,
      "द": 145,
      "ध": 146,
      "न": 147,
      "प": 148,
      "ब": 149,
      "भ": 150,
      "म": 151,
      "य": 152,
      "र": 153,
      "ल": 154,
      "व": 155,
      "श": 156,
      "ष": 157,
      "स": 158,
      "ह": 159,
      "ा": 160,
      "ि": 161,
      "ी": 162,
      "ु": 163,
      "ू": 164,
      "े": 165,
      "ै": 166,
      "ो": 167,
      "्": 168,
      "।": 169,
      "আ": 170,
      "ক": 171,
      "চ": 172,
      "ট": 173,
      "ড": 174,
      "ন": 175,
      "প": 176,
      "ফ": 177,
      "র": 178,
      "ল": 179,
      "া": 180,
      "ি": 181,
      "ে": 182,
      "্": 183,
      "அ": 184,
      "ஆ": 185,
      "இ": 186,
      "ஈ": 187,
      "உ": 188,
      "எ": 189,
      "ஏ": 190,
      "ஒ": 191,
      "க": 192,
      "ங": 193,
      "ச": 194,
      "ட": 195,
      "ண": 196,
      "த": 197,
      "ந": 198,
      "ன": 199,
      "ப": 200,
      "ம": 201,
      "ய": 202,
      "ர": 203,
      "ற": 204,
      "ல": 205,
      "ள": 206,
      "ழ": 207,
      "வ": 208,
      "ஷ": 209,
      "ஸ": 210,
      "ஹ": 211,
      "ா": 212,
      "ி": 213,
      "ீ": 214,
      "ு": 215,
      "ூ": 216,
      "ெ": 217,
      "ே": 218,
      "ை": 219,
      "ொ": 220,
      "ோ": 221,
      "்": 222,
      "ಠ": 223,
      "ං": 224,
      "අ": 225,
      "ආ": 226,
      "ඇ": 227,
      "ඉ": 228,
      "උ": 229,
      "ඏ": 230,
      "ඐ": 231,
      "එ": 232,
      "ඒ": 233,
      "ඔ": 234,
      "ඕ": 235,
      "ක": 236,
      "ඛ": 237,
      "ග": 238,
      "ච": 239,
      "ජ": 240,
      "ට": 241,
      "ඩ": 242,
      "ණ": 243,
      "ත": 244,
      "ද": 245,
      "ධ": 246,
      "න": 247,
      "ඳ": 248,
      "ප": 249,
      "බ": 250,
      "භ": 251,
      "ම": 252,
      "ඹ": 253,
      "ය": 254,
      "ර": 255,
      "ල": 256,
      "ව": 257,
      "ශ": 258,
      "ෂ": 259,
      "ස": 260,
      "හ": 261,
      "ළ": 262,
      "ෆ": 263,
      "්": 264,
      "ා": 265,
      "ැ": 266,
      "ෑ": 267,
      "ි": 268,
      "ී": 269,
      "ු": 270,
      "ෘ": 271,
      "ෙ": 272,
      "ේ": 273,
      "ො": 274,
      "ෝ": 275,
      "ෞ": 276,
      "෧": 277,
      "෨": 278,
      "෩": 279,
      "෬": 280,
      "෭": 281,
      "෮": 282,
      "෯": 283,
      "෴": 284,
      "໖": 285,
      "ི": 286,
      "ྀ": 287,
      "ᄀ": 288,
      "ሁ": 289,
      "ለ": 290,
      "ላ": 291,
      "መ": 292,
      "ም": 293,
      "ሰ": 294,
      "ና": 295,
      "አ": 296,
      "ግ": 297,
      "ḷ": 298,
      "ḻ": 299,
      "ṁ": 300,
      "ṃ": 301,
      "ṅ": 302,
      "ṇ": 303,
      "ṉ": 304,
      "ṟ": 305,
      "ṭ": 306,
      "​": 307,
      "‒": 308,
      "―": 309,
      "‚": 310,
      "„": 311,
      "•": 312,
      "′": 313,
      "‿": 314,
      "⁄": 315,
      "₦": 316,
      "€": 317,
      "₹": 318,
      "⃣": 319,
      "→": 320,
      "↔": 321,
      "↕": 322,
      "≈": 323,
      "⌚": 324,
      "⌛": 325,
      "⎯": 326,
      "⏰": 327,
      "##h": 328,
      "##i": 329,
      "##b": 330,
      "##e": 331,
      "##n": 332,
      "##r": 333,
      "##o": 334,
      "##c": 335,
      "##t": 336,
      "##1": 337,
      "##6": 338,
      "##d": 339,
      "##u": 340,
      "##l": 341,
      "##p": 342,
      "##k": 343,
      "##m": 344,
      "##s": 345,
      "##a": 346,
      "##x": 347,
      "##7": 348,
      "##j": 349,
      "##g": 350,
      "##y": 351,
      "##w": 352,
      "##3": 353,
      "##9": 354,
      "##0": 355,
      "##8": 356,
      "##f": 357,
      "##v": 358,
      "##2": 359,
      "##5": 360,
      "##q": 361,
      "##z": 362,
      "##ැ": 363,
      "##ප": 364,
      "##්": 365,
      "##ට": 366,
      "##ො": 367,
      "##.": 368,
      "##ர": 369,
      "##ோ": 370,
      "##ப": 371,
      "##ண": 372,
      "##ய": 373,
      "##க": 374,
      "##்": 375,
      "##ර": 376,
      "##ී": 377,
      "##ක": 378,
      "##ෂ": 379,
      "##ව": 380,
      "##ු": 381,
      "##න": 382,
      "##è": 383,
      "##4": 384,
      "##ல": 385,
      "##ங": 386,
      "##ை": 387,
      "##ේ": 388,
      "##,": 389,
      "##õ": 390,
      "##ி": 391,
      "##:": 392,
      "##)": 393,
      "##ு": 394,
      "##ற": 395,
      "##ட": 396,
      "##த": 397,
      "##வ": 398,
      "##ள": 399,
      "##ே": 400,
      "##$": 401,
      "##\"": 402,
      "##ා": 403,
      "##ම": 404,
      "##/": 405,
      "##-": 406,
      "##+": 407,
      "##ف": 408,
      "##ي": 409,
      "##ب": 410,
      "##ن": 411,
      "##ز": 412,
      "##ල": 413,
      "##ි": 414,
      "##(": 415,
      "###": 416,
      "##*": 417,
      "##ෑ": 418,
      "##ග": 419,
      "##ය": 420,
      "##ú": 421,
      "##@": 422,
      "##£": 423,
      "##ம": 424,
      "##ா": 425,
      "##ன": 426,
      "##ந": 427,
      "##?": 428,
      "##¿": 429,
      "##'": 430,
      "##_": 431,
      "##ै": 432,
      "##ं": 433,
      "##ि": 434,
      "##स": 435,
      "##म": 436,
      "##े": 437,
      "##ீ": 438,
      "##ூ": 439,
      "##&": 440,
      "##ा": 441,
      "##]": 442,
      "##>": 443,
      "##໖": 444,
      "##<": 445,
      "##ෝ": 446,
      "##ã": 447,
      "##ö": 448,
      "##ණ": 449,
      "##ඩ": 450,
      "##!": 451,
      "##|": 452,
      "##ද": 453,
      "##බ": 454,
      "##ෙ": 455,
      "##ā": 456,
      "##ත": 457,
      "##[": 458,
      "##é": 459,
      "##श": 460,
      "##्": 461,
      "##र": 462,
      "##ो": 463,
      "##س": 464,
      "##ت": 465,
      "##ك": 466,
      "##ह": 467,
      "##आ": 468,
      "##द": 469,
      "##හ": 470,
      "##ெ": 471,
      "##य": 472,
      "##ण": 473,
      "##ழ": 474,
      "##ස": 475,
      "##ू": 476,
      "##न": 477,
      "##ब": 478,
      "##=": 479,
      "##্": 480,
      "##র": 481,
      "##ি": 482,
      "##;": 483,
      "##ó": 484,
      "##ொ": 485,
      "##ô": 486,
      "##\\": 487,
      "##ི": 488,
      "##ྀ": 489,
      "##ü": 490,
      "##ச": 491,
      "##प": 492,
      "##ඳ": 493,
      "##ශ": 494,
      "##ṁ": 495,
      "##ī": 496,
      "##ल": 497,
      "##ṭ": 498,
      "##{": 499,
      "##ඹ": 500,
      "##ṅ": 501,
      "##í": 502,
      "##ع": 503,
      "##ل": 504,
      "##ا": 505,
      "##≈": 506,
      "##ে": 507,
      "##ক": 508,
      "##আ": 509,
      "##প": 510,
      "##ළ": 511,
      "##α": 512,
      "##τ": 513,
      "##ν": 514,
      "##~": 515,
      "##%": 516,
      "##æ": 517,
      "##ධ": 518,
      "##क": 519,
      "##ष": 520,
      "##á": 521,
      "##ñ": 522,
      "##ላ": 523,
      "##ም": 524,
      "##ஈ": 525,
      "##د": 526,
      "##ज": 527,
      "##`": 528,
      "##ी": 529,
      "##}": 530,
      "##₹": 531,
      "##λ": 532,
      "##ά": 533,
      "##κ": 534,
      "##ç": 535,
      "##ṃ": 536,
      "##​": 537,
      "##ä": 538,
      "##ु": 539,
      "##ஷ": 540,
      "##त": 541,
      "##à": 542,
      "##ê": 543,
      "##¬": 544,
      "##ū": 545,
      "##ō": 546,
      "##ट": 547,
      "##भ": 548,
      "##ෞ": 549,
      "##ඛ": 550,
      "##ه": 551,
      "##ං": 552,
      "##व": 553,
      "##ï": 554,
      "##̇": 555,
      "##ජ": 556,
      "##ෘ": 557,
      "##ṇ": 558,
      "##ध": 559,
      "##መ": 560,
      "##ሰ": 561,
      "##ግ": 562,
      "##ና": 563,
      "##ለ": 564,
      "##ሁ": 565,
      "##‿": 566,
      "##ஹ": 567,
      "##ò": 568,
      "##ड": 569,
      "##′": 570,
      "##ন": 571,
      "##ট": 572,
      "##া": 573,
      "##ল": 574,
      "##ḷ": 575,
      "th": 576,
      "##in": 577,
      "##er": 578,
      "##an": 579,
      "##ing": 580,
      "##on": 581,
      "##ou": 582,
      "the": 583,
      "##at": 584,
      "an": 585,
      "##or": 586,
      "##en": 587,
      "##es": 588,
      "to": 589,
      "in": 590,
      "##ed": 591,
      "##om": 592,
      "##ar": 593,
      "##it": 594,
      "##al": 595,
      "and": 596,
      "##ri": 597,
      "is": 598,
      "##re": 599,
      "##is": 600,
      "wh": 601,
      "##el": 602,
      "##ot": 603,
      "##as": 604,
      "for": 605,
      "##ic": 606,
      "##le": 607,
      "##ow": 608,
      "##ion": 609,
      "##et": 610,
      "##ve": 611,
      "of": 612,
      "##ank": 613,
      "##ent": 614,
      "##ly": 615,
      "##st": 616,
      "it": 617,
      "##ec": 618,
      "on": 619,
      "##ut": 620,
      "ha": 621,
      "do": 622,
      "##ay": 623,
      "you": 624,
      "##il": 625,
      "##ac": 626,
      "any": 627,
      "sri": 628,
      "##oo": 629,
      "st": 630,
      "##ere": 631,
      "lank": 632,
      "be": 633,
      "my": 634,
      "not": 635,
      "##ld": 636,
      "have": 637,
      "##id": 638,
      "##am": 639,
      "##one": 640,
      "are": 641,
      "am": 642,
      "this": 643,
      "##ith": 644,
      "##ur": 645,
      "##ver": 646,
      "##ol": 647,
      "##est": 648,
      "##se": 649,
      "or": 650,
      "with": 651,
      "##ke": 652,
      "that": 653,
      "re": 654,
      "##ig": 655,
      "##ir": 656,
      "lanka": 657,
      "al": 658,
      "##th": 659,
      "##ce": 660,
      "##ad": 661,
      "##ould": 662,
      "sh": 663,
      "what": 664,
      "li": 665,
      "##ter": 666,
      "##ro": 667,
      "##ation": 668,
      "me": 669,
      "##ome": 670,
      "can": 671,
      "##ch": 672,
      "##pp": 673,
      "ne": 674,
      "we": 675,
      "as": 676,
      "so": 677,
      "##im": 678,
      "##king": 679,
      "fr": 680,
      "but": 681,
      "tr": 682,
      "##ill": 683,
      "##oun": 684,
      "ab": 685,
      "##op": 686,
      "ex": 687,
      "pl": 688,
      "from": 689,
      "##end": 690,
      "su": 691,
      "##out": 692,
      "if": 693,
      "some": 694,
      "##ust": 695,
      "bu": 696,
      "how": 697,
      "##ers": 698,
      "##ear": 699,
      "ch": 700,
      "##ant": 701,
      "kn": 702,
      "##ht": 703,
      "com": 704,
      "get": 705,
      "un": 706,
      "##ess": 707,
      "at": 708,
      "know": 709,
      "##ag": 710,
      "##and": 711,
      "##ul": 712,
      "##ally": 713,
      "like": 714,
      "con": 715,
      "##ate": 716,
      "pro": 717,
      "wor": 718,
      "##ct": 719,
      "there": 720,
      "##ood": 721,
      "was": 722,
      "about": 723,
      "ad": 724,
      "would": 725,
      "##bo": 726,
      "##ort": 727,
      "they": 728,
      "go": 729,
      "##em": 730,
      "col": 731,
      "##ell": 732,
      "##ab": 733,
      "se": 734,
      "rec": 735,
      "anyone": 736,
      "he": 737,
      "en": 738,
      "##ost": 739,
      "##ice": 740,
      "##ain": 741,
      "de": 742,
      "exp": 743,
      "##ombo": 744,
      "##ment": 745,
      "##ind": 746,
      "will": 747,
      "us": 748,
      "##ity": 749,
      "##art": 750,
      "good": 751,
      "##un": 752,
      "colombo": 753,
      "app": 754,
      "your": 755,
      "loo": 756,
      "##ore": 757,
      "##ine": 758,
      "just": 759,
      "who": 760,
      "##ight": 761,
      "##ies": 762,
      "##if": 763,
      "##oug": 764,
      "all": 765,
      "##ap": 766,
      "sp": 767,
      "need": 768,
      "ar": 769,
      "##ect": 770,
      "fe": 771,
      "lo": 772,
      "gu": 773,
      "##ard": 774,
      "##ud": 775,
      "pe": 776,
      "##ound": 777,
      "want": 778,
      "##us": 779,
      "has": 780,
      "##ack": 781,
      "##ist": 782,
      "lankan": 783,
      "hel": 784,
      "sl": 785,
      "##ci": 786,
      "##os": 787,
      "adv": 788,
      "##ount": 789,
      "out": 790,
      "##av": 791,
      "##ions": 792,
      "help": 793,
      "plac": 794,
      "##ake": 795,
      "le": 796,
      "tim": 797,
      "##her": 798,
      "where": 799,
      "##ase": 800,
      "##ip": 801,
      "comp": 802,
      "##ys": 803,
      "peop": 804,
      "##ays": 805,
      "##all": 806,
      "##der": 807,
      "does": 808,
      "looking": 809,
      "##ive": 810,
      "people": 811,
      "##ry": 812,
      "##eri": 813,
      "up": 814,
      "##are": 815,
      "##ence": 816,
      "one": 817,
      "qu": 818,
      "im": 819,
      "##ations": 820,
      "##ast": 821,
      "here": 822,
      "buy": 823,
      "af": 824,
      "year": 825,
      "time": 826,
      "##pt": 827,
      "ac": 828,
      "ever": 829,
      "##00": 830,
      "##um": 831,
      "##able": 832,
      "ev": 833,
      "cl": 834,
      "##ob": 835,
      "inter": 836,
      "##ge": 837,
      "##age": 838,
      "##ance": 839,
      "##iv": 840,
      "..": 841,
      "work": 842,
      "vis": 843,
      "##so": 844,
      "##omm": 845,
      "by": 846,
      "when": 847,
      "##ink": 848,
      "pri": 849,
      "##ich": 850,
      "##ass": 851,
      "##ree": 852,
      "oth": 853,
      "##ue": 854,
      "thank": 855,
      "##our": 856,
      "##fer": 857,
      "now": 858,
      "sa": 859,
      "##ia": 860,
      "been": 861,
      "no": 862,
      "best": 863,
      "##ame": 864,
      "recomm": 865,
      "stud": 866,
      "recommend": 867,
      "##ous": 868,
      "##ide": 869,
      "man": 870,
      "every": 871,
      "##ated": 872,
      "should": 873,
      "which": 874,
      "##ong": 875,
      "##ak": 876,
      "##ure": 877,
      "##riend": 878,
      "also": 879,
      "##hing": 880,
      "##ning": 881,
      "them": 882,
      "##port": 883,
      "##ans": 884,
      "experi": 885,
      "find": 886,
      "pr": 887,
      "their": 888,
      "sin": 889,
      "did": 890,
      "guys": 891,
      "ple": 892,
      "rel": 893,
      "even": 894,
      "other": 895,
      "##ough": 896,
      "##au": 897,
      "please": 898,
      "new": 899,
      "##gg": 900,
      "##ber": 901,
      "res": 902,
      "around": 903,
      "##ently": 904,
      "ph": 905,
      "##ting": 906,
      "hi": 907,
      "##ail": 908,
      "why": 909,
      "br": 910,
      "mon": 911,
      "bec": 912,
      "##ult": 913,
      "##ck": 914,
      "##ving": 915,
      "these": 916,
      "friend": 917,
      "after": 918,
      "uni": 919,
      "##ble": 920,
      "##act": 921,
      "got": 922,
      "mu": 923,
      "##vers": 924,
      "advice": 925,
      "place": 926,
      "##fe": 927,
      "gr": 928,
      "pre": 929,
      "##ents": 930,
      "20": 931,
      "##ite": 932,
      "##od": 933,
      "sc": 934,
      "##ely": 935,
      "much": 936,
      "think": 937,
      "really": 938,
      "##ach": 939,
      "eng": 940,
      "count": 941,
      "more": 942,
      "int": 943,
      "id": 944,
      "##og": 945,
      "##ie": 946,
      "mar": 947,
      "pay": 948,
      "acc": 949,
      "could": 950,
      "thing": 951,
      "see": 952,
      "our": 953,
      "##ause": 954,
      "trav": 955,
      "ind": 956,
      "##ought": 957,
      "she": 958,
      "ag": 959,
      "##ish": 960,
      "start": 961,
      "##ary": 962,
      "had": 963,
      "##ial": 964,
      "day": 965,
      "##ks": 966,
      "feel": 967,
      "cur": 968,
      "only": 969,
      "part": 970,
      "##ile": 971,
      "her": 972,
      "plan": 973,
      "##ign": 974,
      "##ces": 975,
      "el": 976,
      "month": 977,
      "##omet": 978,
      "over": 979,
      "##ff": 980,
      "##ick": 981,
      "##orm": 982,
      "somet": 983,
      "tri": 984,
      "someone": 985,
      "bus": 986,
      "##aw": 987,
      "back": 988,
      "job": 989,
      "off": 990,
      "deg": 991,
      "##line": 992,
      "bet": 993,
      "because": 994,
      "thanks": 995,
      "dis": 996,
      "too": 997,
      "act": 998,
      "##iz": 999,
      "##ub": 1000,
      "experience": 1001,
      "##ical": 1002,
      "cont": 1003,
      "op": 1004,
      "##ery": 1005,
      "##pl": 1006,
      "##ang": 1007,
      "most": 1008,
      "going": 1009,
      "loc": 1010,
      "##ying": 1011,
      "par": 1012,
      "fir": 1013,
      "##reat": 1014,
      "car": 1015,
      "curr": 1016,
      "pers": 1017,
      "make": 1018,
      "##ep": 1019,
      "##du": 1020,
      "visit": 1021,
      "sugg": 1022,
      "##ala": 1023,
      "suggest": 1024,
      "##ath": 1025,
      "##ose": 1026,
      "##hip": 1027,
      "country": 1028,
      "per": 1029,
      "places": 1030,
      "##qu": 1031,
      "##ens": 1032,
      "##irl": 1033,
      "##ily": 1034,
      "##ax": 1035,
      "dec": 1036,
      "ser": 1037,
      "##own": 1038,
      "post": 1039,
      "travel": 1040,
      "degree": 1041,
      "##ool": 1042,
      "##day": 1043,
      "under": 1044,
      "inc": 1045,
      "mo": 1046,
      "way": 1047,
      "##oin": 1048,
      "something": 1049,
      "online": 1050,
      "first": 1051,
      "##oney": 1052,
      "##ft": 1053,
      "years": 1054,
      "univers": 1055,
      "intern": 1056,
      "person": 1057,
      "thought": 1058,
      "comm": 1059,
      "sch": 1060,
      "hear": 1061,
      "take": 1062,
      "happ": 1063,
      "##reci": 1064,
      "ide": 1065,
      "quest": 1066,
      "te": 1067,
      "##thing": 1068,
      "well": 1069,
      "cons": 1070,
      "appreci": 1071,
      "##dit": 1072,
      "reg": 1073,
      "co": 1074,
      "cr": 1075,
      "pol": 1076,
      "girl": 1077,
      "##lank": 1078,
      "into": 1079,
      "money": 1080,
      "compan": 1081,
      "dri": 1082,
      "inf": 1083,
      "##other": 1084,
      "##ked": 1085,
      "let": 1086,
      "##vel": 1087,
      "recommendations": 1088,
      "days": 1089,
      "use": 1090,
      "thr": 1091,
      "##atch": 1092,
      "than": 1093,
      "##gr": 1094,
      "pass": 1095,
      "##ities": 1096,
      "still": 1097,
      "srilank": 1098,
      "##not": 1099,
      "life": 1100,
      "fi": 1101,
      "wee": 1102,
      "##ering": 1103,
      "everyone": 1104,
      "iss": 1105,
      "##ade": 1106,
      "cannot": 1107,
      "very": 1108,
      "were": 1109,
      "str": 1110,
      "since": 1111,
      "##ments": 1112,
      "few": 1113,
      "doing": 1114,
      "##ace": 1115,
      "fam": 1116,
      "##ors": 1117,
      "##ific": 1118,
      "fin": 1119,
      "##ating": 1120,
      "sub": 1121,
      "ro": 1122,
      "getting": 1123,
      "bank": 1124,
      "pos": 1125,
      "love": 1126,
      ").": 1127,
      "med": 1128,
      "##fore": 1129,
      "##na": 1130,
      "##ya": 1131,
      "say": 1132,
      "inv": 1133,
      "##ful": 1134,
      "##ire": 1135,
      "his": 1136,
      "sm": 1137,
      "em": 1138,
      "##xt": 1139,
      "boo": 1140,
      "gen": 1141,
      "trans": 1142,
      "call": 1143,
      "hig": 1144,
      "local": 1145,
      "serv": 1146,
      "old": 1147,
      "through": 1148,
      "opt": 1149,
      "ins": 1150,
      "ke": 1151,
      "being": 1152,
      "engine": 1153,
      "##pport": 1154,
      "kand": 1155,
      "before": 1156,
      "friends": 1157,
      "##ild": 1158,
      "long": 1159,
      "##ics": 1160,
      "inst": 1161,
      "tw": 1162,
      "university": 1163,
      "many": 1164,
      "down": 1165,
      "202": 1166,
      "sinh": 1167,
      "dif": 1168,
      "et": 1169,
      "sim": 1170,
      "kandy": 1171,
      "##oth": 1172,
      "dr": 1173,
      "hey": 1174,
      "rem": 1175,
      "things": 1176,
      "##per": 1177,
      "better": 1178,
      "##lect": 1179,
      "planning": 1180,
      "##si": 1181,
      "##ss": 1182,
      "##aking": 1183,
      "sal": 1184,
      "ear": 1185,
      "tax": 1186,
      "bas": 1187,
      "then": 1188,
      "##iness": 1189,
      "##ually": 1190,
      "##ord": 1191,
      "##ket": 1192,
      "won": 1193,
      "seem": 1194,
      "school": 1195,
      "its": 1196,
      "while": 1197,
      "##up": 1198,
      "visa": 1199,
      "without": 1200,
      "##get": 1201,
      "##ved": 1202,
      "used": 1203,
      "##elf": 1204,
      "lot": 1205,
      "##ual": 1206,
      "bl": 1207,
      "bo": 1208,
      "him": 1209,
      "sit": 1210,
      "may": 1211,
      "card": 1212,
      "##rist": 1213,
      "##oup": 1214,
      "care": 1215,
      "fl": 1216,
      "##bs": 1217,
      "tou": 1218,
      "##wn": 1219,
      "kind": 1220,
      "working": 1221,
      "##ts": 1222,
      "??": 1223,
      "account": 1224,
      "same": 1225,
      "##cial": 1226,
      "av": 1227,
      "business": 1228,
      "right": 1229,
      "##lic": 1230,
      "give": 1231,
      "##ational": 1232,
      "advance": 1233,
      "##ange": 1234,
      "interest": 1235,
      "##ech": 1236,
      "pur": 1237,
      "recently": 1238,
      "family": 1239,
      "srilanka": 1240,
      "those": 1241,
      "wonder": 1242,
      "##enc": 1243,
      "sur": 1244,
      "anything": 1245,
      "bud": 1246,
      "lear": 1247,
      "tal": 1248,
      "##ty": 1249,
      "##cess": 1250,
      "currently": 1251,
      "##ian": 1252,
      "spec": 1253,
      "min": 1254,
      "##la": 1255,
      "stay": 1256,
      "red": 1257,
      "att": 1258,
      "happen": 1259,
      "air": 1260,
      "##air": 1261,
      "pack": 1262,
      "two": 1263,
      "trying": 1264,
      "##ress": 1265,
      "##ware": 1266,
      "question": 1267,
      "##ason": 1268,
      "##oll": 1269,
      "again": 1270,
      "said": 1271,
      "sec": 1272,
      "##amp": 1273,
      "cost": 1274,
      "10": 1275,
      "des": 1276,
      "priv": 1277,
      "train": 1278,
      "lankans": 1279,
      "found": 1280,
      "dat": 1281,
      "wr": 1282,
      "high": 1283,
      "##ond": 1284,
      "etc": 1285,
      "##ph": 1286,
      "fore": 1287,
      "lk": 1288,
      "ve": 1289,
      "differ": 1290,
      "thoughts": 1291,
      "rep": 1292,
      "own": 1293,
      "using": 1294,
      "company": 1295,
      "market": 1296,
      "##road": 1297,
      "invest": 1298,
      "##ject": 1299,
      "spe": 1300,
      "hell": 1301,
      "##iss": 1302,
      "week": 1303,
      "##lish": 1304,
      "share": 1305,
      "##ather": 1306,
      "##ory": 1307,
      "suggestions": 1308,
      "watch": 1309,
      "leg": 1310,
      "##ious": 1311,
      "great": 1312,
      "##ady": 1313,
      "##uring": 1314,
      "##elling": 1315,
      "##hic": 1316,
      "gover": 1317,
      "real": 1318,
      "last": 1319,
      "##az": 1320,
      "shop": 1321,
      "end": 1322,
      "##way": 1323,
      "free": 1324,
      "##ale": 1325,
      "food": 1326,
      "home": 1327,
      "night": 1328,
      "##ise": 1329,
      "sinhala": 1330,
      "govern": 1331,
      "##ope": 1332,
      "elect": 1333,
      "trip": 1334,
      "possi": 1335,
      "hot": 1336,
      "##be": 1337,
      "##iew": 1338,
      "price": 1339,
      "cu": 1340,
      "bit": 1341,
      "##les": 1342,
      "phone": 1343,
      "parents": 1344,
      "done": 1345,
      "next": 1346,
      "##ues": 1347,
      "bad": 1348,
      "sk": 1349,
      "chec": 1350,
      "##ates": 1351,
      "##duct": 1352,
      "##ever": 1353,
      "##ert": 1354,
      "months": 1355,
      "disc": 1356,
      "consid": 1357,
      "##oc": 1358,
      "##uw": 1359,
      "hand": 1360,
      "stu": 1361,
      "qual": 1362,
      "bi": 1363,
      "never": 1364,
      "import": 1365,
      "data": 1366,
      "##inking": 1367,
      "##ont": 1368,
      "##ra": 1369,
      "service": 1370,
      "##itt": 1371,
      "prov": 1372,
      "rest": 1373,
      "##ways": 1374,
      "foreign": 1375,
      "##olog": 1376,
      "idea": 1377,
      "government": 1378,
      "made": 1379,
      "che": 1380,
      "num": 1381,
      "aff": 1382,
      "##ams": 1383,
      "##sp": 1384,
      "sure": 1385,
      "##ward": 1386,
      "tourist": 1387,
      "##ouse": 1388,
      "##iri": 1389,
      "##apt": 1390,
      "cour": 1391,
      "##ah": 1392,
      "##erm": 1393,
      "class": 1394,
      "private": 1395,
      "engineering": 1396,
      "fun": 1397,
      "##ock": 1398,
      "reason": 1399,
      "##ences": 1400,
      "else": 1401,
      "soft": 1402,
      "ext": 1403,
      "come": 1404,
      "##wh": 1405,
      "open": 1406,
      "##te": 1407,
      "##nect": 1408,
      "english": 1409,
      "sci": 1410,
      "might": 1411,
      "expl": 1412,
      "##oy": 1413,
      "guy": 1414,
      "vehic": 1415,
      "##ied": 1416,
      "worth": 1417,
      "##ater": 1418,
      "show": 1419,
      "hard": 1420,
      "abroad": 1421,
      "##earch": 1422,
      "##alle": 1423,
      "webs": 1424,
      "sw": 1425,
      "wondering": 1426,
      "##ially": 1427,
      "ment": 1428,
      "##ru": 1429,
      "##ages": 1430,
      "##ition": 1431,
      "another": 1432,
      "sol": 1433,
      "student": 1434,
      "keep": 1435,
      "play": 1436,
      "wanted": 1437,
      "hello": 1438,
      "requ": 1439,
      "bel": 1440,
      "##iya": 1441,
      "##ash": 1442,
      "##ave": 1443,
      "brand": 1444,
      "##ices": 1445,
      "##ips": 1446,
      "sy": 1447,
      "imp": 1448,
      "##als": 1449,
      "##ense": 1450,
      "##oint": 1451,
      "thinking": 1452,
      "tried": 1453,
      "possible": 1454,
      "##yp": 1455,
      "appreciate": 1456,
      "##ited": 1457,
      "inform": 1458,
      "comple": 1459,
      "situ": 1460,
      "conf": 1461,
      "during": 1462,
      "##blem": 1463,
      "wom": 1464,
      "having": 1465,
      "##ember": 1466,
      "del": 1467,
      "process": 1468,
      "problem": 1469,
      "##ident": 1470,
      "passport": 1471,
      "##ner": 1472,
      "connect": 1473,
      "product": 1474,
      "opin": 1475,
      "##gin": 1476,
      "!!": 1477,
      "##ene": 1478,
      "support": 1479,
      "tech": 1480,
      "top": 1481,
      "pres": 1482,
      "mus": 1483,
      "##ote": 1484,
      "ap": 1485,
      "##urn": 1486,
      "dep": 1487,
      "issue": 1488,
      "##ings": 1489,
      "appreciated": 1490,
      "such": 1491,
      "both": 1492,
      "today": 1493,
      "heard": 1494,
      "avail": 1495,
      "level": 1496,
      "learn": 1497,
      "##con": 1498,
      "vide": 1499,
      "house": 1500,
      "sou": 1501,
      "gener": 1502,
      "mob": 1503,
      "add": 1504,
      "ella": 1505,
      "##ters": 1506,
      "##ug": 1507,
      "live": 1508,
      "##stand": 1509,
      "always": 1510,
      "tell": 1511,
      "##ara": 1512,
      "lapt": 1513,
      "##--": 1514,
      "laptop": 1515,
      "area": 1516,
      "##ream": 1517,
      "tips": 1518,
      "ful": 1519,
      "near": 1520,
      "science": 1521,
      "##ular": 1522,
      "ass": 1523,
      "look": 1524,
      "options": 1525,
      "char": 1526,
      "software": 1527,
      "commun": 1528,
      "offer": 1529,
      "progr": 1530,
      "dial": 1531,
      "apply": 1532,
      "actually": 1533,
      "order": 1534,
      "stuff": 1535,
      "##ets": 1536,
      "sell": 1537,
      "big": 1538,
      "cle": 1539,
      "cust": 1540,
      "mat": 1541,
      "##alth": 1542,
      "try": 1543,
      "##ern": 1544,
      "ask": 1545,
      "##duc": 1546,
      "##self": 1547,
      "##ically": 1548,
      "hotel": 1549,
      "##ower": 1550,
      "slt": 1551,
      "##sc": 1552,
      "seems": 1553,
      "mean": 1554,
      "##me": 1555,
      "understand": 1556,
      "custom": 1557,
      "15": 1558,
      "30": 1559,
      "rece": 1560,
      "##led": 1561,
      "number": 1562,
      "dialog": 1563,
      "##dy": 1564,
      "situation": 1565,
      "available": 1566,
      "interested": 1567,
      "cult": 1568,
      "##we": 1569,
      "##uk": 1570,
      "different": 1571,
      "tit": 1572,
      "ps": 1573,
      "giv": 1574,
      "##ital": 1575,
      "says": 1576,
      "read": 1577,
      "started": 1578,
      "small": 1579,
      "salary": 1580,
      "sing": 1581,
      "##its": 1582,
      "went": 1583,
      "##aj": 1584,
      "relations": 1585,
      "main": 1586,
      "manag": 1587,
      "social": 1588,
      "phys": 1589,
      "buying": 1590,
      "pub": 1591,
      "##ether": 1592,
      "quality": 1593,
      "##ready": 1594,
      "already": 1595,
      "south": 1596,
      "##ship": 1597,
      "gam": 1598,
      "living": 1599,
      "prefer": 1600,
      "##ilar": 1601,
      "mom": 1602,
      "saw": 1603,
      "prices": 1604,
      "kid": 1605,
      "students": 1606,
      "issues": 1607,
      "mod": 1608,
      "##ably": 1609,
      "##akes": 1610,
      "relationship": 1611,
      "foll": 1612,
      "met": 1613,
      "ret": 1614,
      "title": 1615,
      "rent": 1616,
      "war": 1617,
      "study": 1618,
      "##ries": 1619,
      "budget": 1620,
      "##ama": 1621,
      "resp": 1622,
      "##ves": 1623,
      "regard": 1624,
      "scam": 1625,
      "follow": 1626,
      "fac": 1627,
      "face": 1628,
      "##cept": 1629,
      "group": 1630,
      "able": 1631,
      "eas": 1632,
      "cri": 1633,
      "galle": 1634,
      "##view": 1635,
      "##amil": 1636,
      "##ced": 1637,
      "similar": 1638,
      "told": 1639,
      "vehicle": 1640,
      "##ons": 1641,
      "india": 1642,
      "##bt": 1643,
      "curi": 1644,
      "lic": 1645,
      "asked": 1646,
      "reddit": 1647,
      "##ook": 1648,
      "cert": 1649,
      "##ister": 1650,
      "cor": 1651,
      "##ants": 1652,
      "##ement": 1653,
      "seen": 1654,
      "experiences": 1655,
      "##aff": 1656,
      "however": 1657,
      "mind": 1658,
      "fre": 1659,
      "tamil": 1660,
      "fut": 1661,
      "enough": 1662,
      "typ": 1663,
      "##where": 1664,
      "website": 1665,
      "lkr": 1666,
      "mor": 1667,
      "hour": 1668,
      "##igr": 1669,
      "whether": 1670,
      "beach": 1671,
      "100": 1672,
      "personal": 1673,
      "information": 1674,
      "tick": 1675,
      "maybe": 1676,
      "val": 1677,
      "##ll": 1678,
      "purch": 1679,
      "##red": 1680,
      "##velop": 1681,
      "norm": 1682,
      "book": 1683,
      "name": 1684,
      "far": 1685,
      "law": 1686,
      "doct": 1687,
      "##wor": 1688,
      "polit": 1689,
      "##app": 1690,
      "##ately": 1691,
      "stor": 1692,
      "##ral": 1693,
      "join": 1694,
      "##ried": 1695,
      "##ween": 1696,
      "men": 1697,
      "uk": 1698,
      "educ": 1699,
      "between": 1700,
      "set": 1701,
      "develop": 1702,
      "due": 1703,
      "pret": 1704,
      "##lim": 1705,
      "##ds": 1706,
      "health": 1707,
      "prof": 1708,
      "future": 1709,
      "came": 1710,
      "##aid": 1711,
      "##ese": 1712,
      "proper": 1713,
      "##stem": 1714,
      "ent": 1715,
      "world": 1716,
      "result": 1717,
      "career": 1718,
      "land": 1719,
      "##form": 1720,
      "pick": 1721,
      "girls": 1722,
      "curious": 1723,
      "wan": 1724,
      "visiting": 1725,
      "hope": 1726,
      "##ric": 1727,
      "past": 1728,
      "##body": 1729,
      "appro": 1730,
      "##ional": 1731,
      "meet": 1732,
      "##mb": 1733,
      "build": 1734,
      "called": 1735,
      "system": 1736,
      "##ict": 1737,
      "##ix": 1738,
      "mess": 1739,
      "##ling": 1740,
      "child": 1741,
      "check": 1742,
      "opport": 1743,
      "bre": 1744,
      "##ne": 1745,
      "opportun": 1746,
      "##ten": 1747,
      "##ared": 1748,
      "asking": 1749,
      "head": 1750,
      "change": 1751,
      "questions": 1752,
      "package": 1753,
      "public": 1754,
      "myself": 1755,
      "current": 1756,
      "coup": 1757,
      "send": 1758,
      "cheap": 1759,
      "),": 1760,
      "international": 1761,
      "##ither": 1762,
      "aut": 1763,
      "##aut": 1764,
      "det": 1765,
      "expect": 1766,
      "spend": 1767,
      "wanna": 1768,
      "mid": 1769,
      "women": 1770,
      "##ights": 1771,
      "based": 1772,
      "bring": 1773,
      "couple": 1774,
      "companies": 1775,
      "jobs": 1776,
      "wa": 1777,
      "full": 1778,
      "##ility": 1779,
      "put": 1780,
      "police": 1781,
      "option": 1782,
      "fiel": 1783,
      "##ittle": 1784,
      "pretty": 1785,
      "##ative": 1786,
      "hair": 1787,
      "##pping": 1788,
      "ok": 1789,
      "econ": 1790,
      "##old": 1791,
      "making": 1792,
      "short": 1793,
      "weeks": 1794,
      "saying": 1795,
      "allow": 1796,
      "##ugg": 1797,
      "happened": 1798,
      "little": 1799,
      "mas": 1800,
      "esp": 1801,
      "everything": 1802,
      "regarding": 1803,
      "##iable": 1804,
      "12": 1805,
      "##iver": 1806,
      "countries": 1807,
      "##ency": 1808,
      "##anc": 1809,
      "##adu": 1810,
      "math": 1811,
      "sign": 1812,
      "related": 1813,
      "##lud": 1814,
      "either": 1815,
      "talk": 1816,
      "sho": 1817,
      "##ib": 1818,
      "po": 1819,
      "afford": 1820,
      "##ana": 1821,
      "##ired": 1822,
      "##iting": 1823,
      "##uss": 1824,
      "econom": 1825,
      "run": 1826,
      "dont": 1827,
      "less": 1828,
      "##land": 1829,
      "safe": 1830,
      "coming": 1831,
      "video": 1832,
      "normal": 1833,
      "##ills": 1834,
      "##com": 1835,
      "times": 1836,
      "move": 1837,
      "choo": 1838,
      "2024": 1839,
      "specific": 1840,
      "gl": 1841,
      "##aur": 1842,
      "expens": 1843,
      "##irect": 1844,
      "power": 1845,
      "spot": 1846,
      "##fort": 1847,
      "espec": 1848,
      "low": 1849,
      "comput": 1850,
      "especially": 1851,
      "list": 1852,
      "##ead": 1853,
      "##uck": 1854,
      "##ted": 1855,
      "000": 1856,
      "term": 1857,
      "ago": 1858,
      "airport": 1859,
      "neg": 1860,
      "##ails": 1861,
      "goo": 1862,
      "hon": 1863,
      "amount": 1864,
      "exam": 1865,
      "##ann": 1866,
      "##ploy": 1867,
      "knows": 1868,
      "within": 1869,
      "supp": 1870,
      "##vious": 1871,
      "media": 1872,
      "license": 1873,
      "wif": 1874,
      "community": 1875,
      "seri": 1876,
      "seeking": 1877,
      "cred": 1878,
      "##ute": 1879,
      "second": 1880,
      "away": 1881,
      "point": 1882,
      "##att": 1883,
      "conc": 1884,
      "##uwa": 1885,
      "restaur": 1886,
      "arri": 1887,
      "indust": 1888,
      "driving": 1889,
      "##ng": 1890,
      "##ones": 1891,
      "deal": 1892,
      "##ize": 1893,
      "##ized": 1894,
      "##ism": 1895,
      "project": 1896,
      "wrong": 1897,
      "considering": 1898,
      "direct": 1899,
      "road": 1900,
      "goog": 1901,
      "25": 1902,
      "##ik": 1903,
      "##sw": 1904,
      "##used": 1905,
      "##ross": 1906,
      "##iit": 1907,
      "##nd": 1908,
      "##ym": 1909,
      "serious": 1910,
      "ca": 1911,
      "##ding": 1912,
      "ideas": 1913,
      "culture": 1914,
      "##tern": 1915,
      "research": 1916,
      "contact": 1917,
      "##ures": 1918,
      "tv": 1919,
      "beaut": 1920,
      "left": 1921,
      "miss": 1922,
      "ls": 1923,
      "##ety": 1924,
      "yet": 1925,
      "side": 1926,
      "nothing": 1927,
      "tuk": 1928,
      "includ": 1929,
      "products": 1930,
      "reliable": 1931,
      "opinion": 1932,
      "true": 1933,
      "super": 1934,
      "phot": 1935,
      "##ieve": 1936,
      "internet": 1937,
      "bought": 1938,
      "travelling": 1939,
      "course": 1940,
      "program": 1941,
      "national": 1942,
      "eff": 1943,
      "ur": 1944,
      "whats": 1945,
      "employ": 1946,
      "consider": 1947,
      "lead": 1948,
      "bro": 1949,
      "19": 1950,
      "dro": 1951,
      "##els": 1952,
      "##ps": 1953,
      "beh": 1954,
      "wed": 1955,
      "aust": 1956,
      "##ats": 1957,
      "trust": 1958,
      "finan": 1959,
      "date": 1960,
      "wel": 1961,
      "##cu": 1962,
      "dist": 1963,
      "google": 1964,
      "driver": 1965,
      "##ok": 1966,
      "##ided": 1967,
      "shops": 1968,
      "mention": 1969,
      "net": 1970,
      "##ove": 1971,
      "field": 1972,
      "stand": 1973,
      "needed": 1974,
      "results": 1975,
      "bar": 1976,
      "cre": 1977,
      "ref": 1978,
      "others": 1979,
      "hours": 1980,
      "vs": 1981,
      "speed": 1982,
      "##mit": 1983,
      "stop": 1984,
      "honest": 1985,
      "##ists": 1986,
      "##ives": 1987,
      "income": 1988,
      "answ": 1989,
      "##osed": 1990,
      "though": 1991,
      "austral": 1992,
      "##ines": 1993,
      "mobile": 1994,
      "party": 1995,
      "##ier": 1996,
      "##ott": 1997,
      "##ology": 1998,
      "tia": 1999,
      "##ird": 2000,
      "uber": 2001,
      "art": 2002,
      "starting": 2003,
      "internship": 2004,
      "music": 2005,
      "lost": 2006,
      "##phone": 2007,
      "offic": 2008,
      "education": 2009,
      "##itch": 2010,
      "prom": 2011,
      "deliver": 2012,
      "water": 2013,
      "least": 2014,
      "computer": 2015,
      "link": 2016,
      "quite": 2017,
      "whole": 2018,
      "traveling": 2019,
      "young": 2020,
      "soon": 2021,
      "cent": 2022,
      "##ee": 2023,
      "alm": 2024,
      "##iced": 2025,
      "##eng": 2026,
      "contr": 2027,
      "once": 2028,
      "18": 2029,
      "200": 2030,
      ":)": 2031,
      "stream": 2032,
      "shit": 2033,
      "imm": 2034,
      "##book": 2035,
      "non": 2036,
      "each": 2037,
      "##ris": 2038,
      "state": 2039,
      "credit": 2040,
      "migr": 2041,
      "##less": 2042,
      "##200": 2043,
      "repl": 2044,
      "strugg": 2045,
      "##lo": 2046,
      "yout": 2047,
      "fix": 2048,
      "##iter": 2049,
      "##ari": 2050,
      "studying": 2051,
      "&#": 2052,
      "city": 2053,
      "rs": 2054,
      "test": 2055,
      "##ura": 2056,
      "receiv": 2057,
      "form": 2058,
      "opportunities": 2059,
      "leave": 2060,
      "activ": 2061,
      "legal": 2062,
      "kids": 2063,
      "taking": 2064,
      "##ada": 2065,
      "clear": 2066,
      "anybody": 2067,
      "industry": 2068,
      "almost": 2069,
      "applic": 2070,
      "ones": 2071,
      "##friend": 2072,
      "remember": 2073,
      "indian": 2074,
      "decent": 2075,
      "general": 2076,
      "tem": 2077,
      "design": 2078,
      "pop": 2079,
      "ran": 2080,
      "president": 2081,
      "item": 2082,
      "##ube": 2083,
      "chang": 2084,
      "miri": 2085,
      "fell": 2086,
      "##reen": 2087,
      "age": 2088,
      "club": 2089,
      "saf": 2090,
      "##aug": 2091,
      "##dh": 2092,
      "##ych": 2093,
      "path": 2094,
      "gif": 2095,
      "sliit": 2096,
      "maj": 2097,
      "##wards": 2098,
      "wedding": 2099,
      "##0k": 2100,
      "##til": 2101,
      "hop": 2102,
      "mal": 2103,
      "camp": 2104,
      "##itiz": 2105,
      "dam": 2106,
      "##ssa": 2107,
      "earn": 2108,
      "ann": 2109,
      "trad": 2110,
      "##ime": 2111,
      "##illion": 2112,
      "paid": 2113,
      "x200": 2114,
      "doctor": 2115,
      "##rict": 2116,
      "payment": 2117,
      "against": 2118,
      "services": 2119,
      "x200b": 2120,
      "mirissa": 2121,
      "repair": 2122,
      "search": 2123,
      "mov": 2124,
      "##val": 2125,
      "sun": 2126,
      "genu": 2127,
      "##ased": 2128,
      "techn": 2129,
      "##osp": 2130,
      "case": 2131,
      "treat": 2132,
      "election": 2133,
      "gym": 2134,
      "provide": 2135,
      "nice": 2136,
      "##ai": 2137,
      "##ised": 2138,
      "##pped": 2139,
      "details": 2140,
      "books": 2141,
      "psych": 2142,
      "ori": 2143,
      "noticed": 2144,
      "sex": 2145,
      "dig": 2146,
      "gon": 2147,
      "special": 2148,
      "dating": 2149,
      "##man": 2150,
      "bor": 2151,
      "song": 2152,
      "office": 2153,
      "fem": 2154,
      "pract": 2155,
      "port": 2156,
      "usd": 2157,
      "fact": 2158,
      "##ution": 2159,
      "news": 2160,
      "room": 2161,
      "##ural": 2162,
      "##cc": 2163,
      "transfer": 2164,
      "basically": 2165,
      "gonna": 2166,
      "citiz": 2167,
      "become": 2168,
      "tickets": 2169,
      "mot": 2170,
      "west": 2171,
      "##den": 2172,
      "insights": 2173,
      "vi": 2174,
      "discuss": 2175,
      "certific": 2176,
      "instead": 2177,
      "cash": 2178,
      "201": 2179,
      "youtube": 2180,
      "##iful": 2181,
      "australia": 2182,
      "explain": 2183,
      "hosp": 2184,
      "##ians": 2185,
      "single": 2186,
      "expensive": 2187,
      "##ees": 2188,
      "##ple": 2189,
      "profess": 2190,
      "beautiful": 2191,
      "lang": 2192,
      "##ness": 2193,
      "iphone": 2194,
      "##uge": 2195,
      "weather": 2196,
      "##----": 2197,
      "di": 2198,
      "hist": 2199,
      "##min": 2200,
      "##ung": 2201,
      "close": 2202,
      "studies": 2203,
      "must": 2204,
      "##br": 2205,
      "major": 2206,
      "##sh": 2207,
      "##ele": 2208,
      "##load": 2209,
      "until": 2210,
      "report": 2211,
      "early": 2212,
      "buddh": 2213,
      "langu": 2214,
      "mother": 2215,
      "pap": 2216,
      "##oot": 2217,
      "self": 2218,
      "ai": 2219,
      "exc": 2220,
      "higher": 2221,
      "wear": 2222,
      "happy": 2223,
      "connection": 2224,
      "##cket": 2225,
      "sig": 2226,
      "##dition": 2227,
      "speak": 2228,
      "##iner": 2229,
      "##ption": 2230,
      "management": 2231,
      "fil": 2232,
      "choose": 2233,
      "##verage": 2234,
      "took": 2235,
      "across": 2236,
      "rout": 2237,
      "incre": 2238,
      "break": 2239,
      "dem": 2240,
      "def": 2241,
      "grow": 2242,
      "medical": 2243,
      "believe": 2244,
      "cut": 2245,
      "##mor": 2246,
      "stock": 2247,
      "feeling": 2248,
      "mil": 2249,
      "##row": 2250,
      "##over": 2251,
      "chann": 2252,
      "finding": 2253,
      "##rid": 2254,
      "accept": 2255,
      "talking": 2256,
      "auth": 2257,
      "##ses": 2258,
      "universities": 2259,
      "da": 2260,
      "sel": 2261,
      "sav": 2262,
      "##cle": 2263,
      "##gan": 2264,
      "store": 2265,
      "##ush": 2266,
      "type": 2267,
      "fail": 2268,
      "##ium": 2269,
      "##ron": 2270,
      "legit": 2271,
      "subject": 2272,
      "purchase": 2273,
      "rid": 2274,
      "11": 2275,
      "dm": 2276,
      "##urity": 2277,
      "turn": 2278,
      "origin": 2279,
      "hold": 2280,
      "amaz": 2281,
      "##oid": 2282,
      "experienc": 2283,
      "ce": 2284,
      "cause": 2285,
      "posts": 2286,
      "##iriya": 2287,
      "##asing": 2288,
      "##sing": 2289,
      "charg": 2290,
      "##ledge": 2291,
      "liter": 2292,
      "plat": 2293,
      "bir": 2294,
      "opinions": 2295,
      "gradu": 2296,
      "nuw": 2297,
      "itiner": 2298,
      "enj": 2299,
      "eat": 2300,
      "##side": 2301,
      "##ude": 2302,
      "##imes": 2303,
      "comes": 2304,
      "drive": 2305,
      "select": 2306,
      "##uly": 2307,
      "##ature": 2308,
      "##ify": 2309,
      "upd": 2310,
      "interview": 2311,
      "given": 2312,
      "##ior": 2313,
      "##fic": 2314,
      "unlim": 2315,
      "apart": 2316,
      "itinerary": 2317,
      "usually": 2318,
      "common": 2319,
      "info": 2320,
      "learning": 2321,
      "story": 2322,
      "require": 2323,
      "forward": 2324,
      "fine": 2325,
      "view": 2326,
      "##nt": 2327,
      "dev": 2328,
      "maths": 2329,
      "##co": 2330,
      "begin": 2331,
      "works": 2332,
      "tea": 2333,
      "fav": 2334,
      "classes": 2335,
      "unlimited": 2336,
      "cal": 2337,
      "game": 2338,
      "makes": 2339,
      "docu": 2340,
      "following": 2341,
      "greatly": 2342,
      "##ram": 2343,
      "kinda": 2344,
      "purs": 2345,
      "affordable": 2346,
      "knowledge": 2347,
      "foc": 2348,
      "ob": 2349,
      "prob": 2350,
      "sometimes": 2351,
      "bike": 2352,
      "dar": 2353,
      "physical": 2354,
      "bat": 2355,
      "wal": 2356,
      "##oice": 2357,
      "canada": 2358,
      "transport": 2359,
      "16": 2360,
      "rou": 2361,
      "pot": 2362,
      "##ient": 2363,
      "partner": 2364,
      "srilankan": 2365,
      "skin": 2366,
      "fellow": 2367,
      "late": 2368,
      "vac": 2369,
      "##esh": 2370,
      "bal": 2371,
      "##bers": 2372,
      "##pect": 2373,
      "comment": 2374,
      "enter": 2375,
      "okay": 2376,
      "cam": 2377,
      "mult": 2378,
      "sound": 2379,
      "##work": 2380,
      "##arm": 2381,
      "##ential": 2382,
      "return": 2383,
      "##itel": 2384,
      "review": 2385,
      "morning": 2386,
      "medic": 2387,
      "comments": 2388,
      "later": 2389,
      "vot": 2390,
      "##ex": 2391,
      "##yl": 2392,
      "boy": 2393,
      "daily": 2394,
      "wife": 2395,
      "24": 2396,
      "ak": 2397,
      "million": 2398,
      "partic": 2399,
      "financial": 2400,
      "50": 2401,
      "provid": 2402,
      "dad": 2403,
      "2025": 2404,
      "npp": 2405,
      "const": 2406,
      "needs": 2407,
      "cricket": 2408,
      "lol": 2409,
      "female": 2410,
      "rate": 2411,
      "##ven": 2412,
      "##ision": 2413,
      "abs": 2414,
      "sinhal": 2415,
      "platform": 2416,
      "team": 2417,
      "concern": 2418,
      "birth": 2419,
      "paying": 2420,
      "packages": 2421,
      "nam": 2422,
      "##ites": 2423,
      "impro": 2424,
      "schools": 2425,
      "fig": 2426,
      "site": 2427,
      "##ew": 2428,
      "wait": 2429,
      "##ester": 2430,
      "drop": 2431,
      "moving": 2432,
      "taxes": 2433,
      "mobitel": 2434,
      "##aining": 2435,
      "sat": 2436,
      "often": 2437,
      "event": 2438,
      "wants": 2439,
      "##ible": 2440,
      "##gb": 2441,
      "eur": 2442,
      "dog": 2443,
      "##vert": 2444,
      "above": 2445,
      "history": 2446,
      "hal": 2447,
      "##unch": 2448,
      "instit": 2449,
      "fair": 2450,
      "##acy": 2451,
      "insur": 2452,
      "nuwara": 2453,
      "##rees": 2454,
      "colle": 2455,
      "sent": 2456,
      "commer": 2457,
      "##li": 2458,
      "previous": 2459,
      "investment": 2460,
      "ranil": 2461,
      "hoping": 2462,
      "language": 2463,
      "jan": 2464,
      "sn": 2465,
      "sinhalese": 2466,
      "sort": 2467,
      "sour": 2468,
      "##band": 2469,
      "looks": 2470,
      "feels": 2471,
      "freel": 2472,
      "received": 2473,
      "](": 2474,
      "tourists": 2475,
      "rand": 2476,
      "three": 2477,
      "##era": 2478,
      "seeing": 2479,
      "engineer": 2480,
      "application": 2481,
      "hate": 2482,
      "skills": 2483,
      "contin": 2484,
      "cla": 2485,
      "matter": 2486,
      "digital": 2487,
      "fit": 2488,
      "decided": 2489,
      "register": 2490,
      "gone": 2491,
      "friendly": 2492,
      "negombo": 2493,
      "hospital": 2494,
      "##itive": 2495,
      "router": 2496,
      "hit": 2497,
      "##ances": 2498,
      "helpful": 2499,
      "probably": 2500,
      "happening": 2501,
      "cod": 2502,
      "##cri": 2503,
      "arr": 2504,
      "cards": 2505,
      "compl": 2506,
      "##io": 2507,
      "relig": 2508,
      "gift": 2509,
      "claim": 2510,
      "aw": 2511,
      "creat": 2512,
      "fu": 2513,
      "levels": 2514,
      "stores": 2515,
      "items": 2516,
      "rene": 2517,
      "areas": 2518,
      "##aken": 2519,
      "marri": 2520,
      "extra": 2521,
      "ther": 2522,
      "##oring": 2523,
      "avoid": 2524,
      "##go": 2525,
      "reach": 2526,
      "altern": 2527,
      "pc": 2528,
      "quick": 2529,
      "toget": 2530,
      "access": 2531,
      "games": 2532,
      "enjoy": 2533,
      "random": 2534,
      ")?": 2535,
      "infl": 2536,
      "sigiriya": 2537,
      "together": 2538,
      "##ming": 2539,
      "guess": 2540,
      "##ruct": 2541,
      "appl": 2542,
      "clean": 2543,
      "renew": 2544,
      "island": 2545,
      "organ": 2546,
      "weird": 2547,
      "suc": 2548,
      "##agg": 2549,
      "##une": 2550,
      "eliya": 2551,
      "diffic": 2552,
      "difficult": 2553,
      "father": 2554,
      "via": 2555,
      "##ret": 2556,
      "shir": 2557,
      "14": 2558,
      "cas": 2559,
      "jap": 2560,
      "rup": 2561,
      "##por": 2562,
      "mental": 2563,
      "married": 2564,
      "17": 2565,
      "pet": 2566,
      "div": 2567,
      "pain": 2568,
      "##rap": 2569,
      "gaming": 2570,
      "##more": 2571,
      "marketing": 2572,
      "hum": 2573,
      "pls": 2574,
      "perf": 2575,
      "white": 2576,
      "cap": 2577,
      "cover": 2578,
      "switch": 2579,
      "rain": 2580,
      "yes": 2581,
      "feed": 2582,
      "worked": 2583,
      "request": 2584,
      "effect": 2585,
      "##come": 2586,
      "exch": 2587,
      "exact": 2588,
      "##ability": 2589,
      "outside": 2590,
      "prin": 2591,
      "##reddit": 2592,
      "##back": 2593,
      "leav": 2594,
      "certificate": 2595,
      "##ror": 2596,
      "##dle": 2597,
      "chat": 2598,
      "brands": 2599,
      "insurance": 2600,
      "13": 2601,
      "cy": 2602,
      "ig": 2603,
      "sect": 2604,
      "selling": 2605,
      "mostly": 2606,
      "anymore": 2607,
      "teac": 2608,
      "hotels": 2609,
      "cool": 2610,
      "ru": 2611,
      "staying": 2612,
      "cry": 2613,
      "problems": 2614,
      "##atives": 2615,
      "ways": 2616,
      "subreddit": 2617,
      "official": 2618,
      "##elt": 2619,
      "plans": 2620,
      "##istry": 2621,
      "checked": 2622,
      "est": 2623,
      "yall": 2624,
      "##orts": 2625,
      "ey": 2626,
      "preferably": 2627,
      "restaurants": 2628,
      "##par": 2629,
      "##ota": 2630,
      "chem": 2631,
      "rele": 2632,
      "dou": 2633,
      "hol": 2634,
      "ris": 2635,
      "towards": 2636,
      "respon": 2637,
      "spots": 2638,
      "recent": 2639,
      "political": 2640,
      "stories": 2641,
      "gave": 2642,
      "##ney": 2643,
      "urg": 2644,
      "average": 2645,
      "jaff": 2646,
      "chin": 2647,
      "apps": 2648,
      "##umb": 2649,
      "win": 2650,
      "guid": 2651,
      "brother": 2652,
      "facebook": 2653,
      "answer": 2654,
      "jaffna": 2655,
      "nor": 2656,
      "alone": 2657,
      "along": 2658,
      "physics": 2659,
      "##uct": 2660,
      "##ipping": 2661,
      "##ren": 2662,
      "##res": 2663,
      "costs": 2664,
      "##oke": 2665,
      "##cel": 2666,
      "##ars": 2667,
      "collect": 2668,
      "below": 2669,
      "easy": 2670,
      "important": 2671,
      "ticket": 2672,
      "including": 2673,
      "struggling": 2674,
      "##cs": 2675,
      "##leg": 2676,
      "meth": 2677,
      "bod": 2678,
      "fol": 2679,
      "hang": 2680,
      "als": 2681,
      "teach": 2682,
      "multip": 2683,
      "akd": 2684,
      "jour": 2685,
      "tot": 2686,
      "##rect": 2687,
      "##ording": 2688,
      "##que": 2689,
      "male": 2690,
      "##erg": 2691,
      "##ili": 2692,
      "prem": 2693,
      "security": 2694,
      "extre": 2695,
      "applied": 2696,
      "##by": 2697,
      "overse": 2698,
      "girlfriend": 2699,
      "raj": 2700,
      "tour": 2701,
      "park": 2702,
      "download": 2703,
      "##med": 2704,
      "##sel": 2705,
      "moment": 2706,
      "willing": 2707,
      "electric": 2708,
      "building": 2709,
      "worried": 2710,
      "difference": 2711,
      "coun": 2712,
      "##illed": 2713,
      "plus": 2714,
      "##000": 2715,
      "cuz": 2716,
      "courses": 2717,
      "honestly": 2718,
      "ah": 2719,
      "##fully": 2720,
      "woman": 2721,
      "experienced": 2722,
      "##oud": 2723,
      "banks": 2724,
      "pickme": 2725,
      "cs": 2726,
      "felt": 2727,
      "stre": 2728,
      "##ivid": 2729,
      "hut": 2730,
      "##utes": 2731,
      "fall": 2732,
      "locals": 2733,
      "dip": 2734,
      "##aly": 2735,
      "##una": 2736,
      "step": 2737,
      "drink": 2738,
      "middle": 2739,
      "original": 2740,
      "marriage": 2741,
      "bene": 2742,
      "##ured": 2743,
      "goes": 2744,
      "slow": 2745,
      "certain": 2746,
      "cop": 2747,
      "host": 2748,
      "degrees": 2749,
      "drivers": 2750,
      "surf": 2751,
      "japan": 2752,
      "##ma": 2753,
      "##mar": 2754,
      "coast": 2755,
      "\".": 2756,
      "peri": 2757,
      "individ": 2758,
      "muslim": 2759,
      "overseas": 2760,
      "aware": 2761,
      "fast": 2762,
      "prot": 2763,
      "flight": 2764,
      "din": 2765,
      "ed": 2766,
      "sor": 2767,
      "##oda": 2768,
      "cars": 2769,
      "complet": 2770,
      "doctors": 2771,
      "mentioned": 2772,
      "paper": 2773,
      "success": 2774,
      "board": 2775,
      "chance": 2776,
      "address": 2777,
      "europe": 2778,
      "period": 2779,
      "star": 2780,
      "##adem": 2781,
      "2023": 2782,
      "focus": 2783,
      "anywhere": 2784,
      "affect": 2785,
      "watching": 2786,
      "behind": 2787,
      "masters": 2788,
      "21": 2789,
      "method": 2790,
      "academ": 2791,
      "motor": 2792,
      "band": 2793,
      "##ril": 2794,
      "##ention": 2795,
      "undergr": 2796,
      "sle": 2797,
      "vote": 2798,
      "message": 2799,
      "nic": 2800,
      "##rant": 2801,
      "finally": 2802,
      "individual": 2803,
      "sen": 2804,
      "##mber": 2805,
      "stat": 2806,
      "offers": 2807,
      "december": 2808,
      "##amsung": 2809,
      "mist": 2810,
      "rather": 2811,
      "somewhere": 2812,
      "apple": 2813,
      "confused": 2814,
      "giving": 2815,
      "popular": 2816,
      "complain": 2817,
      "exchange": 2818,
      "iit": 2819,
      "samsung": 2820,
      "##kes": 2821,
      "init": 2822,
      "cloth": 2823,
      "##ished": 2824,
      "remote": 2825,
      "delivery": 2826,
      "literally": 2827,
      "##ograp": 2828,
      "parts": 2829,
      "allowed": 2830,
      "##ike": 2831,
      "##und": 2832,
      "appar": 2833,
      "intro": 2834,
      "restaurant": 2835,
      "bill": 2836,
      "comfort": 2837,
      "fees": 2838,
      "##ume": 2839,
      "instag": 2840,
      "2nd": 2841,
      "ele": 2842,
      "##rd": 2843,
      "according": 2844,
      "##ample": 2845,
      "mass": 2846,
      "batter": 2847,
      "multiple": 2848,
      "instagram": 2849,
      "##pri": 2850,
      "children": 2851,
      "##morrow": 2852,
      "half": 2853,
      "cin": 2854,
      "huge": 2855,
      "ra": 2856,
      "ride": 2857,
      "range": 2858,
      "sorry": 2859,
      "taken": 2860,
      "##ger": 2861,
      "charge": 2862,
      "black": 2863,
      "videos": 2864,
      "respect": 2865,
      "economic": 2866,
      "##pal": 2867,
      "value": 2868,
      "holid": 2869,
      "##ffe": 2870,
      "booking": 2871,
      "yala": 2872,
      "##ract": 2873,
      "tomorrow": 2874,
      "adult": 2875,
      "compared": 2876,
      "movie": 2877,
      "fake": 2878,
      "##bit": 2879,
      "##ape": 2880,
      "content": 2881,
      "final": 2882,
      "solo": 2883,
      "depart": 2884,
      "receive": 2885,
      "mine": 2886,
      "pat": 2887,
      "##aries": 2888,
      "lim": 2889,
      "##ending": 2890,
      "gets": 2891,
      "foundation": 2892,
      "customer": 2893,
      "22": 2894,
      "light": 2895,
      "exams": 2896,
      "##ulla": 2897,
      "development": 2898,
      "citizens": 2899,
      "lab": 2900,
      "##lom": 2901,
      "##read": 2902,
      "##ification": 2903,
      "ter": 2904,
      "transl": 2905,
      "correct": 2906,
      "body": 2907,
      "diplom": 2908,
      "##ination": 2909,
      "soci": 2910,
      "create": 2911,
      "activities": 2912,
      "pix": 2913,
      "example": 2914,
      "email": 2915,
      "23": 2916,
      "aud": 2917,
      "equ": 2918,
      "##room": 2919,
      "memb": 2920,
      "##azy": 2921,
      "complete": 2922,
      "western": 2923,
      "completely": 2924,
      "ver": 2925,
      "##imate": 2926,
      "##ively": 2927,
      "sites": 2928,
      "applying": 2929,
      "absol": 2930,
      ".)": 2931,
      "dest": 2932,
      "lar": 2933,
      "match": 2934,
      "monthly": 2935,
      "moved": 2936,
      "particular": 2937,
      "##he": 2938,
      "##ms": 2939,
      "guide": 2940,
      "phones": 2941,
      "##ologist": 2942,
      "websites": 2943,
      "explore": 2944,
      "customs": 2945,
      "##ane": 2946,
      "doll": 2947,
      "weekend": 2948,
      "genuine": 2949,
      "members": 2950,
      "pict": 2951,
      "##igh": 2952,
      "known": 2953,
      "route": 2954,
      "##ha": 2955,
      "exist": 2956,
      "events": 2957,
      "bab": 2958,
      "##oon": 2959,
      "##aya": 2960,
      "recommendation": 2961,
      "decision": 2962,
      "line": 2963,
      "rates": 2964,
      "convers": 2965,
      "##ump": 2966,
      "idk": 2967,
      "payments": 2968,
      "##ext": 2969,
      "location": 2970,
      "inside": 2971,
      "bach": 2972,
      "wish": 2973,
      "among": 2974,
      "choice": 2975,
      "shoes": 2976,
      "coffe": 2977,
      "vehicles": 2978,
      "april": 2979,
      "morat": 2980,
      "entire": 2981,
      "network": 2982,
      "fly": 2983,
      "##ny": 2984,
      "sever": 2985,
      "context": 2986,
      "emb": 2987,
      "influ": 2988,
      "cant": 2989,
      "##istr": 2990,
      "box": 2991,
      "folks": 2992,
      "benef": 2993,
      "lack": 2994,
      "cand": 2995,
      "gold": 2996,
      "channel": 2997,
      "improve": 2998,
      "moratuwa": 2999,
      "hor": 3000,
      "mah": 3001,
      "##eal": 3002,
      "oct": 3003,
      "minim": 3004,
      "warrant": 3005,
      "##ined": 3006,
      "reasonable": 3007,
      "professional": 3008,
      "vir": 3009,
      "model": 3010,
      "welcome": 3011,
      "pixel": 3012,
      "mb": 3013,
      "##dr": 3014,
      "confir": 3015,
      "clothes": 3016,
      "bachel": 3017,
      "dut": 3018,
      "sto": 3019,
      "smart": 3020,
      "suit": 3021,
      "completed": 3022,
      "specifically": 3023,
      "sad": 3024,
      "yester": 3025,
      "##uing": 3026,
      "##rib": 3027,
      "deep": 3028,
      "##ified": 3029,
      "##play": 3030,
      "investing": 3031,
      "guidance": 3032,
      "yesterday": 3033,
      "vers": 3034,
      "##pos": 3035,
      "manage": 3036,
      "text": 3037,
      "invol": 3038,
      "desp": 3039,
      "college": 3040,
      "campus": 3041,
      "har": 3042,
      "cele": 3043,
      "station": 3044,
      "front": 3045,
      "unfort": 3046,
      "stuck": 3047,
      "candid": 3048,
      "web": 3049,
      "save": 3050,
      "therap": 3051,
      "coffee": 3052,
      "unfortun": 3053,
      "foot": 3054,
      "nec": 3055,
      "##eless": 3056,
      "leaving": 3057,
      "eth": 3058,
      "hom": 3059,
      "##uary": 3060,
      "chall": 3061,
      "appoint": 3062,
      "whatsapp": 3063,
      "##othing": 3064,
      "loan": 3065,
      "apparently": 3066,
      "##cing": 3067,
      "means": 3068,
      "cou": 3069,
      "sil": 3070,
      "##edi": 3071,
      "oper": 3072,
      "##ples": 3073,
      "##ission": 3074,
      "ceyl": 3075,
      "obvious": 3076,
      "warranty": 3077,
      "fuck": 3078,
      "fee": 3079,
      "tar": 3080,
      "##ury": 3081,
      "aug": 3082,
      "clothing": 3083,
      "##awat": 3084,
      "potential": 3085,
      "despite": 3086,
      "##nam": 3087,
      "##oor": 3088,
      "fiber": 3089,
      "master": 3090,
      "directly": 3091,
      "missing": 3092,
      "reviews": 3093,
      "obt": 3094,
      "rac": 3095,
      "##pm": 3096,
      "tin": 3097,
      "##yle": 3098,
      "##eric": 3099,
      "shar": 3100,
      "condition": 3101,
      "ident": 3102,
      "##ground": 3103,
      "earning": 3104,
      "urgent": 3105,
      "gre": 3106,
      "sister": 3107,
      "##lt": 3108,
      "##board": 3109,
      "basic": 3110,
      "electron": 3111,
      "running": 3112,
      "standard": 3113,
      "tradition": 3114,
      "stress": 3115,
      "medicine": 3116,
      "feedback": 3117,
      "hutch": 3118,
      "##igama": 3119,
      "##ended": 3120,
      "users": 3121,
      "polic": 3122,
      "40": 3123,
      "fur": 3124,
      "ik": 3125,
      "##fs": 3126,
      "##aps": 3127,
      "arrival": 3128,
      "demand": 3129,
      "germ": 3130,
      "##rs": 3131,
      "except": 3132,
      "background": 3133,
      "perform": 3134,
      "handle": 3135,
      "depress": 3136,
      "immigr": 3137,
      "##put": 3138,
      "strong": 3139,
      "##erv": 3140,
      "##ots": 3141,
      "glob": 3142,
      "eleph": 3143,
      ".\"": 3144,
      "bag": 3145,
      "mac": 3146,
      "tast": 3147,
      "dead": 3148,
      "looked": 3149,
      "writing": 3150,
      "mis": 3151,
      "takes": 3152,
      "##antly": 3153,
      "sept": 3154,
      "##cks": 3155,
      "nights": 3156,
      "shy": 3157,
      "letter": 3158,
      "sleep": 3159,
      "500": 3160,
      "feb": 3161,
      "shipping": 3162,
      "required": 3163,
      "reading": 3164,
      "several": 3165,
      "celebr": 3166,
      "dub": 3167,
      "space": 3168,
      "advise": 3169,
      "calls": 3170,
      "extrem": 3171,
      "furth": 3172,
      "##olar": 3173,
      "prep": 3174,
      "position": 3175,
      "key": 3176,
      "listen": 3177,
      "sud": 3178,
      "economy": 3179,
      "amazing": 3180,
      "january": 3181,
      "freelanc": 3182,
      "ep": 3183,
      "resour": 3184,
      "seriously": 3185,
      "mech": 3186,
      "##utions": 3187,
      "staff": 3188,
      "currency": 3189,
      "favor": 3190,
      "unfortunately": 3191,
      "bt": 3192,
      "july": 3193,
      "##af": 3194,
      "notice": 3195,
      "older": 3196,
      "cat": 3197,
      "americ": 3198,
      "wifi": 3199,
      "replac": 3200,
      "documents": 3201,
      "rupees": 3202,
      "german": 3203,
      "cir": 3204,
      "gov": 3205,
      "##ains": 3206,
      "actual": 3207,
      "changed": 3208,
      "il": 3209,
      "calling": 3210,
      "topic": 3211,
      "##ued": 3212,
      "##0s": 3213,
      "##amb": 3214,
      "worse": 3215,
      "express": 3216,
      "compet": 3217,
      "recommended": 3218,
      "##vir": 3219,
      "clubs": 3220,
      "##selves": 3221,
      "bott": 3222,
      "##aight": 3223,
      "straight": 3224,
      "approach": 3225,
      "waiting": 3226,
      "exactly": 3227,
      "civ": 3228,
      "green": 3229,
      "##ux": 3230,
      "accounts": 3231,
      "##coming": 3232,
      "supposed": 3233,
      "brok": 3234,
      "##augh": 3235,
      "ict": 3236,
      "##press": 3237,
      "worst": 3238,
      "##ogn": 3239,
      "cheaper": 3240,
      "##rism": 3241,
      "hus": 3242,
      "anyway": 3243,
      "##ament": 3244,
      "uns": 3245,
      "parties": 3246,
      "eta": 3247,
      "mainly": 3248,
      "mix": 3249,
      "rich": 3250,
      "##ilities": 3251,
      "brit": 3252,
      "ordered": 3253,
      "property": 3254,
      "signific": 3255,
      "continue": 3256,
      "comb": 3257,
      "##empt": 3258,
      "personally": 3259,
      "interesting": 3260,
      "##aught": 3261,
      "chemistry": 3262,
      "september": 3263,
      "june": 3264,
      "##time": 3265,
      "march": 3266,
      "block": 3267,
      "groups": 3268,
      "diploma": 3269,
      "lect": 3270,
      "wise": 3271,
      "##ising": 3272,
      "arug": 3273,
      "prior": 3274,
      "buses": 3275,
      "crow": 3276,
      "poor": 3277,
      "terms": 3278,
      "battery": 3279,
      "bed": 3280,
      "pm": 3281,
      "vill": 3282,
      "##bre": 3283,
      "##ball": 3284,
      "ant": 3285,
      "##rig": 3286,
      "note": 3287,
      "trou": 3288,
      "fixed": 3289,
      "##ridge": 3290,
      "author": 3291,
      "figure": 3292,
      "1st": 3293,
      "bay": 3294,
      "##ned": 3295,
      "##jith": 3296,
      "fort": 3297,
      "##ules": 3298,
      "depos": 3299,
      "journey": 3300,
      "ceylon": 3301,
      "august": 3302,
      "ach": 3303,
      "season": 3304,
      "becom": 3305,
      "consult": 3306,
      "crazy": 3307,
      "reput": 3308,
      "corru": 3309,
      "longer": 3310,
      "minutes": 3311,
      "born": 3312,
      "bsc": 3313,
      "er": 3314,
      "##oying": 3315,
      "limit": 3316,
      "regular": 3317,
      "subjects": 3318,
      "page": 3319,
      "anim": 3320,
      "ready": 3321,
      "##ained": 3322,
      "shows": 3323,
      "further": 3324,
      "##uth": 3325,
      "recogn": 3326,
      "grand": 3327,
      "visited": 3328,
      "scholar": 3329,
      "restrict": 3330,
      "foreigners": 3331,
      "town": 3332,
      "lives": 3333,
      "screen": 3334,
      "dress": 3335,
      "##--------": 3336,
      "bur": 3337,
      "remo": 3338,
      "reply": 3339,
      "north": 3340,
      "sudden": 3341,
      "la": 3342,
      "ol": 3343,
      "tu": 3344,
      "##ator": 3345,
      "anx": 3346,
      "install": 3347,
      "husband": 3348,
      "max": 3349,
      "till": 3350,
      "relationships": 3351,
      "buddhist": 3352,
      "pursue": 3353,
      "risk": 3354,
      "passed": 3355,
      "spending": 3356,
      "cab": 3357,
      "peace": 3358,
      "tourism": 3359,
      "reasons": 3360,
      "christ": 3361,
      "##ober": 3362,
      "politics": 3363,
      "street": 3364,
      "baby": 3365,
      "scholarship": 3366,
      "tre": 3367,
      "usa": 3368,
      "arch": 3369,
      "press": 3370,
      "role": 3371,
      "extremely": 3372,
      "##xic": 3373,
      "stup": 3374,
      "sold": 3375,
      "word": 3376,
      "enc": 3377,
      "action": 3378,
      "finance": 3379,
      "considered": 3380,
      "gf": 3381,
      "nat": 3382,
      "opp": 3383,
      "##ov": 3384,
      "trin": 3385,
      "##ustr": 3386,
      "happens": 3387,
      "attack": 3388,
      "playing": 3389,
      "illeg": 3390,
      "broad": 3391,
      "rice": 3392,
      "##sis": 3393,
      "##inely": 3394,
      "bun": 3395,
      "politic": 3396,
      "caf": 3397,
      "update": 3398,
      "perfect": 3399,
      "luck": 3400,
      "occ": 3401,
      "envir": 3402,
      "##unt": 3403,
      "control": 3404,
      "shirts": 3405,
      "hid": 3406,
      "susp": 3407,
      "heav": 3408,
      "october": 3409,
      "##cking": 3410,
      "proced": 3411,
      "paypal": 3412,
      "surve": 3413,
      "genuinely": 3414,
      "edit": 3415,
      "pan": 3416,
      "sports": 3417,
      "##place": 3418,
      "opportunity": 3419,
      "environ": 3420,
      "ult": 3421,
      "##mon": 3422,
      "##int": 3423,
      "traff": 3424,
      "promot": 3425,
      "source": 3426,
      "tur": 3427,
      "simple": 3428,
      "taxi": 3429,
      "touch": 3430,
      "searching": 3431,
      "dinner": 3432,
      "lower": 3433,
      "##set": 3434,
      "birthday": 3435,
      "coo": 3436,
      "weligama": 3437,
      "increase": 3438,
      "british": 3439,
      "300": 3440,
      "don": 3441,
      "##hood": 3442,
      "##using": 3443,
      "scared": 3444,
      "assist": 3445,
      "daraz": 3446,
      "frustr": 3447,
      "##awa": 3448,
      "numbers": 3449,
      "balance": 3450,
      "ho": 3451,
      "lad": 3452,
      "mach": 3453,
      "##acking": 3454,
      "##thy": 3455,
      "surg": 3456,
      "safety": 3457,
      "stupid": 3458,
      "26": 3459,
      "grap": 3460,
      "majority": 3461,
      "traffic": 3462,
      "cig": 3463,
      "##apore": 3464,
      "disapp": 3465,
      "crit": 3466,
      "possib": 3467,
      "singapore": 3468,
      "valid": 3469,
      "entry": 3470,
      "names": 3471,
      "##goda": 3472,
      "##ilt": 3473,
      "canc": 3474,
      "asia": 3475,
      "hire": 3476,
      "requirements": 3477,
      "gem": 3478,
      "refer": 3479,
      "engineers": 3480,
      "speaking": 3481,
      "##itted": 3482,
      "choosing": 3483,
      "code": 3484,
      "dream": 3485,
      "##ault": 3486,
      "neigh": 3487,
      "record": 3488,
      "answers": 3489,
      "##agging": 3490,
      "rajap": 3491,
      "neighb": 3492,
      "analy": 3493,
      "##entic": 3494,
      "passion": 3495,
      "programs": 3496,
      "movies": 3497,
      "failed": 3498,
      "pi": 3499,
      "##ases": 3500,
      "sale": 3501,
      "boys": 3502,
      "meaning": 3503,
      "cultural": 3504,
      "commercial": 3505,
      "immigration": 3506,
      "civil": 3507,
      "son": 3508,
      "##ta": 3509,
      "##vember": 3510,
      "##essary": 3511,
      "words": 3512,
      "november": 3513,
      "flag": 3514,
      "##liament": 3515,
      "dubai": 3516,
      "resources": 3517,
      "##ani": 3518,
      "highly": 3519,
      "photo": 3520,
      "btw": 3521,
      "sense": 3522,
      "##ows": 3523,
      "alie": 3524,
      "scen": 3525,
      "score": 3526,
      "simp": 3527,
      "safari": 3528,
      "savings": 3529,
      "crypt": 3530,
      "east": 3531,
      "parliament": 3532,
      "faced": 3533,
      "ign": 3534,
      "total": 3535,
      "##istration": 3536,
      "challeng": 3537,
      "traditional": 3538,
      "environment": 3539,
      "lately": 3540,
      "wild": 3541,
      "##fact": 3542,
      "weight": 3543,
      "employees": 3544,
      "##rier": 3545,
      "##oles": 3546,
      "whatever": 3547,
      "waste": 3548,
      "log": 3549,
      "defin": 3550,
      "35": 3551,
      "##pr": 3552,
      "solution": 3553,
      "behav": 3554,
      "lak": 3555,
      "ram": 3556,
      "atm": 3557,
      "##istic": 3558,
      "booked": 3559,
      "teacher": 3560,
      "3rd": 3561,
      "##utely": 3562,
      "track": 3563,
      "secret": 3564,
      "fund": 3565,
      "migrate": 3566,
      "authentic": 3567,
      "arugam": 3568,
      "hy": 3569,
      "##use": 3570,
      "##gest": 3571,
      "##ffer": 3572,
      "##ides": 3573,
      "sajith": 3574,
      "immedi": 3575,
      "##ancy": 3576,
      "projects": 3577,
      "technology": 3578,
      "society": 3579,
      "aliex": 3580,
      "simply": 3581,
      "##mas": 3582,
      "ste": 3583,
      "heart": 3584,
      "treatment": 3585,
      "absolutely": 3586,
      "global": 3587,
      "gar": 3588,
      "##cul": 3589,
      "##sb": 3590,
      "##iring": 3591,
      "expenses": 3592,
      "selected": 3593,
      "aliexpress": 3594,
      "27": 3595,
      "##ners": 3596,
      "display": 3597,
      "bio": 3598,
      "apartment": 3599,
      "eye": 3600,
      "##ograph": 3601,
      "fan": 3602,
      "mer": 3603,
      "##hi": 3604,
      "##cy": 3605,
      "##ored": 3606,
      "chill": 3607,
      "facing": 3608,
      "redditors": 3609,
      "sector": 3610,
      "lt": 3611,
      "##ization": 3612,
      "##ifications": 3613,
      "##phones": 3614,
      "laws": 3615,
      "shopping": 3616,
      "citizen": 3617,
      "walk": 3618,
      "?)": 3619,
      "nature": 3620,
      "withdr": 3621,
      "attract": 3622,
      "owners": 3623,
      "protect": 3624,
      "withdraw": 3625,
      "fill": 3626,
      "##mm": 3627,
      "##orn": 3628,
      "platforms": 3629,
      "dumb": 3630,
      "table": 3631,
      "tik": 3632,
      "##ins": 3633,
      "stri": 3634,
      "peak": 3635,
      "clos": 3636,
      "manager": 3637,
      "photos": 3638,
      "##fc": 3639,
      "##idence": 3640,
      "##apura": 3641,
      "businesses": 3642,
      "attempt": 3643,
      "##aduate": 3644,
      "stopped": 3645,
      "mount": 3646,
      "toxic": 3647,
      "##ateg": 3648,
      "grade": 3649,
      "beaches": 3650,
      "holiday": 3651,
      "minimum": 3652,
      "illegal": 3653,
      "ye": 3654,
      "##for": 3655,
      "whe": 3656,
      "truly": 3657,
      "##epend": 3658,
      "incident": 3659,
      "redu": 3660,
      "impact": 3661,
      "present": 3662,
      "rental": 3663,
      "crowd": 3664,
      "rules": 3665,
      "permit": 3666,
      "kept": 3667,
      "##sible": 3668,
      "crisis": 3669,
      "alternative": 3670,
      "limited": 3671,
      "appointment": 3672,
      "rajapak": 3673,
      "ban": 3674,
      "ded": 3675,
      "jud": 3676,
      "##to": 3677,
      "independ": 3678,
      "carry": 3679,
      "transact": 3680,
      "human": 3681,
      "batt": 3682,
      "dh": 3683,
      "##iat": 3684,
      "##oof": 3685,
      "##pper": 3686,
      "posting": 3687,
      "fully": 3688,
      "younger": 3689,
      "large": 3690,
      "4g": 3691,
      "size": 3692,
      "##iy": 3693,
      "death": 3694,
      "evening": 3695,
      "hearing": 3696,
      "foreigner": 3697,
      "funds": 3698,
      "swe": 3699,
      "refund": 3700,
      "boyfriend": 3701,
      "benefits": 3702,
      "fb": 3703,
      "arg": 3704,
      "gives": 3705,
      "approved": 3706,
      "institute": 3707,
      "confirm": 3708,
      "survey": 3709,
      "dude": 3710,
      "samp": 3711,
      "##tle": 3712,
      "##ceed": 3713,
      "fresh": 3714,
      "startup": 3715,
      "rock": 3716,
      "vacation": 3717,
      "mechan": 3718,
      "bunch": 3719,
      "nav": 3720,
      "wind": 3721,
      "##ients": 3722,
      "anura": 3723,
      "relax": 3724,
      "decide": 3725,
      "moder": 3726,
      "lawy": 3727,
      "surgery": 3728,
      "crypto": 3729,
      "lond": 3730,
      "rom": 3731,
      "usual": 3732,
      "accomm": 3733,
      "posted": 3734,
      "broke": 3735,
      "dark": 3736,
      "##nb": 3737,
      "##pose": 3738,
      "##vant": 3739,
      "medium": 3740,
      "sales": 3741,
      "document": 3742,
      "senior": 3743,
      "sampath": 3744,
      "accommod": 3745,
      "ess": 3746,
      "fish": 3747,
      "ir": 3748,
      "telling": 3749,
      "##hd": 3750,
      "##vent": 3751,
      "##elled": 3752,
      "comfortable": 3753,
      "citizenship": 3754,
      "hidden": 3755,
      "lux": 3756,
      "##itely": 3757,
      "##aces": 3758,
      "que": 3759,
      "training": 3760,
      "owner": 3761,
      "milk": 3762,
      "ads": 3763,
      "god": 3764,
      "##alee": 3765,
      "facult": 3766,
      "amazon": 3767,
      "china": 3768,
      "threat": 3769,
      "##aged": 3770,
      "prote": 3771,
      "ended": 3772,
      "easily": 3773,
      "religion": 3774,
      "airl": 3775,
      "hur": 3776,
      "od": 3777,
      "##ring": 3778,
      "third": 3779,
      "upcoming": 3780,
      "overall": 3781,
      "attention": 3782,
      "autom": 3783,
      "version": 3784,
      "obviously": 3785,
      "imag": 3786,
      "cafe": 3787,
      "registered": 3788,
      "london": 3789,
      "poin": 3790,
      "rail": 3791,
      "##etic": 3792,
      "songs": 3793,
      "favorite": 3794,
      "trouble": 3795,
      "tele": 3796,
      "##adh": 3797,
      "##ads": 3798,
      "lif": 3799,
      "advert": 3800,
      "clar": 3801,
      "offered": 3802,
      "temple": 3803,
      "dom": 3804,
      "##hol": 3805,
      "gotten": 3806,
      "materi": 3807,
      "understanding": 3808,
      "camera": 3809,
      "##right": 3810,
      "##ka": 3811,
      "##ini": 3812,
      "addit": 3813,
      "coll": 3814,
      "series": 3815,
      "banking": 3816,
      "arrest": 3817,
      "lat": 3818,
      "vict": 3819,
      "##agama": 3820,
      "##izing": 3821,
      "fire": 3822,
      "sexual": 3823,
      "practice": 3824,
      "conversation": 3825,
      "ot": 3826,
      "oil": 3827,
      "##ishing": 3828,
      "##aster": 3829,
      "unp": 3830,
      "communic": 3831,
      "airlines": 3832,
      "hnd": 3833,
      "lunch": 3834,
      "mag": 3835,
      "##mes": 3836,
      "##fl": 3837,
      "minister": 3838,
      "court": 3839,
      "swim": 3840,
      "channels": 3841,
      "pursuing": 3842,
      "##awatuna": 3843,
      "sharing": 3844,
      "procedure": 3845,
      "##night": 3846,
      "##pris": 3847,
      "loss": 3848,
      "marry": 3849,
      "fibre": 3850,
      "vibe": 3851,
      "department": 3852,
      "trincom": 3853,
      "protein": 3854,
      "45": 3855,
      "inn": 3856,
      "input": 3857,
      "##ires": 3858,
      "unable": 3859,
      "debit": 3860,
      "unique": 3861,
      "exploring": 3862,
      "purchased": 3863,
      "central": 3864,
      "malays": 3865,
      "charges": 3866,
      "teachers": 3867,
      "bachelor": 3868,
      "definitely": 3869,
      "cmb": 3870,
      "lg": 3871,
      "rough": 3872,
      "wt": 3873,
      "##ends": 3874,
      "upgr": 3875,
      "prescri": 3876,
      "mods": 3877,
      "beginner": 3878,
      "commerce": 3879,
      "fucking": 3880,
      "fri": 3881,
      "kill": 3882,
      "vol": 3883,
      "thail": 3884,
      "unawatuna": 3885,
      "everyday": 3886,
      "cocon": 3887,
      "salaries": 3888,
      "annoying": 3889,
      "influenc": 3890,
      "becoming": 3891,
      "coconut": 3892,
      "fash": 3893,
      "finished": 3894,
      "smo": 3895,
      "trincomalee": 3896,
      "thailand": 3897,
      "28": 3898,
      "bang": 3899,
      "king": 3900,
      "kott": 3901,
      "s2": 3902,
      "uc": 3903,
      "var": 3904,
      "bul": 3905,
      "studied": 3906,
      "##worthy": 3907,
      "district": 3908,
      "politicians": 3909,
      "dish": 3910,
      "fear": 3911,
      "##hs": 3912,
      "##ork": 3913,
      "suffer": 3914,
      "##soci": 3915,
      "academic": 3916,
      "additional": 3917,
      "nut": 3918,
      "##rible": 3919,
      "ship": 3920,
      "drug": 3921,
      "remove": 3922,
      "presidential": 3923,
      "ikman": 3924,
      "elephant": 3925,
      "ragging": 3926,
      "lik": 3927,
      "##alls": 3928,
      "manu": 3929,
      "fashion": 3930,
      "catch": 3931,
      "##care": 3932,
      "##vp": 3933,
      "associ": 3934,
      "recover": 3935,
      "ideally": 3936,
      "sending": 3937,
      "rant": 3938,
      "##bed": 3939,
      "##ades": 3940,
      "##roid": 3941,
      "everywhere": 3942,
      "20s": 3943,
      "##itten": 3944,
      "##aha": 3945,
      "properly": 3946,
      "tukt": 3947,
      "mic": 3948,
      "obs": 3949,
      "##ises": 3950,
      "curry": 3951,
      "hands": 3952,
      "maint": 3953,
      "expected": 3954,
      "artic": 3955,
      "contract": 3956,
      "ladies": 3957,
      "ive": 3958,
      "pal": 3959,
      "##atic": 3960,
      "ord": 3961,
      "monit": 3962,
      "perspect": 3963,
      "progress": 3964,
      "trustworthy": 3965,
      "linked": 3966,
      "involved": 3967,
      "jew": 3968,
      "sess": 3969,
      "##itiya": 3970,
      "reject": 3971,
      "trade": 3972,
      "advices": 3973,
      "brought": 3974,
      "1000": 3975,
      "psychiat": 3976,
      "individuals": 3977,
      "necessary": 3978,
      "60": 3979,
      "ug": 3980,
      "chick": 3981,
      "added": 3982,
      "laptops": 3983,
      "arrive": 3984,
      "##cohol": 3985,
      "manufact": 3986,
      "00": 3987,
      "hous": 3988,
      "##lier": 3989,
      "##ince": 3990,
      "alcohol": 3991,
      "loved": 3992,
      "undergraduate": 3993,
      "anxi": 3994,
      "cous": 3995,
      "tel": 3996,
      "tut": 3997,
      "##bing": 3998,
      "##mission": 3999,
      "##ife": 4000,
      "valu": 4001,
      "themselves": 4002,
      "active": 4003,
      "cold": 4004,
      "surge": 4005,
      "attend": 4006,
      "viol": 4007,
      "profession": 4008,
      "religious": 4009,
      "status": 4010,
      "anxiety": 4011,
      "hr": 4012,
      "ic": 4013,
      "stick": 4014,
      "##izz": 4015,
      "teen": 4016,
      "importing": 4017,
      "imported": 4018,
      "receiving": 4019,
      "duty": 4020,
      "jvp": 4021,
      "##ef": 4022,
      "backp": 4023,
      "write": 4024,
      "connections": 4025,
      "deposit": 4026,
      "faculty": 4027,
      "den": 4028,
      "rank": 4029,
      "isra": 4030,
      "##asa": 4031,
      "##aching": 4032,
      "workers": 4033,
      "scene": 4034,
      "accident": 4035,
      "##csl": 4036,
      "##ender": 4037,
      "##arden": 4038,
      "sched": 4039,
      "itself": 4040,
      "corpor": 4041,
      "center": 4042,
      "sunday": 4043,
      "response": 4044,
      "significant": 4045,
      "israel": 4046,
      "cup": 4047,
      "nuge": 4048,
      "##anced": 4049,
      "bey": 4050,
      "coz": 4051,
      "delet": 4052,
      "models": 4053,
      "##mbps": 4054,
      "glass": 4055,
      "picture": 4056,
      "likely": 4057,
      "nugegoda": 4058,
      "dear": 4059,
      "eating": 4060,
      "gb": 4061,
      "##roll": 4062,
      "##anth": 4063,
      "anur": 4064,
      "toy": 4065,
      "lose": 4066,
      "ideal": 4067,
      "subsc": 4068,
      "2022": 4069,
      "surpris": 4070,
      "meeting": 4071,
      "premium": 4072,
      "yeah": 4073,
      "jay": 4074,
      "lay": 4075,
      "##how": 4076,
      "customers": 4077,
      "clearly": 4078,
      "sem": 4079,
      "##ero": 4080,
      "admin": 4081,
      "##ival": 4082,
      "agre": 4083,
      "specially": 4084,
      "qualifications": 4085,
      "cafes": 4086,
      "wtf": 4087,
      "chicken": 4088,
      "pul": 4089,
      "ton": 4090,
      "##dom": 4091,
      "conv": 4092,
      "image": 4093,
      "##aka": 4094,
      "consum": 4095,
      "construct": 4096,
      "fuel": 4097,
      "japanese": 4098,
      "piec": 4099,
      "dent": 4100,
      "ppl": 4101,
      "##itions": 4102,
      "##eth": 4103,
      "addition": 4104,
      "appear": 4105,
      "##astic": 4106,
      "trains": 4107,
      "discount": 4108,
      "created": 4109,
      "electricity": 4110,
      "copy": 4111,
      "##my": 4112,
      "##anch": 4113,
      "pros": 4114,
      "registration": 4115,
      "positive": 4116,
      "insight": 4117,
      "##ruary": 4118,
      "growth": 4119,
      "##ergy": 4120,
      "suitable": 4121,
      "february": 4122,
      "graphic": 4123,
      "fight": 4124,
      "pic": 4125,
      "##aging": 4126,
      "##awe": 4127,
      "blood": 4128,
      "showing": 4129,
      "nearby": 4130,
      "turned": 4131,
      "concerned": 4132,
      "particularly": 4133,
      "flying": 4134,
      "esc": 4135,
      "gate": 4136,
      "ill": 4137,
      "roll": 4138,
      "regul": 4139,
      "healthy": 4140,
      "casual": 4141,
      "teaching": 4142,
      "ltte": 4143,
      "capt": 4144,
      "fle": 4145,
      "style": 4146,
      "knew": 4147,
      "export": 4148,
      "famous": 4149,
      "discussion": 4150,
      "graduate": 4151,
      "alternatives": 4152,
      "macbook": 4153,
      "##tok": 4154,
      "unit": 4155,
      "frequ": 4156,
      "internships": 4157,
      "film": 4158,
      "edex": 4159,
      "american": 4160,
      "tuition": 4161,
      "luxury": 4162,
      "##yal": 4163,
      "adhd": 4164,
      "reality": 4165,
      "messages": 4166,
      "excited": 4167,
      "dollars": 4168,
      "suddenly": 4169,
      "machine": 4170,
      "tiktok": 4171,
      "various": 4172,
      "none": 4173,
      "tired": 4174,
      "##atively": 4175,
      "trcsl": 4176,
      "scoot": 4177,
      "vat": 4178,
      "rev": 4179,
      "alot": 4180,
      "agent": 4181,
      "planned": 4182,
      "##anger": 4183,
      "setting": 4184,
      "removed": 4185,
      "cross": 4186,
      "##uri": 4187,
      "##ule": 4188,
      "conduct": 4189,
      "feat": 4190,
      "contrib": 4191,
      "offering": 4192,
      "developer": 4193,
      "dogs": 4194,
      "double": 4195,
      "immediately": 4196,
      "psychiatrist": 4197,
      "sens": 4198,
      "##erve": 4199,
      "brain": 4200,
      "locally": 4201,
      "easier": 4202,
      "systems": 4203,
      "sounds": 4204,
      "satur": 4205,
      "cinem": 4206,
      "mba": 4207,
      "taste": 4208,
      "lgbt": 4209,
      "beyond": 4210,
      "dual": 4211,
      "##tered": 4212,
      "yourself": 4213,
      "outd": 4214,
      "favour": 4215,
      "voting": 4216,
      "mistake": 4217,
      "broadband": 4218,
      "malaysia": 4219,
      "?\"": 4220,
      "cream": 4221,
      "ud": 4222,
      "##eniya": 4223,
      "memor": 4224,
      "##ells": 4225,
      "spent": 4226,
      "wanting": 4227,
      "scre": 4228,
      "anti": 4229,
      "tatt": 4230,
      "##light": 4231,
      "##kk": 4232,
      "tool": 4233,
      "##istics": 4234,
      "ground": 4235,
      "biology": 4236,
      "calcul": 4237,
      "ven": 4238,
      "whenever": 4239,
      "biggest": 4240,
      "candidate": 4241,
      "natural": 4242,
      "imagine": 4243,
      "edexcel": 4244,
      "tattoo": 4245,
      "cook": 4246,
      "pen": 4247,
      "pow": 4248,
      "shot": 4249,
      "shif": 4250,
      "##roc": 4251,
      "separ": 4252,
      "perman": 4253,
      "assign": 4254,
      "100k": 4255,
      "approval": 4256,
      "views": 4257,
      "creating": 4258,
      "effective": 4259,
      "embass": 4260,
      "germany": 4261,
      "ay": 4262,
      "bri": 4263,
      "upon": 4264,
      "##asts": 4265,
      "bringing": 4266,
      "beauty": 4267,
      "leads": 4268,
      "changing": 4269,
      "votes": 4270,
      "##ories": 4271,
      "forg": 4272,
      "##icient": 4273,
      "asian": 4274,
      "seat": 4275,
      "pharm": 4276,
      "twice": 4277,
      "##airs": 4278,
      "solutions": 4279,
      "trading": 4280,
      "shirt": 4281,
      "motorcy": 4282,
      "ang": 4283,
      "built": 4284,
      "dehi": 4285,
      "##raid": 4286,
      "scammed": 4287,
      "damb": 4288,
      "growing": 4289,
      "eventually": 4290,
      "lon": 4291,
      "lady": 4292,
      "nsb": 4293,
      "rob": 4294,
      "##lus": 4295,
      "android": 4296,
      "afraid": 4297,
      "##ension": 4298,
      "earlier": 4299,
      "lots": 4300,
      "solid": 4301,
      "tamils": 4302,
      "purchasing": 4303,
      "papers": 4304,
      "methods": 4305,
      "restrictions": 4306,
      "ultra": 4307,
      "cigar": 4308,
      "##adhapura": 4309,
      "##tel": 4310,
      "##edom": 4311,
      "somehow": 4312,
      "##agn": 4313,
      "didnt": 4314,
      "cheers": 4315,
      "keeps": 4316,
      "keeping": 4317,
      "changes": 4318,
      "practical": 4319,
      "sources": 4320,
      "anuradhapura": 4321,
      "subscri": 4322,
      "dur": 4323,
      "gain": 4324,
      "sick": 4325,
      "wi": 4326,
      "##20": 4327,
      "##atory": 4328,
      "liqu": 4329,
      "spread": 4330,
      "##gram": 4331,
      "respond": 4332,
      "childhood": 4333,
      "damn": 4334,
      "hangout": 4335,
      "steps": 4336,
      "valuable": 4337,
      "bent": 4338,
      "buff": 4339,
      "##inder": 4340,
      "renting": 4341,
      "facilities": 4342,
      "target": 4343,
      "challenges": 4344,
      "ucsc": 4345,
      "base": 4346,
      "cim": 4347,
      "eats": 4348,
      "file": 4349,
      "nar": 4350,
      "pool": 4351,
      "##gar": 4352,
      "lived": 4353,
      "##oph": 4354,
      "##iliar": 4355,
      "ahead": 4356,
      "christmas": 4357,
      "dehiw": 4358,
      "gp": 4359,
      "alth": 4360,
      "marks": 4361,
      "agency": 4362,
      "locations": 4363,
      "throw": 4364,
      ":(": 4365,
      "honey": 4366,
      "ly": 4367,
      "##hold": 4368,
      "##iest": 4369,
      "##rance": 4370,
      "##anda": 4371,
      "##ulation": 4372,
      "familiar": 4373,
      "generation": 4374,
      "types": 4375,
      "joining": 4376,
      "delivered": 4377,
      "concerns": 4378,
      "launch": 4379,
      "gay": 4380,
      "tho": 4381,
      "choc": 4382,
      "bikes": 4383,
      "distance": 4384,
      "accepted": 4385,
      "points": 4386,
      "embassy": 4387,
      "zero": 4388,
      "##ects": 4389,
      "##cially": 4390,
      "airtel": 4391,
      "profit": 4392,
      "negative": 4393,
      "walking": 4394,
      "tuktuk": 4395,
      "icbt": 4396,
      "although": 4397,
      "##kn": 4398,
      "##adeniya": 4399,
      "user": 4400,
      "funny": 4401,
      "generally": 4402,
      "controll": 4403,
      "replacement": 4404,
      "29": 4405,
      "cart": 4406,
      "hyp": 4407,
      "tas": 4408,
      "##ler": 4409,
      "##itation": 4410,
      "debt": 4411,
      "relatives": 4412,
      "struct": 4413,
      "finish": 4414,
      "purpose": 4415,
      "ordering": 4416,
      "setup": 4417,
      "2019": 4418,
      "##going": 4419,
      "electronics": 4420,
      "pressure": 4421,
      "80": 4422,
      "caught": 4423,
      "rad": 4424,
      "##ipped": 4425,
      "##ton": 4426,
      "thats": 4427,
      "truth": 4428,
      "helps": 4429,
      "clin": 4430,
      "peradeniya": 4431,
      "emot": 4432,
      "checking": 4433,
      "provided": 4434,
      "eyes": 4435,
      "chinese": 4436,
      "broken": 4437,
      "telegram": 4438,
      "batch": 4439,
      "fat": 4440,
      "tough": 4441,
      "##omb": 4442,
      "##itude": 4443,
      "##ett": 4444,
      "##idents": 4445,
      "##ading": 4446,
      "wealth": 4447,
      "solar": 4448,
      "performance": 4449,
      "achieve": 4450,
      "##life": 4451,
      "##eness": 4452,
      "##usi": 4453,
      "helping": 4454,
      "##soft": 4455,
      "##angama": 4456,
      "useful": 4457,
      "attach": 4458,
      "managed": 4459,
      "typical": 4460,
      "fields": 4461,
      "include": 4462,
      "photograph": 4463,
      "financially": 4464,
      "networ": 4465,
      "provider": 4466,
      "cse": 4467,
      "coin": 4468,
      "ice": 4469,
      "rn": 4470,
      "##ae": 4471,
      "##icious": 4472,
      "##lement": 4473,
      "knowing": 4474,
      "rights": 4475,
      "informed": 4476,
      "hopefully": 4477,
      "##iction": 4478,
      "dealing": 4479,
      "terror": 4480,
      "hnb": 4481,
      "kal": 4482,
      "##cent": 4483,
      "##de": 4484,
      "##vid": 4485,
      "##urs": 4486,
      "##aduwa": 4487,
      "plant": 4488,
      "losing": 4489,
      "players": 4490,
      "impress": 4491,
      "pictures": 4492,
      "unsure": 4493,
      "oppos": 4494,
      "kottu": 4495,
      "perspective": 4496,
      "pizz": 4497,
      "shared": 4498,
      "slight": 4499,
      "closed": 4500,
      "heading": 4501,
      "rooms": 4502,
      "renewal": 4503,
      "divor": 4504,
      "##market": 4505,
      "obtain": 4506,
      "derm": 4507,
      "soo": 4508,
      "##50": 4509,
      "privacy": 4510,
      "discover": 4511,
      "constantly": 4512,
      "cases": 4513,
      "corruption": 4514,
      "friday": 4515,
      "dambulla": 4516,
      "5g": 4517,
      "bills": 4518,
      "four": 4519,
      "##ayake": 4520,
      "unf": 4521,
      "##ateful": 4522,
      "wash": 4523,
      "##acks": 4524,
      "branch": 4525,
      "became": 4526,
      "cru": 4527,
      "watched": 4528,
      "putting": 4529,
      "buddhism": 4530,
      "adults": 4531,
      "dollar": 4532,
      "electronic": 4533,
      "circ": 4534,
      "corporate": 4535,
      "31": 4536,
      "ge": 4537,
      "ll": 4538,
      "mc": 4539,
      "oh": 4540,
      "voice": 4541,
      "##inary": 4542,
      "##least": 4543,
      "exec": 4544,
      "atleast": 4545,
      "##ague": 4546,
      "##unk": 4547,
      "advent": 4548,
      "interact": 4549,
      "secure": 4550,
      "veget": 4551,
      "struggle": 4552,
      "psychology": 4553,
      "cyber": 4554,
      "relevant": 4555,
      "heavy": 4556,
      "nsbm": 4557,
      "je": 4558,
      "tend": 4559,
      "##ience": 4560,
      "##60": 4561,
      "##ilies": 4562,
      "react": 4563,
      "clients": 4564,
      "settle": 4565,
      "wearing": 4566,
      "graduates": 4567,
      "pett": 4568,
      "fans": 4569,
      "pod": 4570,
      "##mp": 4571,
      "##inations": 4572,
      "##key": 4573,
      "chances": 4574,
      "unre": 4575,
      "goods": 4576,
      "sitting": 4577,
      "written": 4578,
      "elections": 4579,
      "assum": 4580,
      "barely": 4581,
      "tempor": 4582,
      "freelance": 4583,
      "##aughter": 4584,
      "mixed": 4585,
      "modern": 4586,
      "chocol": 4587,
      "thri": 4588,
      "unl": 4589,
      "ens": 4590,
      "spons": 4591,
      "helped": 4592,
      "diss": 4593,
      "blue": 4594,
      "##encies": 4595,
      "minor": 4596,
      "matara": 4597,
      "speeds": 4598,
      "technical": 4599,
      "experiencing": 4600,
      "device": 4601,
      "beginning": 4602,
      "football": 4603,
      "archit": 4604,
      "##iet": 4605,
      "##mitted": 4606,
      "##ening": 4607,
      "##thusi": 4608,
      "libr": 4609,
      "tra": 4610,
      "condit": 4611,
      "enthusi": 4612,
      "deb": 4613,
      "##ours": 4614,
      "scams": 4615,
      "indians": 4616,
      "transportation": 4617,
      "ahangama": 4618,
      "surfing": 4619,
      "encoun": 4620,
      "bentota": 4621,
      "?!": 4622,
      "kum": 4623,
      "pak": 4624,
      "sam": 4625,
      "##da": 4626,
      "states": 4627,
      "expert": 4628,
      "compar": 4629,
      "descri": 4630,
      "conflic": 4631,
      "##oko": 4632,
      "successful": 4633,
      "raised": 4634,
      "destination": 4635,
      "candidates": 4636,
      "policies": 4637,
      "mechanical": 4638,
      "90": 4639,
      "aunt": 4640,
      "kel": 4641,
      "##arana": 4642,
      "worry": 4643,
      "colon": 4644,
      "families": 4645,
      "supermarket": 4646,
      "latest": 4647,
      "mad": 4648,
      "##mers": 4649,
      "held": 4650,
      "outle": 4651,
      "grateful": 4652,
      "##awal": 4653,
      "region": 4654,
      "crush": 4655,
      "emerg": 4656,
      "##ength": 4657,
      "increased": 4658,
      "egg": 4659,
      "gamp": 4660,
      "pair": 4661,
      "##atics": 4662,
      "hikk": 4663,
      "##cked": 4664,
      "incred": 4665,
      "seemed": 4666,
      "dates": 4667,
      "situations": 4668,
      "trusted": 4669,
      "monitor": 4670,
      "toyota": 4671,
      "motorcycle": 4672,
      "bother": 4673,
      "hall": 4674,
      "unless": 4675,
      "shoot": 4676,
      "bars": 4677,
      "designer": 4678,
      "particip": 4679,
      "released": 4680,
      "totally": 4681,
      "initially": 4682,
      "couples": 4683,
      "courier": 4684,
      "policy": 4685,
      "\",": 4686,
      "gun": 4687,
      "kore": 4688,
      "msc": 4689,
      "push": 4690,
      "rus": 4691,
      "san": 4692,
      "walle": 4693,
      "quit": 4694,
      "##ously": 4695,
      "mini": 4696,
      "employment": 4697,
      "therapy": 4698,
      "railway": 4699,
      "victim": 4700,
      "conditions": 4701,
      "dj": 4702,
      "pil": 4703,
      "tab": 4704,
      "##erts": 4705,
      "##aram": 4706,
      "proceed": 4707,
      "energy": 4708,
      "advanced": 4709,
      "blame": 4710,
      "10k": 4711,
      "signal": 4712,
      "quickly": 4713,
      "estab": 4714,
      "complaint": 4715,
      "cinnam": 4716,
      "therapist": 4717,
      "lawyer": 4718,
      "fing": 4719,
      "mel": 4720,
      "nation": 4721,
      "tang": 4722,
      "##bl": 4723,
      "sea": 4724,
      "spa": 4725,
      "##rupt": 4726,
      "belie": 4727,
      "freedom": 4728,
      "replies": 4729,
      "doubt": 4730,
      "blocked": 4731,
      "lakhs": 4732,
      "construction": 4733,
      "dehiwala": 4734,
      "cinnamon": 4735,
      "cos": 4736,
      "filled": 4737,
      "hind": 4738,
      "##rated": 4739,
      "##lk": 4740,
      "##xy": 4741,
      "##erved": 4742,
      "anal": 4743,
      "tow": 4744,
      "##rimin": 4745,
      "##ela": 4746,
      "##ests": 4747,
      "meal": 4748,
      "recru": 4749,
      "regret": 4750,
      "trips": 4751,
      "muslims": 4752,
      "bags": 4753,
      "analyst": 4754,
      "navig": 4755,
      "hikkaduwa": 4756,
      "ip": 4757,
      "##log": 4758,
      "##orters": 4759,
      "stable": 4760,
      "unc": 4761,
      "##ager": 4762,
      "therefore": 4763,
      "##ella": 4764,
      "parking": 4765,
      "strateg": 4766,
      "highest": 4767,
      "realized": 4768,
      "delay": 4769,
      "learned": 4770,
      "licence": 4771,
      "missed": 4772,
      "charged": 4773,
      "upgrade": 4774,
      "linkedin": 4775,
      "pun": 4776,
      "sir": 4777,
      "vet": 4778,
      "##bridge": 4779,
      "abuse": 4780,
      "resort": 4781,
      "agree": 4782,
      "repres": 4783,
      "investig": 4784,
      "updates": 4785,
      "accommodation": 4786,
      "gce": 4787,
      "jo": 4788,
      "##ators": 4789,
      "forget": 4790,
      "heat": 4791,
      "pred": 4792,
      "hiri": 4793,
      "covid": 4794,
      "surv": 4795,
      "##what": 4796,
      "arrived": 4797,
      "gifts": 4798,
      "epf": 4799,
      "possibly": 4800,
      "scooter": 4801,
      "dermat": 4802,
      "\\-": 4803,
      "aim": 4804,
      "bon": 4805,
      "cv": 4806,
      "dry": 4807,
      "kdu": 4808,
      "lugg": 4809,
      "mir": 4810,
      "mum": 4811,
      "tb": 4812,
      "bull": 4813,
      "##ction": 4814,
      "##ivity": 4815,
      "feelings": 4816,
      "imports": 4817,
      "apiit": 4818,
      "matters": 4819,
      "##apped": 4820,
      "joined": 4821,
      "migration": 4822,
      "campa": 4823,
      "diagn": 4824,
      "eb": 4825,
      "pure": 4826,
      "##enov": 4827,
      "##itals": 4828,
      "##icy": 4829,
      "stage": 4830,
      "trail": 4831,
      "somewhat": 4832,
      "##box": 4833,
      "quiet": 4834,
      "cloud": 4835,
      "busy": 4836,
      "minute": 4837,
      "desper": 4838,
      "opening": 4839,
      "played": 4840,
      "impos": 4841,
      "completing": 4842,
      "warning": 4843,
      "developed": 4844,
      "cheapest": 4845,
      "employee": 4846,
      "motiv": 4847,
      "depression": 4848,
      "disappoint": 4849,
      "arrested": 4850,
      "saturday": 4851,
      "ba": 4852,
      "las": 4853,
      "##ye": 4854,
      "##wise": 4855,
      "goal": 4856,
      "drama": 4857,
      "talked": 4858,
      "discord": 4859,
      "province": 4860,
      "sells": 4861,
      "mathem": 4862,
      "##anned": 4863,
      "leading": 4864,
      "migrating": 4865,
      "additionally": 4866,
      "favourite": 4867,
      "!)": 4868,
      "400": 4869,
      "?.": 4870,
      "nib": 4871,
      "pu": 4872,
      "uae": 4873,
      "##pe": 4874,
      "##sa": 4875,
      "##ette": 4876,
      "##acting": 4877,
      "anyways": 4878,
      "strict": 4879,
      "shock": 4880,
      "liber": 4881,
      "cancel": 4882,
      "hiking": 4883,
      "##ensive": 4884,
      "cambridge": 4885,
      "estate": 4886,
      "daughter": 4887,
      "hes": 4888,
      "koko": 4889,
      "og": 4890,
      "tip": 4891,
      "##ront": 4892,
      "##ata": 4893,
      "##inda": 4894,
      "vision": 4895,
      "srilankans": 4896,
      "discrimin": 4897,
      "mainten": 4898,
      "roads": 4899,
      "former": 4900,
      "devices": 4901,
      "holidays": 4902,
      "error": 4903,
      "reduce": 4904,
      "campaign": 4905,
      "maintenance": 4906,
      "50k": 4907,
      "bes": 4908,
      "gh": 4909,
      "gala": 4910,
      "loud": 4911,
      "vari": 4912,
      "##ray": 4913,
      "##yn": 4914,
      "force": 4915,
      "##iding": 4916,
      "reven": 4917,
      "canad": 4918,
      "##ches": 4919,
      "uncle": 4920,
      "advis": 4921,
      "relatively": 4922,
      "poll": 4923,
      "transit": 4924,
      "nearly": 4925,
      "interviews": 4926,
      "fitness": 4927,
      "corrupt": 4928,
      "micro": 4929,
      "professionals": 4930,
      "flex": 4931,
      "architect": 4932,
      "establish": 4933,
      "hond": 4934,
      "jav": 4935,
      "##nal": 4936,
      "##icul": 4937,
      "unis": 4938,
      "convert": 4939,
      "usage": 4940,
      "proof": 4941,
      "thinks": 4942,
      "parent": 4943,
      "ps5": 4944,
      "ath": 4945,
      "vib": 4946,
      "##fast": 4947,
      "anime": 4948,
      "abans": 4949,
      "##uses": 4950,
      "advant": 4951,
      "workplace": 4952,
      "prime": 4953,
      "flow": 4954,
      "realize": 4955,
      "opened": 4956,
      "expecting": 4957,
      "translation": 4958,
      "racist": 4959,
      "luggage": 4960,
      "5k": 4961,
      "garden": 4962,
      "harm": 4963,
      "tor": 4964,
      "tail": 4965,
      "upper": 4966,
      "##nic": 4967,
      "##ox": 4968,
      "##itter": 4969,
      "##ops": 4970,
      "suic": 4971,
      "sugar": 4972,
      "##ears": 4973,
      "suggested": 4974,
      "coverage": 4975,
      "remot": 4976,
      "repe": 4977,
      "showed": 4978,
      "apolog": 4979,
      "communities": 4980,
      "contacted": 4981,
      "announ": 4982,
      "embar": 4983,
      "##----------------": 4984,
      "behavior": 4985,
      "garb": 4986,
      "powder": 4987,
      "pettah": 4988,
      "70": 4989,
      "cities": 4990,
      "jump": 4991,
      "rap": 4992,
      "##oices": 4993,
      "##idas": 4994,
      "extern": 4995,
      "uses": 4996,
      "submit": 4997,
      "practices": 4998,
      "providers": 4999,
      "capital": 5000,
      "##poses": 5001,
      "lectur": 5002,
      "cima": 5003,
      "honeym": 5004,
      "nibm": 5005,
      "hust": 5006,
      "##iate": 5007,
      "##ivers": 5008,
      "##ze": 5009,
      "##adesh": 5010,
      "##sib": 5011,
      "speech": 5012,
      "topics": 5013,
      "stocks": 5014,
      "scholarships": 5015,
      "backpack": 5016,
      "pizza": 5017,
      "russi": 5018,
      "external": 5019,
      "eld": 5020,
      "fed": 5021,
      "jer": 5022,
      "mail": 5023,
      "oce": 5024,
      "thread": 5025,
      "##oned": 5026,
      "whom": 5027,
      "amb": 5028,
      "somebody": 5029,
      "hass": 5030,
      "insp": 5031,
      "##ancing": 5032,
      "replace": 5033,
      "european": 5034,
      "bachelors": 5035,
      "keyboard": 5036,
      "crowded": 5037,
      "temporary": 5038,
      "tangalle": 5039,
      "remotely": 5040,
      "honeymoon": 5041,
      "kur": 5042,
      "lines": 5043,
      "ms": 5044,
      "pin": 5045,
      "##rain": 5046,
      "##gn": 5047,
      "color": 5048,
      "watches": 5049,
      "legally": 5050,
      "syll": 5051,
      "250": 5052,
      "##oken": 5053,
      "2000": 5054,
      "clearance": 5055,
      "searched": 5056,
      "breakfast": 5057,
      "##priate": 5058,
      "standards": 5059,
      "communication": 5060,
      "piece": 5061,
      "execut": 5062,
      "represent": 5063,
      "fault": 5064,
      "porn": 5065,
      "##vere": 5066,
      "##zz": 5067,
      "##ecurity": 5068,
      "member": 5069,
      "chose": 5070,
      "phd": 5071,
      "surr": 5072,
      "educational": 5073,
      "breaking": 5074,
      "leader": 5075,
      "199": 5076,
      "population": 5077,
      "section": 5078,
      "collection": 5079,
      "##prise": 5080,
      "translate": 5081,
      "frustrating": 5082,
      "surprised": 5083,
      "lgbtq": 5084,
      "honda": 5085,
      "garbage": 5086,
      "fest": 5087,
      "##isters": 5088,
      "##urved": 5089,
      "trend": 5090,
      "sup": 5091,
      "adidas": 5092,
      "arts": 5093,
      "##ards": 5094,
      "seek": 5095,
      "disg": 5096,
      "messed": 5097,
      "effort": 5098,
      "shitty": 5099,
      "satis": 5100,
      "responsib": 5101,
      "initial": 5102,
      "treated": 5103,
      "buffet": 5104,
      "pakist": 5105,
      "syllab": 5106,
      "cree": 5107,
      "danger": 5108,
      "gig": 5109,
      "gather": 5110,
      "mur": 5111,
      "van": 5112,
      "##iot": 5113,
      "##areness": 5114,
      "##itary": 5115,
      "ongoing": 5116,
      "deals": 5117,
      "clim": 5118,
      "resol": 5119,
      "lets": 5120,
      "accounting": 5121,
      "investments": 5122,
      "ridicul": 5123,
      "focused": 5124,
      "vacc": 5125,
      "depressed": 5126,
      "features": 5127,
      "tbh": 5128,
      "canadian": 5129,
      "cake": 5130,
      "hons": 5131,
      "joke": 5132,
      "laugh": 5133,
      "mall": 5134,
      "pages": 5135,
      "round": 5136,
      "yo": 5137,
      "##cut": 5138,
      "##va": 5139,
      "##aragama": 5140,
      "##aming": 5141,
      "ali": 5142,
      "useless": 5143,
      "prevent": 5144,
      "instruct": 5145,
      "kindly": 5146,
      "##ocr": 5147,
      "providing": 5148,
      "awareness": 5149,
      "terrible": 5150,
      "turning": 5151,
      "transactions": 5152,
      "lifest": 5153,
      "material": 5154,
      "cousin": 5155,
      "gap": 5156,
      "##mi": 5157,
      "##ales": 5158,
      "anytime": 5159,
      "meals": 5160,
      "##ysis": 5161,
      "imax": 5162,
      "resign": 5163,
      "##others": 5164,
      "boc": 5165,
      "talent": 5166,
      "respons": 5167,
      "programme": 5168,
      "leaders": 5169,
      "dropped": 5170,
      "gyms": 5171,
      "hospitals": 5172,
      "previously": 5173,
      "maintain": 5174,
      "houses": 5175,
      "ayurved": 5176,
      "gampaha": 5177,
      "rav": 5178,
      "##oom": 5179,
      "##link": 5180,
      "adop": 5181,
      "upload": 5182,
      "clue": 5183,
      "resident": 5184,
      "brown": 5185,
      "##vels": 5186,
      "wont": 5187,
      "arrang": 5188,
      "cybers": 5189,
      "passionate": 5190,
      "deduct": 5191,
      "forgot": 5192,
      "wallet": 5193,
      "75": 5194,
      "jun": 5195,
      "taught": 5196,
      "ui": 5197,
      "##ged": 5198,
      "##outh": 5199,
      "inqu": 5200,
      "##entially": 5201,
      "reaching": 5202,
      "enroll": 5203,
      "flav": 5204,
      "drinks": 5205,
      "grew": 5206,
      "recognized": 5207,
      "otp": 5208,
      "swimming": 5209,
      "orders": 5210,
      "regulations": 5211,
      "attached": 5212,
      "impossible": 5213,
      "galaxy": 5214,
      "surround": 5215,
      "55": 5216,
      "bs": 5217,
      "bamb": 5218,
      "five": 5219,
      "mr": 5220,
      "rat": 5221,
      "rude": 5222,
      "roles": 5223,
      "##here": 5224,
      "##cl": 5225,
      "##iles": 5226,
      "uncom": 5227,
      "recip": 5228,
      "expos": 5229,
      "##ketiya": 5230,
      "flu": 5231,
      "purposes": 5232,
      "foods": 5233,
      "charac": 5234,
      "##ibly": 5235,
      "govt": 5236,
      "occas": 5237,
      "argu": 5238,
      "tower": 5239,
      "hiring": 5240,
      "lav": 5241,
      "nan": 5242,
      "pays": 5243,
      "uom": 5244,
      "spir": 5245,
      "loans": 5246,
      "client": 5247,
      "starts": 5248,
      "commission": 5249,
      "drinking": 5250,
      "##ological": 5251,
      "singer": 5252,
      "southern": 5253,
      "minded": 5254,
      "##ibility": 5255,
      "direction": 5256,
      "included": 5257,
      "essential": 5258,
      "article": 5259,
      "rejected": 5260,
      "##lkr": 5261,
      "hob": 5262,
      "ped": 5263,
      "##wa": 5264,
      "##ena": 5265,
      "summ": 5266,
      "chur": 5267,
      "20k": 5268,
      "##awath": 5269,
      "##enses": 5270,
      "decl": 5271,
      "basis": 5272,
      "australian": 5273,
      "psychologist": 5274,
      "massive": 5275,
      "freelancing": 5276,
      "villa": 5277,
      "cooking": 5278,
      "permanent": 5279,
      "##ettes": 5280,
      "es": 5281,
      "ten": 5282,
      "wall": 5283,
      "##isions": 5284,
      "notes": 5285,
      "conven": 5286,
      "adam": 5287,
      "visas": 5288,
      "hike": 5289,
      "intell": 5290,
      "normally": 5291,
      "mald": 5292,
      "rule": 5293,
      "virgin": 5294,
      "ethnic": 5295,
      "wheel": 5296,
      "slightly": 5297,
      "divorce": 5298,
      "mathematics": 5299,
      "ale": 5300,
      "banned": 5301,
      "mand": 5302,
      "nd": 5303,
      "rare": 5304,
      "tap": 5305,
      "ya": 5306,
      "##bud": 5307,
      "##10": 5308,
      "##icated": 5309,
      "youth": 5310,
      "##urb": 5311,
      "alleg": 5312,
      "connected": 5313,
      "##ika": 5314,
      "charging": 5315,
      "counter": 5316,
      "absolute": 5317,
      "gems": 5318,
      "schedule": 5319,
      "traum": 5320,
      "hiriketiya": 5321,
      "cybersecurity": 5322,
      "uncomfort": 5323,
      "##adays": 5324,
      "likes": 5325,
      "meat": 5326,
      "##agon": 5327,
      "accom": 5328,
      "actions": 5329,
      "firm": 5330,
      "floor": 5331,
      "entre": 5332,
      "shorts": 5333,
      "contacts": 5334,
      "centre": 5335,
      "reached": 5336,
      "prepare": 5337,
      "dermatologist": 5338,
      "hassle": 5339,
      "\"?": 5340,
      "07": 5341,
      "fancy": 5342,
      "rum": 5343,
      "sab": 5344,
      "wick": 5345,
      "yog": 5346,
      "##just": 5347,
      "##vely": 5348,
      "##aniya": 5349,
      "##ores": 5350,
      "forced": 5351,
      "##ooks": 5352,
      "shut": 5353,
      "bum": 5354,
      "concept": 5355,
      "spoken": 5356,
      "nowadays": 5357,
      "server": 5358,
      "officer": 5359,
      "influencers": 5360,
      "session": 5361,
      "ghost": 5362,
      "revenue": 5363,
      "intellig": 5364,
      "fd": 5365,
      "lenov": 5366,
      "wit": 5367,
      "##ladesh": 5368,
      "##miss": 5369,
      "##gala": 5370,
      "##itar": 5371,
      "##eling": 5372,
      "door": 5373,
      "##ppers": 5374,
      "expired": 5375,
      "intake": 5376,
      "draw": 5377,
      "sky": 5378,
      "passports": 5379,
      "##rics": 5380,
      "lessons": 5381,
      "saving": 5382,
      "starlink": 5383,
      "bottle": 5384,
      "authorities": 5385,
      "prescription": 5386,
      "##antha": 5387,
      "syllabus": 5388,
      "lenovo": 5389,
      "sar": 5390,
      "wire": 5391,
      "##rol": 5392,
      "##ties": 5393,
      "##ko": 5394,
      "##anayake": 5395,
      "plastic": 5396,
      "sust": 5397,
      "##oss": 5398,
      "priced": 5399,
      "pricing": 5400,
      "elig": 5401,
      "2020": 5402,
      "earth": 5403,
      "flash": 5404,
      "preferred": 5405,
      "entrance": 5406,
      "annual": 5407,
      "motorb": 5408,
      "##rooms": 5409,
      "bangladesh": 5410,
      "uncomfortable": 5411,
      "3d": 5412,
      "tooth": 5413,
      "##ila": 5414,
      "stack": 5415,
      "##amed": 5416,
      "prop": 5417,
      "percent": 5418,
      "complex": 5419,
      "artist": 5420,
      "military": 5421,
      "claiming": 5422,
      "identify": 5423,
      "transaction": 5424,
      "udawal": 5425,
      "chocolate": 5426,
      "responses": 5427,
      ",\"": 5428,
      "ast": 5429,
      "ball": 5430,
      "ec": 5431,
      "kat": 5432,
      "mill": 5433,
      "ring": 5434,
      "rot": 5435,
      "squ": 5436,
      "ut": 5437,
      "vent": 5438,
      "##aa": 5439,
      "##inge": 5440,
      "##onnect": 5441,
      "##omed": 5442,
      "italy": 5443,
      "alright": 5444,
      "shown": 5445,
      "ash": 5446,
      "army": 5447,
      "##udes": 5448,
      "##aked": 5449,
      "earbud": 5450,
      "markets": 5451,
      "requirement": 5452,
      "snork": 5453,
      "leaves": 5454,
      "equip": 5455,
      "romant": 5456,
      "hurt": 5457,
      "##flix": 5458,
      "shift": 5459,
      "bc": 5460,
      "furn": 5461,
      "nom": 5462,
      "##pay": 5463,
      "##lying": 5464,
      "plate": 5465,
      "mark": 5466,
      "schem": 5467,
      "sms": 5468,
      "##duced": 5469,
      "approx": 5470,
      "detail": 5471,
      "##atta": 5472,
      "boarding": 5473,
      "cancer": 5474,
      "lifestyle": 5475,
      "99": 5476,
      "mos": 5477,
      "vp": 5478,
      "zeal": 5479,
      "##uh": 5480,
      "##eries": 5481,
      "##icing": 5482,
      "##sequ": 5483,
      "##abe": 5484,
      "justice": 5485,
      "spl": 5486,
      "monso": 5487,
      "surprise": 5488,
      "##ocking": 5489,
      "classic": 5490,
      "scient": 5491,
      "assume": 5492,
      "150": 5493,
      "expectations": 5494,
      "print": 5495,
      "existing": 5496,
      "animal": 5497,
      "##prene": 5498,
      "sweet": 5499,
      "cinema": 5500,
      "library": 5501,
      "ebay": 5502,
      "maps": 5503,
      "pock": 5504,
      "##gpt": 5505,
      "colour": 5506,
      "seats": 5507,
      "pregn": 5508,
      "scr": 5509,
      "carg": 5510,
      "suggestion": 5511,
      "consist": 5512,
      "branded": 5513,
      "educated": 5514,
      "languages": 5515,
      "claims": 5516,
      "counsel": 5517,
      "animals": 5518,
      "independence": 5519,
      "dental": 5520,
      "ensure": 5521,
      "incredibly": 5522,
      "creep": 5523,
      "entreprene": 5524,
      "bath": 5525,
      "hook": 5526,
      "led": 5527,
      "rw": 5528,
      "##ges": 5529,
      "stol": 5530,
      "##igning": 5531,
      "fru": 5532,
      "plz": 5533,
      "retail": 5534,
      "routes": 5535,
      "ceb": 5536,
      "rupee": 5537,
      "rainy": 5538,
      "effects": 5539,
      "responsible": 5540,
      "weekends": 5541,
      "membership": 5542,
      "cigarettes": 5543,
      "kelaniya": 5544,
      "zealand": 5545,
      "bridge": 5546,
      "##mer": 5547,
      "##ja": 5548,
      "liked": 5549,
      "propos": 5550,
      "outs": 5551,
      "proud": 5552,
      "otherwise": 5553,
      "scope": 5554,
      "travell": 5555,
      "partners": 5556,
      "commit": 5557,
      "positions": 5558,
      "desk": 5559,
      "allows": 5560,
      "computing": 5561,
      "standing": 5562,
      "chatgpt": 5563,
      "extreme": 5564,
      "electrical": 5565,
      "massage": 5566,
      "verification": 5567,
      "combined": 5568,
      "encour": 5569,
      "critic": 5570,
      "stolen": 5571,
      "aus": 5572,
      "pfc": 5573,
      "rise": 5574,
      "tree": 5575,
      "##cil": 5576,
      "##onym": 5577,
      "##rop": 5578,
      "##unte": 5579,
      "sport": 5580,
      "issued": 5581,
      "drone": 5582,
      "developers": 5583,
      "midnight": 5584,
      "graduated": 5585,
      "updated": 5586,
      "medication": 5587,
      "creative": 5588,
      "raise": 5589,
      "benefit": 5590,
      "elephants": 5591,
      "competitive": 5592,
      "associate": 5593,
      "jewel": 5594,
      "analysis": 5595,
      "java": 5596,
      "disgust": 5597,
      "witness": 5598,
      "burn": 5599,
      "era": 5600,
      "sight": 5601,
      "sib": 5602,
      "tall": 5603,
      "##off": 5604,
      "##down": 5605,
      "theat": 5606,
      "##isa": 5607,
      "##adasa": 5608,
      "aspect": 5609,
      "sucks": 5610,
      "prosp": 5611,
      "severe": 5612,
      "load": 5613,
      "taxed": 5614,
      "seller": 5615,
      "mindset": 5616,
      "poke": 5617,
      "histor": 5618,
      "celebrate": 5619,
      "independent": 5620,
      "roughly": 5621,
      "volunte": 5622,
      "suffering": 5623,
      "drugs": 5624,
      "bin": 5625,
      "gear": 5626,
      "six": 5627,
      "tight": 5628,
      "##han": 5629,
      "##estic": 5630,
      "asks": 5631,
      "loves": 5632,
      "scale": 5633,
      "skilled": 5634,
      "##whel": 5635,
      "explan": 5636,
      "implement": 5637,
      "soul": 5638,
      "arriving": 5639,
      "netflix": 5640,
      "successfully": 5641,
      "statistics": 5642,
      "mistakes": 5643,
      "competition": 5644,
      "bottles": 5645,
      "merch": 5646,
      "surgeon": 5647,
      "deleted": 5648,
      "separate": 5649,
      "vpn": 5650,
      "groc": 5651,
      "kick": 5652,
      "pv": 5653,
      "##ga": 5654,
      "##iture": 5655,
      "hab": 5656,
      "##iling": 5657,
      "grab": 5658,
      "careful": 5659,
      "ministry": 5660,
      "extension": 5661,
      "storage": 5662,
      "##okes": 5663,
      "council": 5664,
      "s24": 5665,
      "liquor": 5666,
      "sustain": 5667,
      "cast": 5668,
      "killed": 5669,
      "na": 5670,
      "##rent": 5671,
      "##oa": 5672,
      "##inated": 5673,
      "##arant": 5674,
      "##oted": 5675,
      "##acity": 5676,
      "##amuwa": 5677,
      "##verted": 5678,
      "lift": 5679,
      "united": 5680,
      "##ifying": 5681,
      "spare": 5682,
      "lovely": 5683,
      "gotta": 5684,
      "accur": 5685,
      "##duce": 5686,
      "passes": 5687,
      "##orship": 5688,
      "flights": 5689,
      "wonderful": 5690,
      "retire": 5691,
      "applications": 5692,
      "temples": 5693,
      "factors": 5694,
      "switching": 5695,
      "journal": 5696,
      "virt": 5697,
      "listening": 5698,
      "freelancer": 5699,
      "windows": 5700,
      "smooth": 5701,
      "advantage": 5702,
      "esoft": 5703,
      "gas": 5704,
      "ma": 5705,
      "py": 5706,
      "ux": 5707,
      "##haps": 5708,
      "##ole": 5709,
      "##ging": 5710,
      "anonym": 5711,
      "##ison": 5712,
      "##itha": 5713,
      "asap": 5714,
      "sum": 5715,
      "spoke": 5716,
      "##osity": 5717,
      "lease": 5718,
      "complic": 5719,
      "doesnt": 5720,
      "##umes": 5721,
      "click": 5722,
      "##akers": 5723,
      "aftern": 5724,
      "overnight": 5725,
      "##izes": 5726,
      "perhaps": 5727,
      "forex": 5728,
      "household": 5729,
      "bigger": 5730,
      "30k": 5731,
      "30s": 5732,
      "crime": 5733,
      "crimin": 5734,
      "economics": 5735,
      "damage": 5736,
      "diving": 5737,
      "doub": 5738,
      "harass": 5739,
      "identity": 5740,
      "cooked": 5741,
      "assistance": 5742,
      "emergency": 5743,
      "finger": 5744,
      "bonus": 5745,
      "church": 5746,
      ".,": 5747,
      "fab": 5748,
      "race": 5749,
      "##cast": 5750,
      "##12": 5751,
      "##80": 5752,
      "##ining": 5753,
      "##ened": 5754,
      "##esome": 5755,
      "isnt": 5756,
      "##icks": 5757,
      "meant": 5758,
      "suff": 5759,
      "##ements": 5760,
      "spaces": 5761,
      "##cient": 5762,
      "acqu": 5763,
      "monday": 5764,
      "overwhel": 5765,
      "##eps": 5766,
      "##ups": 5767,
      "talks": 5768,
      "wrote": 5769,
      "scammers": 5770,
      "easter": 5771,
      "spotify": 5772,
      "listed": 5773,
      "negot": 5774,
      "saved": 5775,
      "holding": 5776,
      "awesome": 5777,
      "perfume": 5778,
      "rajapaksa": 5779,
      "frequently": 5780,
      "romantic": 5781,
      "die": 5782,
      "gender": 5783,
      "tf": 5784,
      "##nar": 5785,
      "##tb": 5786,
      "##yi": 5787,
      "##inia": 5788,
      "whale": 5789,
      "trash": 5790,
      "compens": 5791,
      "intention": 5792,
      "strange": 5793,
      "strength": 5794,
      "confident": 5795,
      "sellers": 5796,
      "employer": 5797,
      "cuts": 5798,
      "provides": 5799,
      "covered": 5800,
      "##awatte": 5801,
      "reputation": 5802,
      "reputable": 5803,
      "maxim": 5804,
      "steam": 5805,
      "screens": 5806,
      "structure": 5807,
      "dangerous": 5808,
      "cute": 5809,
      "categ": 5810,
      "kot": 5811,
      "ves": 5812,
      "##ky": 5813,
      "beer": 5814,
      "frame": 5815,
      "choices": 5816,
      "empt": 5817,
      "insta": 5818,
      "tells": 5819,
      "typically": 5820,
      "artists": 5821,
      "links": 5822,
      "migrated": 5823,
      "camer": 5824,
      "named": 5825,
      "randomly": 5826,
      "##ographer": 5827,
      "matches": 5828,
      "village": 5829,
      "hyb": 5830,
      "materials": 5831,
      "obsess": 5832,
      "maldives": 5833,
      "pokemon": 5834,
      "lights": 5835,
      "sand": 5836,
      "wis": 5837,
      "##rass": 5838,
      "ancient": 5839,
      "##ionally": 5840,
      "##abor": 5841,
      "ups": 5842,
      "interior": 5843,
      "nobody": 5844,
      "##ode": 5845,
      "throughout": 5846,
      "keells": 5847,
      "highway": 5848,
      "affili": 5849,
      "programming": 5850,
      "formal": 5851,
      "increasing": 5852,
      "entering": 5853,
      "namal": 5854,
      "##ervation": 5855,
      "reference": 5856,
      "dishes": 5857,
      "colonial": 5858,
      "hesit": 5859,
      "4th": 5860,
      "mouse": 5861,
      "pants": 5862,
      "rar": 5863,
      "wide": 5864,
      "##men": 5865,
      "##arian": 5866,
      "beat": 5867,
      "##oneer": 5868,
      "abt": 5869,
      "worker": 5870,
      "payoneer": 5871,
      "agencies": 5872,
      "royal": 5873,
      "owned": 5874,
      "qualification": 5875,
      "##while": 5876,
      "curiosity": 5877,
      "diet": 5878,
      "influence": 5879,
      "judge": 5880,
      "besides": 5881,
      "equipment": 5882,
      "monsoon": 5883,
      "afternoon": 5884,
      "fant": 5885,
      "sne": 5886,
      "guitar": 5887,
      "sometime": 5888,
      "carn": 5889,
      "stayed": 5890,
      "values": 5891,
      "profile": 5892,
      "lowest": 5893,
      "paths": 5894,
      "fairly": 5895,
      "##like": 5896,
      "slowly": 5897,
      "reputed": 5898,
      "closer": 5899,
      "tonight": 5900,
      "sensitive": 5901,
      "networking": 5902,
      "elder": 5903,
      "kad": 5904,
      "kitch": 5905,
      "nur": 5906,
      "##word": 5907,
      "##edly": 5908,
      "##ali": 5909,
      "##ici": 5910,
      "weak": 5911,
      "frag": 5912,
      "consequ": 5913,
      "imf": 5914,
      "accent": 5915,
      "agents": 5916,
      "disci": 5917,
      "keen": 5918,
      "harder": 5919,
      "matt": 5920,
      "supporters": 5921,
      "introvert": 5922,
      "obtaining": 5923,
      "ols": 5924,
      "lavinia": 5925,
      "dance": 5926,
      "died": 5927,
      "ko": 5928,
      "mut": 5929,
      "mike": 5930,
      "ss": 5931,
      "vap": 5932,
      "####": 5933,
      "##ench": 5934,
      "guarant": 5935,
      "##ums": 5936,
      "studio": 5937,
      "grades": 5938,
      "travelers": 5939,
      "consent": 5940,
      "insane": 5941,
      "availability": 5942,
      "headphones": 5943,
      "statement": 5944,
      "cleaning": 5945,
      "organiz": 5946,
      "organization": 5947,
      "undergrad": 5948,
      "initi": 5949,
      "destro": 5950,
      "deeply": 5951,
      "dedicated": 5952,
      "tutor": 5953,
      "revol": 5954,
      "memories": 5955,
      "unfair": 5956,
      "arranged": 5957,
      "cargills": 5958,
      "jewelry": 5959,
      "hybrid": 5960,
      "32": 5961,
      "bond": 5962,
      "cere": 5963,
      "lane": 5964,
      "anc": 5965,
      "##ark": 5966,
      "##ider": 5967,
      "lie": 5968,
      "height": 5969,
      "##awala": 5970,
      "twitter": 5971,
      "differences": 5972,
      "##aza": 5973,
      "skill": 5974,
      "cheating": 5975,
      "requires": 5976,
      "camping": 5977,
      "buddha": 5978,
      "voted": 5979,
      "coding": 5980,
      "patient": 5981,
      "replaced": 5982,
      "attractive": 5983,
      "photography": 5984,
      "adventure": 5985,
      "recruit": 5986,
      "embarrass": 5987,
      "dre": 5988,
      "gang": 5989,
      "nil": 5990,
      "sj": 5991,
      "vit": 5992,
      "##oes": 5993,
      "##wear": 5994,
      "##urally": 5995,
      "trump": 5996,
      "curric": 5997,
      "located": 5998,
      "decisions": 5999,
      "blind": 6000,
      "boat": 6001,
      "badulla": 6002,
      "swed": 6003,
      "200k": 6004,
      "malabe": 6005,
      "treatments": 6006,
      "factory": 6007,
      "discussions": 6008,
      "institutions": 6009,
      "pattern": 6010,
      "freelancers": 6011,
      "regularly": 6012,
      "neighbor": 6013,
      "innov": 6014,
      "smoking": 6015,
      "manufactur": 6016,
      "agreed": 6017,
      "outdoor": 6018,
      "enthusiasts": 6019,
      "executive": 6020,
      "summer": 6021,
      "->": 6022,
      "/-": 6023,
      "5000": 6024,
      "fa": 6025,
      "jack": 6026,
      "rang": 6027,
      "russ": 6028,
      "##tics": 6029,
      "##uc": 6030,
      "##fied": 6031,
      "meas": 6032,
      "##ando": 6033,
      "washing": 6034,
      "acne": 6035,
      "noise": 6036,
      "remain": 6037,
      "salon": 6038,
      "badly": 6039,
      "handling": 6040,
      "affairs": 6041,
      "mentally": 6042,
      "physically": 6043,
      "metal": 6044,
      "bread": 6045,
      "supply": 6046,
      "reflect": 6047,
      "promote": 6048,
      "struggles": 6049,
      "calm": 6050,
      "theres": 6051,
      "printed": 6052,
      "sessions": 6053,
      "kurune": 6054,
      "cow": 6055,
      "dil": 6056,
      "hill": 6057,
      "##days": 6058,
      "##fall": 6059,
      "##lements": 6060,
      "##ster": 6061,
      "shape": 6062,
      "meme": 6063,
      "ability": 6064,
      "upto": 6065,
      "deserve": 6066,
      "ends": 6067,
      "learners": 6068,
      "fulf": 6069,
      "purchases": 6070,
      "healthcare": 6071,
      "198": 6072,
      "selection": 6073,
      "ruined": 6074,
      "homes": 6075,
      "tarif": 6076,
      "racism": 6077,
      "broker": 6078,
      "burger": 6079,
      "cancelled": 6080,
      "scenari": 6081,
      "behavi": 6082,
      "clarify": 6083,
      "ugc": 6084,
      "gateway": 6085,
      "lonely": 6086,
      "architecture": 6087,
      "pakistan": 6088,
      "eligible": 6089,
      "vesak": 6090,
      "empty": 6091,
      "rarely": 6092,
      "kitchen": 6093,
      "kurunegala": 6094,
      "bow": 6095,
      "fal": 6096,
      "hence": 6097,
      "rush": 6098,
      "##rit": 6099,
      "##fa": 6100,
      "##alap": 6101,
      "##elts": 6102,
      "##urd": 6103,
      "##irt": 6104,
      "plain": 6105,
      "lean": 6106,
      "prepar": 6107,
      "passeng": 6108,
      "subs": 6109,
      "smell": 6110,
      "smoke": 6111,
      "marketplace": 6112,
      "supported": 6113,
      "regardless": 6114,
      "mora": 6115,
      "shoe": 6116,
      "officers": 6117,
      "limits": 6118,
      "boxing": 6119,
      "mahinda": 6120,
      "wildlife": 6121,
      "lawyers": 6122,
      "tools": 6123,
      "wij": 6124,
      "##aramulla": 6125,
      "cosm": 6126,
      "ogf": 6127,
      "ocean": 6128,
      "intelligence": 6129,
      ".(": 6130,
      "billion": 6131,
      "brid": 6132,
      "mt": 6133,
      "##eed": 6134,
      "##gs": 6135,
      "##rovers": 6136,
      "compare": 6137,
      "evisa": 6138,
      "ourselves": 6139,
      "postp": 6140,
      "friendship": 6141,
      "##ologists": 6142,
      "depend": 6143,
      "adding": 6144,
      "followed": 6145,
      "streaming": 6146,
      "democr": 6147,
      "falls": 6148,
      "destinations": 6149,
      "horrible": 6150,
      "assistant": 6151,
      "ignore": 6152,
      "innoc": 6153,
      "semester": 6154,
      "##aranaike": 6155,
      "outlets": 6156,
      "disappointed": 6157,
      "ridiculous": 6158,
      "motorbike": 6159,
      "maximum": 6160,
      "bout": 6161,
      "fyi": 6162,
      "gyn": 6163,
      "iphones": 6164,
      "kiss": 6165,
      "overs": 6166,
      "vend": 6167,
      "wil": 6168,
      "##ique": 6169,
      "##mil": 6170,
      "##ino": 6171,
      "und": 6172,
      "controvers": 6173,
      "pera": 6174,
      "himself": 6175,
      "airline": 6176,
      "managing": 6177,
      "poya": 6178,
      "supplements": 6179,
      "tests": 6180,
      "arrange": 6181,
      "inflation": 6182,
      "peaceful": 6183,
      "confirmation": 6184,
      "##lusive": 6185,
      "radio": 6186,
      "unlock": 6187,
      "discrimination": 6188,
      "furniture": 6189,
      "prospects": 6190,
      "mikeai": 6191,
      "bomb": 6192,
      "cats": 6193,
      "ird": 6194,
      "ml": 6195,
      "map": 6196,
      "nye": 6197,
      "ow": 6198,
      "ty": 6199,
      "##books": 6200,
      "##rast": 6201,
      "##aft": 6202,
      "##fers": 6203,
      "##ina": 6204,
      "##enna": 6205,
      "inch": 6206,
      "bear": 6207,
      "myth": 6208,
      "goals": 6209,
      "whose": 6210,
      "feature": 6211,
      "slim": 6212,
      "##eria": 6213,
      "quant": 6214,
      "##aker": 6215,
      "forever": 6216,
      "specialist": 6217,
      "bored": 6218,
      "bandaranaike": 6219,
      "conversations": 6220,
      "maharagama": 6221,
      "suspicious": 6222,
      "frustrated": 6223,
      "strike": 6224,
      "subscription": 6225,
      "eggs": 6226,
      "udawalawe": 6227,
      "):": 6228,
      "33": 6229,
      "cell": 6230,
      "pd": 6231,
      "tinder": 6232,
      "##alf": 6233,
      "##ola": 6234,
      "reve": 6235,
      "tracking": 6236,
      "##erior": 6237,
      "traveler": 6238,
      "covers": 6239,
      "cringe": 6240,
      "transition": 6241,
      "drunk": 6242,
      "interests": 6243,
      "extend": 6244,
      "confidence": 6245,
      "smaller": 6246,
      "##icted": 6247,
      "causing": 6248,
      "turns": 6249,
      "##asinghe": 6250,
      "entert": 6251,
      "premadasa": 6252,
      "confirmed": 6253,
      "rajapaksh": 6254,
      "battaramulla": 6255,
      "circum": 6256,
      "assuming": 6257,
      "kumara": 6258,
      "survive": 6259,
      "festival": 6260,
      "russia": 6261,
      "01": 6262,
      "02": 6263,
      "600": 6264,
      "bf": 6265,
      "fern": 6266,
      "mp": 6267,
      "vape": 6268,
      "##hand": 6269,
      "##egr": 6270,
      "##ker": 6271,
      "##asc": 6272,
      "stays": 6273,
      "butter": 6274,
      "adjust": 6275,
      "expand": 6276,
      "##gger": 6277,
      "overpri": 6278,
      "serve": 6279,
      "etf": 6280,
      "kinds": 6281,
      "attending": 6282,
      "attitude": 6283,
      "##raft": 6284,
      "extended": 6285,
      "supporting": 6286,
      "gamers": 6287,
      "developing": 6288,
      "signed": 6289,
      "concert": 6290,
      "caused": 6291,
      "institution": 6292,
      "release": 6293,
      "##haust": 6294,
      "stressed": 6295,
      "sony": 6296,
      "layover": 6297,
      "venue": 6298,
      "russian": 6299,
      "split": 6300,
      "ceremon": 6301,
      "innocent": 6302,
      "boss": 6303,
      "ielts": 6304,
      "m2": 6305,
      "wake": 6306,
      "ofc": 6307,
      "aband": 6308,
      "guest": 6309,
      "peko": 6310,
      "peeps": 6311,
      "##aves": 6312,
      "climate": 6313,
      "nowhere": 6314,
      "##ief": 6315,
      "permission": 6316,
      "wellawatte": 6317,
      "polon": 6318,
      "submitted": 6319,
      "airb": 6320,
      "invested": 6321,
      "skip": 6322,
      "explo": 6323,
      "belong": 6324,
      "processing": 6325,
      "15k": 6326,
      "landsc": 6327,
      "behalf": 6328,
      "pathway": 6329,
      "rides": 6330,
      "absurd": 6331,
      "complaining": 6332,
      "minimal": 6333,
      "anxious": 6334,
      "possibility": 6335,
      "scenic": 6336,
      "##force": 6337,
      "suicide": 6338,
      "hustle": 6339,
      "spirit": 6340,
      "bumble": 6341,
      "earbuds": 6342,
      "scratch": 6343,
      "binance": 6344,
      "sjb": 6345,
      "overpriced": 6346,
      "bm": 6347,
      "bis": 6348,
      "breat": 6349,
      "gri": 6350,
      "hd": 6351,
      "yt": 6352,
      "zoom": 6353,
      "##bu": 6354,
      "##pet": 6355,
      "##son": 6356,
      "thai": 6357,
      "##erves": 6358,
      "onto": 6359,
      "##urbs": 6360,
      "shame": 6361,
      "shamp": 6362,
      "exhaust": 6363,
      "union": 6364,
      "##agues": 6365,
      "leather": 6366,
      "cargo": 6367,
      "interns": 6368,
      "eastern": 6369,
      "efficient": 6370,
      "returned": 6371,
      "hostel": 6372,
      "affected": 6373,
      "silver": 6374,
      "cabin": 6375,
      "articles": 6376,
      "glasses": 6377,
      "contribute": 6378,
      "shocked": 6379,
      "adopt": 6380,
      "mosqu": 6381,
      "pregnant": 6382,
      "shampoo": 6383,
      "fool": 6384,
      "kap": 6385,
      "##lings": 6386,
      "##edia": 6387,
      "##enty": 6388,
      "hack": 6389,
      "##sey": 6390,
      "alert": 6391,
      "##iment": 6392,
      "##ula": 6393,
      "experts": 6394,
      "afric": 6395,
      "newly": 6396,
      "reserved": 6397,
      "suggests": 6398,
      "incom": 6399,
      "coach": 6400,
      "password": 6401,
      "2021": 6402,
      "remaining": 6403,
      "lotus": 6404,
      "touristy": 6405,
      "receip": 6406,
      "##works": 6407,
      "heads": 6408,
      "includes": 6409,
      "portal": 6410,
      "improving": 6411,
      "snacks": 6412,
      "requested": 6413,
      "##respect": 6414,
      "heavily": 6415,
      "promoting": 6416,
      "jewell": 6417,
      "pull": 6418,
      "tasks": 6419,
      "coins": 6420,
      "punish": 6421,
      "pocket": 6422,
      "screensh": 6423,
      "pekoe": 6424,
      "dun": 6425,
      "lma": 6426,
      "mi": 6427,
      "wood": 6428,
      "watt": 6429,
      "##nes": 6430,
      "##fol": 6431,
      "inj": 6432,
      "##otic": 6433,
      "haput": 6434,
      "stamp": 6435,
      "aside": 6436,
      "##imately": 6437,
      "##anted": 6438,
      "feet": 6439,
      "leasing": 6440,
      "prim": 6441,
      "stray": 6442,
      "finishing": 6443,
      "suburbs": 6444,
      "solve": 6445,
      "landing": 6446,
      "haircut": 6447,
      "refused": 6448,
      "skinny": 6449,
      "skincare": 6450,
      "academy": 6451,
      "ethical": 6452,
      "prepared": 6453,
      "lectures": 6454,
      "ipad": 6455,
      "desperate": 6456,
      "scheme": 6457,
      "explanation": 6458,
      "cameras": 6459,
      "consequences": 6460,
      "fernando": 6461,
      ".?": 6462,
      "40k": 6463,
      "cp": 6464,
      "eg": 6465,
      "gm": 6466,
      "hat": 6467,
      "hers": 6468,
      "##ban": 6469,
      "##bal": 6470,
      "##rom": 6471,
      "##po": 6472,
      "##pass": 6473,
      "orth": 6474,
      "##outs": 6475,
      "##agement": 6476,
      "grad": 6477,
      "index": 6478,
      "emp": 6479,
      "realistic": 6480,
      "disconnect": 6481,
      "extent": 6482,
      "player": 6483,
      "confusing": 6484,
      "production": 6485,
      "publish": 6486,
      "allowing": 6487,
      "runs": 6488,
      "distrib": 6489,
      "promises": 6490,
      "activity": 6491,
      "explained": 6492,
      "apartments": 6493,
      "paint": 6494,
      "capacity": 6495,
      "equal": 6496,
      "achie": 6497,
      "challenging": 6498,
      "housing": 6499,
      "pharmacy": 6500,
      "emotional": 6501,
      "mandatory": 6502,
      "accurate": 6503,
      "dreams": 6504,
      "false": 6505,
      "!?": 6506,
      "kar": 6507,
      "native": 6508,
      "sare": 6509,
      "##enge": 6510,
      "##eliya": 6511,
      "loose": 6512,
      "##usion": 6513,
      "##cious": 6514,
      "images": 6515,
      "marine": 6516,
      "travelled": 6517,
      "curt": 6518,
      "trial": 6519,
      "deciding": 6520,
      "committed": 6521,
      "basket": 6522,
      "investors": 6523,
      "ukrain": 6524,
      "designers": 6525,
      "##uction": 6526,
      "rajag": 6527,
      "patients": 6528,
      "golden": 6529,
      "becomes": 6530,
      "consultant": 6531,
      "editing": 6532,
      "analytics": 6533,
      "queue": 6534,
      "odd": 6535,
      "collabor": 6536,
      "encountered": 6537,
      "supermarkets": 6538,
      "murder": 6539,
      "der": 6540,
      "faster": 6541,
      "lan": 6542,
      "ni": 6543,
      "piss": 6544,
      "rub": 6545,
      "rug": 6546,
      "##bb": 6547,
      "##list": 6548,
      "##arily": 6549,
      "align": 6550,
      "france": 6551,
      "##agala": 6552,
      "reccom": 6553,
      "##under": 6554,
      "appeal": 6555,
      "loving": 6556,
      "imo": 6557,
      "braces": 6558,
      "integr": 6559,
      "disrespect": 6560,
      "makeup": 6561,
      "teeth": 6562,
      "mins": 6563,
      "elsewhere": 6564,
      "moments": 6565,
      "personality": 6566,
      "properties": 6567,
      "appropriate": 6568,
      "industri": 6569,
      "testing": 6570,
      "speakers": 6571,
      "riding": 6572,
      "literature": 6573,
      "constant": 6574,
      "hitting": 6575,
      "focusing": 6576,
      "labor": 6577,
      "greet": 6578,
      "circle": 6579,
      "christian": 6580,
      "whey": 6581,
      "bullying": 6582,
      "hype": 6583,
      "disgusting": 6584,
      "siblings": 6585,
      "!\"": 6586,
      "bound": 6587,
      "eager": 6588,
      "ios": 6589,
      "pad": 6590,
      "##iation": 6591,
      "##isation": 6592,
      "forest": 6593,
      "steal": 6594,
      "##uru": 6595,
      "##verse": 6596,
      "shall": 6597,
      "mem": 6598,
      "intimate": 6599,
      "##away": 6600,
      "dise": 6601,
      "parcel": 6602,
      "##ologies": 6603,
      "connecting": 6604,
      "warm": 6605,
      "easiest": 6606,
      "2015": 6607,
      "legitimate": 6608,
      "potentially": 6609,
      "figured": 6610,
      "petrol": 6611,
      "urgently": 6612,
      "protest": 6613,
      "verify": 6614,
      "challenge": 6615,
      "operating": 6616,
      "significantly": 6617,
      "recognition": 6618,
      "agreement": 6619,
      "opposition": 6620,
      "responsibility": 6621,
      "retirement": 6622,
      "cc": 6623,
      "hung": 6624,
      "km": 6625,
      "pand": 6626,
      "rural": 6627,
      "##bour": 6628,
      "##tt": 6629,
      "##kg": 6630,
      "##xx": 6631,
      "##edy": 6632,
      "##aled": 6633,
      "neur": 6634,
      "neither": 6635,
      "plants": 6636,
      "unb": 6637,
      "unkn": 6638,
      "admission": 6639,
      "##ushing": 6640,
      "trick": 6641,
      "letters": 6642,
      "ending": 6643,
      "supportive": 6644,
      "regards": 6645,
      "signs": 6646,
      "amounts": 6647,
      "photographer": 6648,
      "2000s": 6649,
      "files": 6650,
      "failure": 6651,
      "princi": 6652,
      "printing": 6653,
      "hanging": 6654,
      "falling": 6655,
      "priority": 6656,
      "authority": 6657,
      "assignment": 6658,
      "task": 6659,
      "diagnosed": 6660,
      "dudes": 6661,
      "fits": 6662,
      "kit": 6663,
      "lake": 6664,
      "##iance": 6665,
      "##sl": 6666,
      "isol": 6667,
      "##asy": 6668,
      "##etics": 6669,
      "weed": 6670,
      "plenty": 6671,
      "chain": 6672,
      "##ulate": 6673,
      "##ousand": 6674,
      "newb": 6675,
      "##gged": 6676,
      "idiot": 6677,
      "agric": 6678,
      "driven": 6679,
      "designing": 6680,
      "function": 6681,
      "150k": 6682,
      "glad": 6683,
      "repairs": 6684,
      "sunset": 6685,
      "reports": 6686,
      "institutes": 6687,
      "cycle": 6688,
      "bands": 6689,
      "nicot": 6690,
      "introduced": 6691,
      "mbps": 6692,
      "america": 6693,
      "treas": 6694,
      "occur": 6695,
      "flags": 6696,
      "atmos": 6697,
      "lecturers": 6698,
      "ayurvedic": 6699,
      "surrounding": 6700,
      "virtual": 6701,
      "destroy": 6702,
      "agricult": 6703,
      "65": 6704,
      "bia": 6705,
      "jokes": 6706,
      "lm": 6707,
      "nations": 6708,
      "pink": 6709,
      "##yo": 6710,
      "##்க": 6711,
      "##ecom": 6712,
      "##ilty": 6713,
      "stating": 6714,
      "##ames": 6715,
      "##urning": 6716,
      "chair": 6717,
      "units": 6718,
      "##ulting": 6719,
      "condom": 6720,
      "loyal": 6721,
      "afterwards": 6722,
      "grown": 6723,
      "scar": 6724,
      "intel": 6725,
      "acting": 6726,
      "underrated": 6727,
      "passing": 6728,
      "flood": 6729,
      "cheese": 6730,
      "120": 6731,
      "routine": 6732,
      "enjoying": 6733,
      "object": 6734,
      "colleagues": 6735,
      "cops": 6736,
      "fucked": 6737,
      "obtained": 6738,
      "500k": 6739,
      "domestic": 6740,
      "delete": 6741,
      "discounts": 6742,
      "screw": 6743,
      "pharmac": 6744,
      "angry": 6745,
      "duration": 6746,
      "lyrics": 6747,
      "navigate": 6748,
      "character": 6749,
      "convenient": 6750,
      "percentage": 6751,
      "sustainable": 6752,
      "carnage": 6753,
      "ceremony": 6754,
      "memory": 6755,
      "aqu": 6756,
      "eve": 6757,
      "hir": 6758,
      "maf": 6759,
      "pill": 6760,
      "rcs": 6761,
      "sac": 6762,
      "siri": 6763,
      "##pline": 6764,
      "##zen": 6765,
      "thin": 6766,
      "thousand": 6767,
      "##alu": 6768,
      "##eld": 6769,
      "##acle": 6770,
      "plains": 6771,
      "ifs": 6772,
      "unn": 6773,
      "unex": 6774,
      "##agamuwa": 6775,
      "arm": 6776,
      "peo": 6777,
      "##hera": 6778,
      "impl": 6779,
      "overth": 6780,
      "crash": 6781,
      "flo": 6782,
      "realised": 6783,
      "returning": 6784,
      "##lands": 6785,
      "dias": 6786,
      "charger": 6787,
      "returns": 6788,
      "renewed": 6789,
      "ruh": 6790,
      "audio": 6791,
      "ugly": 6792,
      "impression": 6793,
      "korea": 6794,
      "vibes": 6795,
      "flowers": 6796,
      "yoga": 6797,
      "pvt": 6798,
      "entertain": 6799,
      "lmao": 6800,
      "haputale": 6801,
      "rajagiriya": 6802,
      "reccomend": 6803,
      "nicotine": 6804,
      "'.": 6805,
      "a5": 6806,
      "hort": 6807,
      "hired": 6808,
      "lin": 6809,
      "lenses": 6810,
      "niss": 6811,
      "##hn": 6812,
      "##cling": 6813,
      "##orant": 6814,
      "##eck": 6815,
      "amd": 6816,
      "##olic": 6817,
      "cha": 6818,
      "##uled": 6819,
      "everybody": 6820,
      "##gging": 6821,
      "emails": 6822,
      "instant": 6823,
      "supports": 6824,
      "assault": 6825,
      "powerful": 6826,
      "employed": 6827,
      "finances": 6828,
      "designs": 6829,
      "repaired": 6830,
      "boring": 6831,
      "acceptable": 6832,
      "failing": 6833,
      "graduation": 6834,
      "crying": 6835,
      "neck": 6836,
      "prepaid": 6837,
      "tablet": 6838,
      "magic": 6839,
      "cousins": 6840,
      "korean": 6841,
      "pupp": 6842,
      "compensation": 6843,
      "organizations": 6844,
      "bb": 6845,
      "bot": 6846,
      "bicy": 6847,
      "gall": 6848,
      "iron": 6849,
      "loun": 6850,
      "trees": 6851,
      "zone": 6852,
      "##rition": 6853,
      "##yani": 6854,
      "##onal": 6855,
      "ingr": 6856,
      "##iry": 6857,
      "deed": 6858,
      "##udu": 6859,
      "evidence": 6860,
      "brothers": 6861,
      "indones": 6862,
      "parks": 6863,
      "crack": 6864,
      "##otherap": 6865,
      "2026": 6866,
      "remind": 6867,
      "##uki": 6868,
      "preference": 6869,
      "mode": 6870,
      "menu": 6871,
      "sett": 6872,
      "temu": 6873,
      "temper": 6874,
      "certificates": 6875,
      "2018": 6876,
      "entered": 6877,
      "entirely": 6878,
      "viral": 6879,
      "opposite": 6880,
      "hindu": 6881,
      "volunteer": 6882,
      "discipline": 6883,
      "scenario": 6884,
      "biscu": 6885,
      "mosquit": 6886,
      "primary": 6887,
      "rugby": 6888,
      "4k": 6889,
      "agg": 6890,
      "du": 6891,
      "nost": 6892,
      "##xual": 6893,
      "##atically": 6894,
      "orph": 6895,
      "alt": 6896,
      "memes": 6897,
      "relative": 6898,
      "monk": 6899,
      "contain": 6900,
      "wellness": 6901,
      "downs": 6902,
      "10th": 6903,
      "cuis": 6904,
      "worthy": 6905,
      "earned": 6906,
      "portfol": 6907,
      "2017": 6908,
      "##ructure": 6909,
      "dutch": 6910,
      "footage": 6911,
      "conditioner": 6912,
      "graph": 6913,
      "disappear": 6914,
      "critical": 6915,
      "filling": 6916,
      "manufacturing": 6917,
      "consumer": 6918,
      "liberty": 6919,
      "flexible": 6920,
      "snorkeling": 6921,
      "doubts": 6922,
      "mattress": 6923,
      "sweden": 6924,
      "48": 6925,
      "800": 6926,
      "bail": 6927,
      "cct": 6928,
      "caut": 6929,
      "hunt": 6930,
      "koll": 6931,
      "wat": 6932,
      "##hib": 6933,
      "##inghe": 6934,
      "wholes": 6935,
      "##station": 6936,
      "##imer": 6937,
      "unus": 6938,
      "##ull": 6939,
      "##ables": 6940,
      "guilty": 6941,
      "##osis": 6942,
      "pleas": 6943,
      "planet": 6944,
      "tricks": 6945,
      "travels": 6946,
      "infrast": 6947,
      "letting": 6948,
      "subst": 6949,
      "attended": 6950,
      "generations": 6951,
      "portion": 6952,
      "perfumes": 6953,
      "dining": 6954,
      "troub": 6955,
      "risky": 6956,
      "suspect": 6957,
      "judg": 6958,
      "relaxing": 6959,
      "advertising": 6960,
      "recovery": 6961,
      "brief": 6962,
      "clinic": 6963,
      "crucial": 6964,
      "llb": 6965,
      "vegetarian": 6966,
      "conflict": 6967,
      "pilot": 6968,
      "mirror": 6969,
      "tailor": 6970,
      "argument": 6971,
      "ndb": 6972,
      "trauma": 6973,
      "wireless": 6974,
      "creepy": 6975,
      "##naruwa": 6976,
      "pdf": 6977,
      "ruhuna": 6978,
      "cz": 6979,
      "fm": 6980,
      "fried": 6981,
      "sisters": 6982,
      "xbox": 6983,
      "##rome": 6984,
      "##mal": 6985,
      "##ingly": 6986,
      "##rog": 6987,
      "plug": 6988,
      "suv": 6989,
      "spam": 6990,
      "##ggers": 6991,
      "brow": 6992,
      "engage": 6993,
      "carrier": 6994,
      "incidents": 6995,
      "insec": 6996,
      "inspect": 6997,
      "flat": 6998,
      "##screen": 6999,
      "##appro": 7000,
      "197": 7001,
      "activated": 7002,
      "hospitality": 7003,
      "ruin": 7004,
      "couns": 7005,
      "respectful": 7006,
      "audi": 7007,
      "epis": 7008,
      "photosh": 7009,
      "nutrition": 7010,
      "palest": 7011,
      "escape": 7012,
      "laser": 7013,
      "theatre": 7014,
      "##alapitiya": 7015,
      "unknown": 7016,
      "horton": 7017,
      "bicycle": 7018,
      "auss": 7019,
      "core": 7020,
      "ccc": 7021,
      "lit": 7022,
      "nich": 7023,
      "ping": 7024,
      "##rif": 7025,
      "##rets": 7026,
      "##thon": 7027,
      "shed": 7028,
      "shout": 7029,
      "##unning": 7030,
      "##apter": 7031,
      "league": 7032,
      "gram": 7033,
      "servers": 7034,
      "underst": 7035,
      "conserv": 7036,
      "attest": 7037,
      "trainee": 7038,
      "freaking": 7039,
      "actively": 7040,
      "facts": 7041,
      "##cript": 7042,
      "departure": 7043,
      "attacks": 7044,
      "perfectly": 7045,
      "immediate": 7046,
      "accidentally": 7047,
      "administration": 7048,
      "fighting": 7049,
      "assignments": 7050,
      "discovered": 7051,
      "traveller": 7052,
      "complicated": 7053,
      "curricul": 7054,
      "polonnaruwa": 7055,
      "wattala": 7056,
      "cable": 7057,
      "iam": 7058,
      "lem": 7059,
      "oya": 7060,
      "yr": 7061,
      "##hz": 7062,
      "##lig": 7063,
      "##erc": 7064,
      "##eral": 7065,
      "##order": 7066,
      "##alg": 7067,
      "##uting": 7068,
      "havel": 7069,
      "##ids": 7070,
      "##idal": 7071,
      "##idency": 7072,
      "##ationally": 7073,
      "##char": 7074,
      "asus": 7075,
      "suck": 7076,
      "champ": 7077,
      "knuck": 7078,
      "unlike": 7079,
      "byob": 7080,
      "reli": 7081,
      "resume": 7082,
      "hikes": 7083,
      "herit": 7084,
      "firms": 7085,
      "root": 7086,
      "boost": 7087,
      "mint": 7088,
      "highlight": 7089,
      "repost": 7090,
      "softlog": 7091,
      "shower": 7092,
      "auto": 7093,
      "movement": 7094,
      "officially": 7095,
      "transferred": 7096,
      "speaker": 7097,
      "originally": 7098,
      "halal": 7099,
      "claimed": 7100,
      "tours": 7101,
      "bedroom": 7102,
      "installment": 7103,
      "meaningful": 7104,
      "logistics": 7105,
      "reduced": 7106,
      "advertis": 7107,
      "spreading": 7108,
      "controller": 7109,
      "dissanayake": 7110,
      "description": 7111,
      "victims": 7112,
      "melbour": 7113,
      "junior": 7114,
      "exposure": 7115,
      "##iciency": 7116,
      "abandoned": 7117,
      "lmk": 7118,
      "unnec": 7119,
      "unexpect": 7120,
      "orphan": 7121,
      "infrastructure": 7122,
      "melbourne": 7123,
      "dive": 7124,
      "hsb": 7125,
      "ire": 7126,
      "jbl": 7127,
      "sake": 7128,
      "tiss": 7129,
      "vint": 7130,
      "wik": 7131,
      "##gl": 7132,
      "##yy": 7133,
      "##30": 7134,
      "thal": 7135,
      "isp": 7136,
      "##ley": 7137,
      "cham": 7138,
      "arab": 7139,
      "lock": 7140,
      "..)": 7141,
      "intim": 7142,
      "ages": 7143,
      "disp": 7144,
      "visits": 7145,
      "decade": 7146,
      "straw": 7147,
      "salt": 7148,
      "buddy": 7149,
      "differently": 7150,
      "qualified": 7151,
      "determ": 7152,
      "pov": 7153,
      "dealers": 7154,
      "director": 7155,
      "complaints": 7156,
      "audit": 7157,
      "mbbs": 7158,
      "sleeping": 7159,
      "deposits": 7160,
      "carrying": 7161,
      "prescribed": 7162,
      "killing": 7163,
      "influencer": 7164,
      "violence": 7165,
      "##know": 7166,
      "jeans": 7167,
      "hobby": 7168,
      "##awatha": 7169,
      "lifted": 7170,
      "behaviour": 7171,
      "circumst": 7172,
      "basketball": 7173,
      "softlogic": 7174,
      "hsbc": 7175,
      "ireland": 7176,
      "vintage": 7177,
      "36": 7178,
      "cott": 7179,
      "diver": 7180,
      "dancing": 7181,
      "eu": 7182,
      "fare": 7183,
      "lazy": 7184,
      "mouth": 7185,
      "nerv": 7186,
      "oc": 7187,
      "pics": 7188,
      "rt": 7189,
      "tag": 7190,
      "t20": 7191,
      "wid": 7192,
      "##iqu": 7193,
      "##inate": 7194,
      "theory": 7195,
      "anne": 7196,
      "tok": 7197,
      "suz": 7198,
      "unif": 7199,
      "prove": 7200,
      "heal": 7201,
      "##ift": 7202,
      "feas": 7203,
      "upset": 7204,
      "acknow": 7205,
      "manip": 7206,
      "residence": 7207,
      "visitors": 7208,
      "internal": 7209,
      "crap": 7210,
      "smile": 7211,
      "careers": 7212,
      "handed": 7213,
      "solved": 7214,
      "pickup": 7215,
      "25k": 7216,
      "dropping": 7217,
      "mentioning": 7218,
      "##ronics": 7219,
      "holder": 7220,
      "##arma": 7221,
      "officials": 7222,
      "audience": 7223,
      "equival": 7224,
      "installed": 7225,
      "window": 7226,
      "queues": 7227,
      "tutoring": 7228,
      "israeli": 7229,
      "jayaw": 7230,
      "mcq": 7231,
      "expertise": 7232,
      "variety": 7233,
      "proposal": 7234,
      "airbnb": 7235,
      "herself": 7236,
      "nostalg": 7237,
      "cctv": 7238,
      "aussie": 7239,
      "curriculum": 7240,
      "annex": 7241,
      "cath": 7242,
      "gent": 7243,
      "lying": 7244,
      "samb": 7245,
      "sides": 7246,
      "tons": 7247,
      "wine": 7248,
      "##ns": 7249,
      "##yrs": 7250,
      "##wood": 7251,
      "##vis": 7252,
      "##erning": 7253,
      "##ita": 7254,
      "hacked": 7255,
      "shel": 7256,
      "truck": 7257,
      "excess": 7258,
      "suits": 7259,
      "spect": 7260,
      "guard": 7261,
      "##udi": 7262,
      "phil": 7263,
      "bruh": 7264,
      "gota": 7265,
      "prec": 7266,
      "scri": 7267,
      "##owned": 7268,
      "moon": 7269,
      "passive": 7270,
      "wondered": 7271,
      "managers": 7272,
      "rented": 7273,
      "crimes": 7274,
      "##apping": 7275,
      "headach": 7276,
      "shortage": 7277,
      "motherboard": 7278,
      "excell": 7279,
      "selecting": 7280,
      "constit": 7281,
      "estim": 7282,
      "folk": 7283,
      "batteries": 7284,
      "horror": 7285,
      "grandma": 7286,
      "promotion": 7287,
      "holy": 7288,
      "ownership": 7289,
      "mountain": 7290,
      "threatening": 7291,
      "pieces": 7292,
      "networks": 7293,
      "outlet": 7294,
      "strategies": 7295,
      "##iversary": 7296,
      "climb": 7297,
      "historical": 7298,
      "fabric": 7299,
      "wisdom": 7300,
      "portfolio": 7301,
      "kollup": 7302,
      "conservative": 7303,
      "knuckles": 7304,
      "nervous": 7305,
      "%.": 7306,
      "90s": 7307,
      "fer": 7308,
      "roo": 7309,
      "wso": 7310,
      "yell": 7311,
      "##iors": 7312,
      "##iots": 7313,
      "##kward": 7314,
      "##mates": 7315,
      "##zer": 7316,
      "##inal": 7317,
      "inappro": 7318,
      "##oms": 7319,
      "##ica": 7320,
      "beef": 7321,
      "plaza": 7322,
      "unw": 7323,
      "spices": 7324,
      "slpp": 7325,
      "prison": 7326,
      "manner": 7327,
      "traveled": 7328,
      "blah": 7329,
      "specs": 7330,
      "founder": 7331,
      "depending": 7332,
      "lesser": 7333,
      "risks": 7334,
      "streets": 7335,
      "hostels": 7336,
      "involve": 7337,
      "earnings": 7338,
      "300k": 7339,
      "argue": 7340,
      "bulk": 7341,
      "denim": 7342,
      "outdated": 7343,
      "throwing": 7344,
      "terrorist": 7345,
      "##missions": 7346,
      "curtin": 7347,
      "mafia": 7348,
      "havelock": 7349,
      "wso2": 7350,
      "5th": 7351,
      "hatt": 7352,
      "nine": 7353,
      "roof": 7354,
      "##eem": 7355,
      "##dd": 7356,
      "##orter": 7357,
      "toward": 7358,
      "##eties": 7359,
      "onwards": 7360,
      "habit": 7361,
      "doc": 7362,
      "##chy": 7363,
      "french": 7364,
      "plays": 7365,
      "##agers": 7366,
      "pron": 7367,
      "scream": 7368,
      "couldnt": 7369,
      "overcome": 7370,
      "##awatta": 7371,
      "acts": 7372,
      "teens": 7373,
      "posh": 7374,
      "transfers": 7375,
      "weekly": 7376,
      "##araja": 7377,
      "industries": 7378,
      "tvs": 7379,
      "annoy": 7380,
      "orient": 7381,
      "reporting": 7382,
      "dms": 7383,
      "organic": 7384,
      "painting": 7385,
      "labour": 7386,
      "boxes": 7387,
      "operate": 7388,
      "neighbors": 7389,
      "##ography": 7390,
      "progressive": 7391,
      "teled": 7392,
      "picking": 7393,
      "penal": 7394,
      "announced": 7395,
      "deducted": 7396,
      "python": 7397,
      "sufficient": 7398,
      "affiliated": 7399,
      "faith": 7400,
      "fulfill": 7401,
      "suzuki": 7402,
      "hatton": 7403,
      "--": 7404,
      "\\[": 7405,
      "dated": 7406,
      "fasc": 7407,
      "nu": 7408,
      "nood": 7409,
      "river": 7410,
      "tank": 7411,
      "##eing": 7412,
      "##aud": 7413,
      "##70": 7414,
      "##ician": 7415,
      "##uted": 7416,
      "##esth": 7417,
      "##chi": 7418,
      "exerc": 7419,
      "chest": 7420,
      "wasted": 7421,
      "##abet": 7422,
      "yours": 7423,
      "span": 7424,
      "leaf": 7425,
      "peoples": 7426,
      "##ference": 7427,
      "reset": 7428,
      "scold": 7429,
      "indic": 7430,
      "decre": 7431,
      "internationally": 7432,
      "genoc": 7433,
      "salons": 7434,
      "##ahini": 7435,
      "symb": 7436,
      "assess": 7437,
      "30th": 7438,
      "corner": 7439,
      "examination": 7440,
      "anniversary": 7441,
      "##shit": 7442,
      "exclud": 7443,
      "beginners": 7444,
      "codes": 7445,
      "awkward": 7446,
      "stripe": 7447,
      "battle": 7448,
      "communicate": 7449,
      "associated": 7450,
      "convin": 7451,
      "permanently": 7452,
      "delayed": 7453,
      "gigs": 7454,
      "fruit": 7455,
      "aspects": 7456,
      "industrial": 7457,
      "entertainment": 7458,
      "lounge": 7459,
      "understood": 7460,
      "03": 7461,
      "3000": 7462,
      "gaining": 7463,
      "groom": 7464,
      "les": 7465,
      "ry": 7466,
      "ros": 7467,
      "uoc": 7468,
      "voc": 7469,
      "wf": 7470,
      "yrs": 7471,
      "##oad": 7472,
      "##ls": 7473,
      "##lam": 7474,
      "##riers": 7475,
      "ish": 7476,
      "##let": 7477,
      "##uts": 7478,
      "haha": 7479,
      "stability": 7480,
      "beard": 7481,
      "shipped": 7482,
      "asp": 7483,
      "excu": 7484,
      "chenna": 7485,
      "unfor": 7486,
      "wasting": 7487,
      "expats": 7488,
      "spicy": 7489,
      "locked": 7490,
      "##usl": 7491,
      "##obia": 7492,
      "##obile": 7493,
      "##asses": 7494,
      "acca": 7495,
      "dispos": 7496,
      "served": 7497,
      "accountability": 7498,
      "owns": 7499,
      "legend": 7500,
      "##ontin": 7501,
      "hardware": 7502,
      "##ruka": 7503,
      "generated": 7504,
      "lesson": 7505,
      "concerning": 7506,
      "promised": 7507,
      "transferring": 7508,
      "diy": 7509,
      "speaks": 7510,
      "duties": 7511,
      "smartphone": 7512,
      "harsh": 7513,
      "mechat": 7514,
      "removal": 7515,
      "lucky": 7516,
      "ordinary": 7517,
      "settings": 7518,
      "mcd": 7519,
      "resignation": 7520,
      "ssd": 7521,
      "cuisine": 7522,
      "circumstances": 7523,
      "gentle": 7524,
      "excuse": 7525,
      "chennai": 7526,
      "60k": 7527,
      ":-": 7528,
      "aesth": 7529,
      "fro": 7530,
      "hv": 7531,
      "jeal": 7532,
      "lion": 7533,
      "nail": 7534,
      "oly": 7535,
      "pets": 7536,
      "ric": 7537,
      "rip": 7538,
      "wet": 7539,
      "##har": 7540,
      "##name": 7541,
      "##tit": 7542,
      "##table": 7543,
      "##ded": 7544,
      "##uce": 7545,
      "##uber": 7546,
      "##vi": 7547,
      "##icking": 7548,
      "##store": 7549,
      "alb": 7550,
      "alive": 7551,
      "shady": 7552,
      "##tery": 7553,
      "soap": 7554,
      "abort": 7555,
      "exists": 7556,
      "exposed": 7557,
      "logo": 7558,
      "reloc": 7559,
      "scary": 7560,
      "parad": 7561,
      "##lanka": 7562,
      "fiver": 7563,
      "drain": 7564,
      "privile": 7565,
      "##phere": 7566,
      "badmin": 7567,
      "ps4": 7568,
      "faces": 7569,
      "poly": 7570,
      "researching": 7571,
      "distract": 7572,
      "crew": 7573,
      "centers": 7574,
      "safely": 7575,
      "exciting": 7576,
      "snap": 7577,
      "registering": 7578,
      "marriages": 7579,
      "capable": 7580,
      "exchang": 7581,
      "streams": 7582,
      "largest": 7583,
      "naturally": 7584,
      "ultimate": 7585,
      "cigars": 7586,
      "teenager": 7587,
      "launched": 7588,
      "lecturer": 7589,
      "satisfied": 7590,
      "esim": 7591,
      "sabar": 7592,
      "criminal": 7593,
      "hesitant": 7594,
      "kapruka": 7595,
      "diaspor": 7596,
      "ingredi": 7597,
      "aggress": 7598,
      "niche": 7599,
      "equivalent": 7600,
      "jealous": 7601,
      "olymp": 7602,
      "badminton": 7603,
      "05": 7604,
      "43": 7605,
      "9th": 7606,
      "?(": 7607,
      "aun": 7608,
      "apt": 7609,
      "ben": 7610,
      "dile": 7611,
      "dying": 7612,
      "fup": 7613,
      "hun": 7614,
      "pa": 7615,
      "##made": 7616,
      "##inating": 7617,
      "ine": 7618,
      "inject": 7619,
      "##rise": 7620,
      "islam": 7621,
      "forcing": 7622,
      "dol": 7623,
      "##iled": 7624,
      "stated": 7625,
      "beware": 7626,
      "##olit": 7627,
      "##irya": 7628,
      "##irts": 7629,
      "chand": 7630,
      "produc": 7631,
      "usb": 7632,
      "visible": 7633,
      "newsp": 7634,
      "reserve": 7635,
      "scand": 7636,
      "england": 7637,
      "engagement": 7638,
      "##uba": 7639,
      "perm": 7640,
      "infect": 7641,
      "strang": 7642,
      "roast": 7643,
      "bankrupt": 7644,
      "optim": 7645,
      "hotline": 7646,
      "farm": 7647,
      "allowance": 7648,
      "designed": 7649,
      "breakup": 7650,
      "##agged": 7651,
      "label": 7652,
      "sadly": 7653,
      "operations": 7654,
      "tuks": 7655,
      "trinco": 7656,
      "occup": 7657,
      "ignored": 7658,
      "automatically": 7659,
      "marrying": 7660,
      "cartoon": 7661,
      "##--------------------------------": 7662,
      "bambalapitiya": 7663,
      "jewellery": 7664,
      "ingredients": 7665,
      "newspap": 7666,
      "700": 7667,
      "dy": 7668,
      "dump": 7669,
      "eel": 7670,
      "fw": 7671,
      "lap": 7672,
      "nons": 7673,
      "qa": 7674,
      "ren": 7675,
      "vlog": 7676,
      "##een": 7677,
      "##15": 7678,
      "##mma": 7679,
      "##wing": 7680,
      "##99": 7681,
      "##40": 7682,
      "stood": 7683,
      "amend": 7684,
      "spice": 7685,
      "guests": 7686,
      "##aving": 7687,
      "##iving": 7688,
      "workout": 7689,
      "monkey": 7690,
      "overst": 7691,
      "perera": 7692,
      "commute": 7693,
      "drives": 7694,
      "instru": 7695,
      "boot": 7696,
      "packs": 7697,
      "trainer": 7698,
      "##aze": 7699,
      "surely": 7700,
      "rentals": 7701,
      "licens": 7702,
      "picked": 7703,
      "efforts": 7704,
      "welcom": 7705,
      "reported": 7706,
      "accepting": 7707,
      "walked": 7708,
      "16th": 7709,
      "painful": 7710,
      "switched": 7711,
      "rising": 7712,
      "winning": 7713,
      "fastest": 7714,
      "silva": 7715,
      "stressful": 7716,
      "combination": 7717,
      "suspended": 7718,
      "records": 7719,
      "neighbour": 7720,
      "secretary": 7721,
      "attractions": 7722,
      "dhl": 7723,
      "domain": 7724,
      "convince": 7725,
      "dentist": 7726,
      "bloody": 7727,
      "frequent": 7728,
      "subscribe": 7729,
      "shooting": 7730,
      "repeat": 7731,
      "supre": 7732,
      "nanu": 7733,
      "rumors": 7734,
      "detailed": 7735,
      "grocery": 7736,
      "anonymous": 7737,
      "controversial": 7738,
      "receipt": 7739,
      "hiru": 7740,
      "kollupitiya": 7741,
      "mcdonal": 7742,
      "diaspora": 7743,
      "38": 7744,
      "\\]": 7745,
      "edition": 7746,
      "fiction": 7747,
      "ousl": 7748,
      "pills": 7749,
      "pushing": 7750,
      "vfs": 7751,
      "##ii": 7752,
      "##oons": 7753,
      "##tr": 7754,
      "##dies": 7755,
      "##lines": 7756,
      "##front": 7757,
      "##inity": 7758,
      "##aran": 7759,
      "##alaya": 7760,
      "##reh": 7761,
      "##eliness": 7762,
      "##ications": 7763,
      "##ils": 7764,
      "fraud": 7765,
      "bug": 7766,
      "##aped": 7767,
      "spring": 7768,
      "arag": 7769,
      "login": 7770,
      "advised": 7771,
      "buyer": 7772,
      "##icaloa": 7773,
      "paran": 7774,
      "meds": 7775,
      "ministers": 7776,
      "privately": 7777,
      "elected": 7778,
      "sym": 7779,
      "learnt": 7780,
      "meanwhile": 7781,
      "lands": 7782,
      "bros": 7783,
      "traders": 7784,
      "sunscreen": 7785,
      "discussing": 7786,
      "improved": 7787,
      "awful": 7788,
      "academics": 7789,
      "improvement": 7790,
      "café": 7791,
      "procedures": 7792,
      "donate": 7793,
      "hole": 7794,
      "startups": 7795,
      "pulled": 7796,
      "consumption": 7797,
      "venues": 7798,
      "loneliness": 7799,
      "gpu": 7800,
      "gpa": 7801,
      "inspired": 7802,
      "leadership": 7803,
      "obsessed": 7804,
      "preparing": 7805,
      "owning": 7806,
      "atmosphere": 7807,
      "nissan": 7808,
      "unnecessary": 7809,
      "symbol": 7810,
      "sabaragamuwa": 7811,
      "bright": 7812,
      "cope": 7813,
      "gained": 7814,
      "kfc": 7815,
      "pir": 7816,
      "ts": 7817,
      "tsh": 7818,
      "##city": 7819,
      "##ueless": 7820,
      "##wr": 7821,
      "##atne": 7822,
      "sty": 7823,
      "##urudu": 7824,
      "reh": 7825,
      "unh": 7826,
      "seaf": 7827,
      "pean": 7828,
      "quote": 7829,
      "clueless": 7830,
      "tries": 7831,
      "##ublic": 7832,
      "contacting": 7833,
      "decor": 7834,
      "fianc": 7835,
      "transpar": 7836,
      "##bsl": 7837,
      "republic": 7838,
      "biomed": 7839,
      "addiction": 7840,
      "##ikes": 7841,
      "wednes": 7842,
      "barber": 7843,
      "stops": 7844,
      "artific": 7845,
      "tested": 7846,
      "females": 7847,
      "filing": 7848,
      "cutting": 7849,
      "figuring": 7850,
      "continu": 7851,
      "continued": 7852,
      "renewing": 7853,
      "casually": 7854,
      "chemical": 7855,
      "importantly": 7856,
      "edge": 7857,
      "labs": 7858,
      "bottom": 7859,
      "restricted": 7860,
      "machines": 7861,
      "withdrawal": 7862,
      "coldplay": 7863,
      "denied": 7864,
      "tattoos": 7865,
      "clinical": 7866,
      "sponsorship": 7867,
      "bullshit": 7868,
      "established": 7869,
      "alevels": 7870,
      "overwhelmed": 7871,
      "leaning": 7872,
      "bmw": 7873,
      "saree": 7874,
      "agriculture": 7875,
      "feasible": 7876,
      "dilemma": 7877,
      "wednesday": 7878,
      "3as": 7879,
      "dust": 7880,
      "ju": 7881,
      "jet": 7882,
      "mort": 7883,
      "nike": 7884,
      "rab": 7885,
      "wagon": 7886,
      "##hill": 7887,
      "##case": 7888,
      "thor": 7889,
      "##ecast": 7890,
      "##verter": 7891,
      "chos": 7892,
      "unem": 7893,
      "##ulated": 7894,
      "##emic": 7895,
      "##abled": 7896,
      "exper": 7897,
      "##ifest": 7898,
      "lovers": 7899,
      "##ounds": 7900,
      "quota": 7901,
      "##sole": 7902,
      "##ourse": 7903,
      "manifest": 7904,
      "engaged": 7905,
      "indoor": 7906,
      "shein": 7907,
      "hero": 7908,
      "planing": 7909,
      "elite": 7910,
      "teams": 7911,
      "craft": 7912,
      "subtit": 7913,
      "##gettable": 7914,
      "nightlife": 7915,
      "signature": 7916,
      "clubbing": 7917,
      "buddhists": 7918,
      "sigirya": 7919,
      "films": 7920,
      "vacancy": 7921,
      "creators": 7922,
      "14th": 7923,
      "japura": 7924,
      "division": 7925,
      "requesting": 7926,
      "wins": 7927,
      "answered": 7928,
      "hosting": 7929,
      "##marily": 7930,
      "introduce": 7931,
      "comfortably": 7932,
      "bookings": 7933,
      "celebration": 7934,
      "lecture": 7935,
      "northern": 7936,
      "criteria": 7937,
      "s23": 7938,
      "conducting": 7939,
      "lyce": 7940,
      "circles": 7941,
      "describe": 7942,
      "veter": 7943,
      "aiming": 7944,
      "motivation": 7945,
      "announce": 7946,
      "resolve": 7947,
      "virginity": 7948,
      "wickre": 7949,
      "witnessed": 7950,
      "fingerpr": 7951,
      "category": 7952,
      "guarantee": 7953,
      "derana": 7954,
      "cotton": 7955,
      "rtx": 7956,
      "script": 7957,
      "genocide": 7958,
      "unforgettable": 7959,
      "aptitude": 7960,
      "fiancé": 7961,
      "77": 7962,
      "94": 7963,
      "ax": 7964,
      "award": 7965,
      "cave": 7966,
      "cbsl": 7967,
      "grid": 7968,
      "kiri": 7969,
      "lord": 7970,
      "por": 7971,
      "raw": 7972,
      "rape": 7973,
      "tld": 7974,
      "xia": 7975,
      "##iers": 7976,
      "##ey": 7977,
      "##falls": 7978,
      "##iser": 7979,
      "##oop": 7980,
      "myst": 7981,
      "exempt": 7982,
      "sung": 7983,
      "##ags": 7984,
      "cond": 7985,
      "goss": 7986,
      "fever": 7987,
      "##akk": 7988,
      "20th": 7989,
      "sheet": 7990,
      "contem": 7991,
      "##ointing": 7992,
      "happiness": 7993,
      "insist": 7994,
      "remitt": 7995,
      "presence": 7996,
      "assets": 7997,
      "lookout": 7998,
      "1500": 7999,
      "breast": 8000,
      "##ancies": 8001,
      "##attu": 8002,
      "distur": 8003,
      "promise": 8004,
      "statements": 8005,
      "activate": 8006,
      "hopes": 8007,
      "technologies": 8008,
      "treating": 8009,
      "borrow": 8010,
      "viet": 8011,
      "discussed": 8012,
      "certifications": 8013,
      "effectively": 8014,
      "chatting": 8015,
      "##umbled": 8016,
      "cinec": 8017,
      "necess": 8018,
      "priorit": 8019,
      "towns": 8020,
      "burden": 8021,
      "politician": 8022,
      "parliamentary": 8023,
      "batticaloa": 8024,
      "irre": 8025,
      "emotionally": 8026,
      "john": 8027,
      "advisor": 8028,
      "torrent": 8029,
      "apologies": 8030,
      "tenn": 8031,
      "pfca": 8032,
      "harassment": 8033,
      "fragrance": 8034,
      "cowork": 8035,
      "rajapaksha": 8036,
      "cabinet": 8037,
      "greetings": 8038,
      "indonesia": 8039,
      "yellow": 8040,
      "inappropriate": 8041,
      "aragalaya": 8042,
      "unemploy": 8043,
      "tldr": 8044,
      "900": 8045,
      "ber": 8046,
      "cm": 8047,
      "gel": 8048,
      "kings": 8049,
      "mn": 8050,
      "maid": 8051,
      "pas": 8052,
      "rating": 8053,
      "ward": 8054,
      "##ipp": 8055,
      "##bon": 8056,
      "##rative": 8057,
      "##mare": 8058,
      "##gi": 8059,
      "thurs": 8060,
      "toler": 8061,
      "##omi": 8062,
      "##rilanka": 8063,
      "##aced": 8064,
      "began": 8065,
      "reform": 8066,
      "##aded": 8067,
      "##imb": 8068,
      "bund": 8069,
      "console": 8070,
      "colum": 8071,
      "enh": 8072,
      "##avel": 8073,
      "leaked": 8074,
      "clock": 8075,
      "nov": 8076,
      "brings": 8077,
      "granted": 8078,
      "plane": 8079,
      "busses": 8080,
      "##plant": 8081,
      "decades": 8082,
      "transform": 8083,
      "instance": 8084,
      "taxis": 8085,
      "blocking": 8086,
      "packed": 8087,
      "nightmare": 8088,
      "solely": 8089,
      "preferences": 8090,
      "meter": 8091,
      "scamming": 8092,
      "suppose": 8093,
      "seconds": 8094,
      "replied": 8095,
      "sexually": 8096,
      "border": 8097,
      "exclusive": 8098,
      "routers": 8099,
      "voters": 8100,
      "downloading": 8101,
      "protests": 8102,
      "protection": 8103,
      "scheduled": 8104,
      "calculate": 8105,
      "durable": 8106,
      "debate": 8107,
      "counseling": 8108,
      "habits": 8109,
      "neighborhood": 8110,
      "punishment": 8111,
      "insecure": 8112,
      "diverse": 8113,
      "uniform": 8114,
      "##visor": 8115,
      "dynam": 8116,
      "nonsense": 8117,
      "chosen": 8118,
      "lyceum": 8119,
      "vietnam": 8120,
      "bell": 8121,
      "cro": 8122,
      "js": 8123,
      "ns": 8124,
      "nether": 8125,
      "raining": 8126,
      "waves": 8127,
      "##ios": 8128,
      "##eve": 8129,
      "##ders": 8130,
      "##mg": 8131,
      "##well": 8132,
      "thick": 8133,
      "##omy": 8134,
      "whil": 8135,
      "##elines": 8136,
      "havent": 8137,
      "amex": 8138,
      "##urang": 8139,
      "alph": 8140,
      "cann": 8141,
      "##ched": 8142,
      "trends": 8143,
      "admit": 8144,
      "recs": 8145,
      "##usive": 8146,
      "compon": 8147,
      "safer": 8148,
      "brut": 8149,
      "muse": 8150,
      "prev": 8151,
      "##ods": 8152,
      "suggesting": 8153,
      "postal": 8154,
      "sinharaja": 8155,
      "surname": 8156,
      "hotsp": 8157,
      "delays": 8158,
      "damro": 8159,
      "damaged": 8160,
      "certification": 8161,
      "holders": 8162,
      "satell": 8163,
      "succeed": 8164,
      "introverted": 8165,
      "authorized": 8166,
      "##intend": 8167,
      "hoppers": 8168,
      "railways": 8169,
      "clarification": 8170,
      "kingdom": 8171,
      "teenagers": 8172,
      "cigarette": 8173,
      "aunties": 8174,
      "motivated": 8175,
      "pollution": 8176,
      "ayurveda": 8177,
      "accomod": 8178,
      "proposed": 8179,
      "square": 8180,
      "approximately": 8181,
      "entrepreneurs": 8182,
      "commitment": 8183,
      "vapes": 8184,
      "democracy": 8185,
      "wilp": 8186,
      "landscape": 8187,
      "thousands": 8188,
      "graphics": 8189,
      "cautious": 8190,
      "lemme": 8191,
      "heritage": 8192,
      "philos": 8193,
      "lesb": 8194,
      "fiverr": 8195,
      "eelam": 8196,
      "artificial": 8197,
      "netherlands": 8198,
      "whilst": 8199,
      "34": 8200,
      "cis": 8201,
      "cus": 8202,
      "dir": 8203,
      "hund": 8204,
      "kg": 8205,
      "kink": 8206,
      "karma": 8207,
      "lil": 8208,
      "length": 8209,
      "ntb": 8210,
      "sizes": 8211,
      "ties": 8212,
      "util": 8213,
      "##hal": 8214,
      "##ield": 8215,
      "##bath": 8216,
      "##16": 8217,
      "##்த": 8218,
      "todd": 8219,
      "##anka": 8220,
      "ham": 8221,
      "stunning": 8222,
      "##tha": 8223,
      "neut": 8224,
      "unav": 8225,
      "produce": 8226,
      "needing": 8227,
      "leak": 8228,
      "buyers": 8229,
      "worksh": 8230,
      "byd": 8231,
      "novel": 8232,
      "pra": 8233,
      "20m": 8234,
      "scroll": 8235,
      "accused": 8236,
      "overrated": 8237,
      "incor": 8238,
      "tees": 8239,
      "thru": 8240,
      "invite": 8241,
      "keels": 8242,
      "remem": 8243,
      "boom": 8244,
      "flor": 8245,
      "packaging": 8246,
      "funct": 8247,
      "funding": 8248,
      "landl": 8249,
      "checkout": 8250,
      "nationals": 8251,
      "2008": 8252,
      "applicable": 8253,
      "portable": 8254,
      "medications": 8255,
      "accessible": 8256,
      "tiny": 8257,
      "resource": 8258,
      "approached": 8259,
      "installments": 8260,
      "disappointing": 8261,
      "hyper": 8262,
      "ltd": 8263,
      "mountains": 8264,
      "victory": 8265,
      "oils": 8266,
      "semi": 8267,
      "appearance": 8268,
      "investigation": 8269,
      "vaccine": 8270,
      "scientist": 8271,
      "entrepreneur": 8272,
      "elderly": 8273,
      "mutual": 8274,
      "passengers": 8275,
      "newbie": 8276,
      "biscuits": 8277,
      "seafood": 8278,
      "thursday": 8279,
      "hundred": 8280,
      "04": 8281,
      "360": 8282,
      "ble": 8283,
      "bite": 8284,
      "gor": 8285,
      "gal": 8286,
      "heck": 8287,
      "laug": 8288,
      "mothers": 8289,
      "tun": 8290,
      "vip": 8291,
      "##ba": 8292,
      "##nel": 8293,
      "##cse": 8294,
      "##dings": 8295,
      "##aver": 8296,
      "##afe": 8297,
      "##wide": 8298,
      "anger": 8299,
      "tom": 8300,
      "##arn": 8301,
      "stone": 8302,
      "alarm": 8303,
      "##adura": 8304,
      "trap": 8305,
      "admitted": 8306,
      "alloc": 8307,
      "alliance": 8308,
      "spar": 8309,
      "##iva": 8310,
      "primarily": 8311,
      "resist": 8312,
      "##ials": 8313,
      "##atha": 8314,
      "coord": 8315,
      "dram": 8316,
      "handled": 8317,
      "extr": 8318,
      "depends": 8319,
      "##standing": 8320,
      "kidney": 8321,
      "scammer": 8322,
      "freely": 8323,
      "##ictions": 8324,
      "dealt": 8325,
      "creation": 8326,
      "refuse": 8327,
      "##ficial": 8328,
      "aka": 8329,
      "enjoyed": 8330,
      "difficulties": 8331,
      "stole": 8332,
      "demanding": 8333,
      "expressway": 8334,
      "funded": 8335,
      "closest": 8336,
      "maintaining": 8337,
      "appears": 8338,
      "angel": 8339,
      "liquid": 8340,
      "encounter": 8341,
      "comparison": 8342,
      "navigating": 8343,
      "strategy": 8344,
      "desperately": 8345,
      "fluent": 8346,
      "characters": 8347,
      "propag": 8348,
      "millions": 8349,
      "sneakers": 8350,
      "tariffs": 8351,
      "unusual": 8352,
      "browsing": 8353,
      "unexpected": 8354,
      "noodles": 8355,
      "wfh": 8356,
      "mechatronics": 8357,
      "wickremes": 8358,
      "satellite": 8359,
      "philosoph": 8360,
      "06": 8361,
      "f1": 8362,
      "iq": 8363,
      "ja": 8364,
      "kitten": 8365,
      "woke": 8366,
      "##hh": 8367,
      "##ham": 8368,
      "##bies": 8369,
      "##no": 8370,
      "##rors": 8371,
      "##card": 8372,
      "##top": 8373,
      "##km": 8374,
      "##90": 8375,
      "##fw": 8376,
      "##න්": 8377,
      "##ered": 8378,
      "##alk": 8379,
      "##asia": 8380,
      "##acles": 8381,
      "beg": 8382,
      "##urt": 8383,
      "##advant": 8384,
      "bucks": 8385,
      "chasing": 8386,
      "##usd": 8387,
      "##ipe": 8388,
      "pride": 8389,
      "rely": 8390,
      "disrupt": 8391,
      "disadvant": 8392,
      "postgr": 8393,
      "consume": 8394,
      "cock": 8395,
      "invited": 8396,
      "simpl": 8397,
      "governments": 8398,
      "discl": 8399,
      "reasonably": 8400,
      "swift": 8401,
      "muscle": 8402,
      "educate": 8403,
      "profits": 8404,
      "supplement": 8405,
      "urban": 8406,
      "weddings": 8407,
      "promising": 8408,
      "factor": 8409,
      "2016": 8410,
      "11th": 8411,
      "vacancies": 8412,
      "affecting": 8413,
      "appointed": 8414,
      "circul": 8415,
      "dresses": 8416,
      "burning": 8417,
      "attacked": 8418,
      "donation": 8419,
      "sweat": 8420,
      "perspectives": 8421,
      "illness": 8422,
      "captain": 8423,
      "conducted": 8424,
      "cinemas": 8425,
      "narc": 8426,
      "kalut": 8427,
      "podcast": 8428,
      "sponsor": 8429,
      "dji": 8430,
      "microsoft": 8431,
      "russians": 8432,
      "jerome": 8433,
      "encourage": 8434,
      "sightse": 8435,
      "fantasy": 8436,
      "manufacturer": 8437,
      "isolated": 8438,
      "orphanage": 8439,
      "penalty": 8440,
      "welcomed": 8441,
      "subtitles": 8442,
      "xiaomi": 8443,
      "wickremesinghe": 8444,
      "85": 8445,
      "8th": 8446,
      "?,": 8447,
      "\\\\": 8448,
      "\\~": 8449,
      "bol": 8450,
      "bak": 8451,
      "bagg": 8452,
      "bcs": 8453,
      "bpo": 8454,
      "deng": 8455,
      "ner": 8456,
      "pg": 8457,
      "pig": 8458,
      "qat": 8459,
      "rig": 8460,
      "sq": 8461,
      "ske": 8462,
      "sket": 8463,
      "viable": 8464,
      "wow": 8465,
      "wand": 8466,
      "##oys": 8467,
      "##ford": 8468,
      "##enn": 8469,
      "##esl": 8470,
      "##otyp": 8471,
      "dos": 8472,
      "stumbled": 8473,
      "##verts": 8474,
      "##thu": 8475,
      "shes": 8476,
      "mee": 8477,
      "asians": 8478,
      "proc": 8479,
      "##avahini": 8480,
      "compreh": 8481,
      "##uma": 8482,
      "evol": 8483,
      "evalu": 8484,
      "everytime": 8485,
      "pray": 8486,
      "scuba": 8487,
      "elon": 8488,
      "trigger": 8489,
      "incon": 8490,
      "persons": 8491,
      "appreciation": 8492,
      "##atches": 8493,
      "ears": 8494,
      "aviation": 8495,
      "##issa": 8496,
      "##ertain": 8497,
      "importance": 8498,
      "swear": 8499,
      "processor": 8500,
      "adds": 8501,
      "certified": 8502,
      "meetings": 8503,
      "buildings": 8504,
      "suppli": 8505,
      "drops": 8506,
      "answering": 8507,
      "traditions": 8508,
      "2010": 8509,
      "default": 8510,
      "devs": 8511,
      "figures": 8512,
      "requests": 8513,
      "cooler": 8514,
      "estimate": 8515,
      "##parents": 8516,
      "mistaken": 8517,
      "correctly": 8518,
      "verified": 8519,
      "silent": 8520,
      "operation": 8521,
      "grandf": 8522,
      "grandparents": 8523,
      "controlled": 8524,
      "31st": 8525,
      "comparing": 8526,
      "conflicting": 8527,
      "recipes": 8528,
      "wickram": 8529,
      "bathroom": 8530,
      "groceries": 8531,
      "habarana": 8532,
      "ancest": 8533,
      "screenshot": 8534,
      "gmail": 8535,
      "disconnected": 8536,
      "pharmacies": 8537,
      "photoshoot": 8538,
      "catholic": 8539,
      "abortion": 8540,
      "licensed": 8541,
      "sympt": 8542,
      "biomedical": 8543,
      "wilpattu": 8544,
      "suppliers": 8545,
      "88": 8546,
      "beng": 8547,
      "cens": 8548,
      "dies": 8549,
      "hu": 8550,
      "hide": 8551,
      "kos": 8552,
      "koth": 8553,
      "raid": 8554,
      "tues": 8555,
      "##head": 8556,
      "##net": 8557,
      "##oors": 8558,
      "##tech": 8559,
      "##14": 8560,
      "##uks": 8561,
      "##lasses": 8562,
      "##pa": 8563,
      "##ml": 8564,
      "##gu": 8565,
      "ants": 8566,
      "##stream": 8567,
      "##ece": 8568,
      "dod": 8569,
      "doors": 8570,
      "##oster": 8571,
      "expense": 8572,
      "allergy": 8573,
      "spin": 8574,
      "arent": 8575,
      "placed": 8576,
      "leop": 8577,
      "quoted": 8578,
      "acbt": 8579,
      "##obic": 8580,
      "bypass": 8581,
      "sauce": 8582,
      "finds": 8583,
      "scars": 8584,
      "intent": 8585,
      "curly": 8586,
      "offensive": 8587,
      "dismiss": 8588,
      "crab": 8589,
      "meditation": 8590,
      "blow": 8591,
      "buds": 8592,
      "packets": 8593,
      "legends": 8594,
      "##uese": 8595,
      "biological": 8596,
      "musk": 8597,
      "stuffs": 8598,
      "mainstream": 8599,
      "freight": 8600,
      "credits": 8601,
      "256": 8602,
      "19th": 8603,
      "180": 8604,
      "format": 8605,
      "pathetic": 8606,
      "hopeless": 8607,
      "malay": 8608,
      "breaks": 8609,
      "breakdown": 8610,
      "holds": 8611,
      "calories": 8612,
      "sorted": 8613,
      "guessing": 8614,
      "caps": 8615,
      "cycling": 8616,
      "premier": 8617,
      "seniors": 8618,
      "complained": 8619,
      "stopping": 8620,
      "globally": 8621,
      "combank": 8622,
      "panel": 8623,
      "ignoring": 8624,
      "closing": 8625,
      "navy": 8626,
      "accommodations": 8627,
      "tutors": 8628,
      "targeting": 8629,
      "thrill": 8630,
      "bullied": 8631,
      "campaigns": 8632,
      "suicidal": 8633,
      "superior": 8634,
      "implemented": 8635,
      "published": 8636,
      "disease": 8637,
      "overthinking": 8638,
      "champions": 8639,
      "sambol": 8640,
      "overstay": 8641,
      "sunglasses": 8642,
      "tennis": 8643,
      "columbo": 8644,
      "laughing": 8645,
      "kalutara": 8646,
      "1gb": 8647,
      "37": 8648,
      "39": 8649,
      "80k": 8650,
      "bom": 8651,
      "bare": 8652,
      "fo": 8653,
      "gaz": 8654,
      "hm": 8655,
      "hub": 8656,
      "joint": 8657,
      "kir": 8658,
      "mood": 8659,
      "mates": 8660,
      "pier": 8661,
      "sed": 8662,
      "##hr": 8663,
      "##rest": 8664,
      "##gy": 8665,
      "##yr": 8666,
      "##yc": 8667,
      "##ints": 8668,
      "##reg": 8669,
      "noticing": 8670,
      "##ths": 8671,
      "nepal": 8672,
      "abusive": 8673,
      "plates": 8674,
      "comedy": 8675,
      "congr": 8676,
      "seyl": 8677,
      "advoc": 8678,
      "##ptions": 8679,
      "manual": 8680,
      "phr": 8681,
      "sheer": 8682,
      "##plus": 8683,
      "perce": 8684,
      "tex": 8685,
      "blog": 8686,
      "##enced": 8687,
      "datab": 8688,
      "numer": 8689,
      "swing": 8690,
      "mentions": 8691,
      "playstation": 8692,
      "confront": 8693,
      "assh": 8694,
      "cultures": 8695,
      "facility": 8696,
      "minds": 8697,
      "refusing": 8698,
      "refurb": 8699,
      "youtuber": 8700,
      "fixing": 8701,
      "treats": 8702,
      "portug": 8703,
      "divers": 8704,
      "defense": 8705,
      "forwarding": 8706,
      "humid": 8707,
      "covering": 8708,
      "texts": 8709,
      "identification": 8710,
      "americans": 8711,
      "cabs": 8712,
      "promoted": 8713,
      "documentary": 8714,
      "teenage": 8715,
      "backpacking": 8716,
      "taboo": 8717,
      "uncertain": 8718,
      "repeated": 8719,
      "rapid": 8720,
      "talented": 8721,
      "desktop": 8722,
      "ranges": 8723,
      "vendors": 8724,
      "pissed": 8725,
      "chaos": 8726,
      "aunty": 8727,
      "gossip": 8728,
      "components": 8729,
      "propaganda": 8730,
      "sightseeing": 8731,
      "qatar": 8732,
      "inconven": 8733,
      "42": 8734,
      "89": 8735,
      "balls": 8736,
      "ecu": 8737,
      "ial": 8738,
      "icon": 8739,
      "mens": 8740,
      "pending": 8741,
      "pears": 8742,
      "rath": 8743,
      "tort": 8744,
      "torn": 8745,
      "##bar": 8746,
      "##bell": 8747,
      "##casts": 8748,
      "##uu": 8749,
      "##sess": 8750,
      "##years": 8751,
      "##fy": 8752,
      "##](": 8753,
      "thro": 8754,
      "##erce": 8755,
      "##esc": 8756,
      "toile": 8757,
      "##acco": 8758,
      "##iders": 8759,
      "amid": 8760,
      "lies": 8761,
      "##opular": 8762,
      "##abil": 8763,
      "seed": 8764,
      "recon": 8765,
      "expat": 8766,
      "helm": 8767,
      "##erial": 8768,
      "saudi": 8769,
      "##berry": 8770,
      "carried": 8771,
      "stranger": 8772,
      "roaming": 8773,
      "bless": 8774,
      "accountant": 8775,
      "redmi": 8776,
      "trained": 8777,
      "openly": 8778,
      "sciences": 8779,
      "generate": 8780,
      "meetup": 8781,
      "concent": 8782,
      "250k": 8783,
      "technically": 8784,
      "explaining": 8785,
      "filter": 8786,
      "demon": 8787,
      "colleague": 8788,
      "snack": 8789,
      "mentality": 8790,
      "13th": 8791,
      "subreddits": 8792,
      "boards": 8793,
      "staring": 8794,
      "raising": 8795,
      "larger": 8796,
      "therapists": 8797,
      "brokers": 8798,
      "consultants": 8799,
      "broadcast": 8800,
      "logic": 8801,
      "essentially": 8802,
      "domin": 8803,
      "collap": 8804,
      "unpopular": 8805,
      "sticker": 8806,
      "cozy": 8807,
      "escal": 8808,
      "##uriya": 8809,
      "profitable": 8810,
      "participate": 8811,
      "responsibilities": 8812,
      "climbing": 8813,
      "forgotten": 8814,
      "hobbies": 8815,
      "utter": 8816,
      "outsour": 8817,
      "criticism": 8818,
      "negotiate": 8819,
      "vitam": 8820,
      "manufacturers": 8821,
      "exhausted": 8822,
      "a55": 8823,
      "reliability": 8824,
      "widely": 8825,
      "excellent": 8826,
      "excluding": 8827,
      "strangers": 8828,
      "kiribath": 8829,
      "hotspot": 8830,
      "toddler": 8831,
      "landlord": 8832,
      "skept": 8833,
      "seylan": 8834,
      ",,": 8835,
      "7th": 8836,
      "aer": 8837,
      "bh": 8838,
      "ct": 8839,
      "fon": 8840,
      "gard": 8841,
      "hates": 8842,
      "hits": 8843,
      "mps": 8844,
      "rings": 8845,
      "sr": 8846,
      "tong": 8847,
      "ub": 8848,
      "vary": 8849,
      "wing": 8850,
      "##ias": 8851,
      "##craft": 8852,
      "##pool": 8853,
      "##you": 8854,
      "##ம்": 8855,
      "##ony": 8856,
      "##ouch": 8857,
      "##ato": 8858,
      "##enhe": 8859,
      "toys": 8860,
      "inverter": 8861,
      "##riyani": 8862,
      "##rew": 8863,
      "##reau": 8864,
      "whales": 8865,
      "##oween": 8866,
      "##ooked": 8867,
      "alter": 8868,
      "asse": 8869,
      "button": 8870,
      "trous": 8871,
      "##oped": 8872,
      "bureau": 8873,
      "chips": 8874,
      "enlight": 8875,
      "spouse": 8876,
      "spray": 8877,
      "##ipedia": 8878,
      "compat": 8879,
      "##ummy": 8880,
      "workar": 8881,
      "##odes": 8882,
      "overly": 8883,
      "disorder": 8884,
      "##eph": 8885,
      "thrott": 8886,
      "possess": 8887,
      "beforehand": 8888,
      "basics": 8889,
      "discontin": 8890,
      "wars": 8891,
      "125": 8892,
      "##oka": 8893,
      "##rish": 8894,
      "bald": 8895,
      "rains": 8896,
      "appointments": 8897,
      "silly": 8898,
      "shares": 8899,
      "depressing": 8900,
      "strongly": 8901,
      "consultation": 8902,
      "oppenhe": 8903,
      "recorded": 8904,
      "scenes": 8905,
      "scenery": 8906,
      "roman": 8907,
      "iran": 8908,
      "queer": 8909,
      "hurts": 8910,
      "automation": 8911,
      "automatic": 8912,
      "tuktuks": 8913,
      "memorable": 8914,
      "chocolates": 8915,
      "beliefs": 8916,
      "jersey": 8917,
      "ravana": 8918,
      "consistent": 8919,
      "overwhelming": 8920,
      "recruitment": 8921,
      "innovation": 8922,
      "cosmetics": 8923,
      "dependent": 8924,
      "disrespectful": 8925,
      "grammar": 8926,
      "wikipedia": 8927,
      "ocd": 8928,
      "album": 8929,
      "paradise": 8930,
      "aggressive": 8931,
      "experiment": 8932,
      "enhance": 8933,
      "dirty": 8934,
      "philosophy": 8935,
      "narciss": 8936,
      "dengue": 8937,
      "tuesday": 8938,
      "oppenheimer": 8939,
      "\")": 8940,
      "%,": 8941,
      "44": 8942,
      "6th": 8943,
      "cer": 8944,
      "dim": 8945,
      "fridge": 8946,
      "gpt": 8947,
      "hip": 8948,
      "jail": 8949,
      "kam": 8950,
      "kang": 8951,
      "laid": 8952,
      "mart": 8953,
      "mile": 8954,
      "np": 8955,
      "pitch": 8956,
      "trop": 8957,
      "vag": 8958,
      "wrist": 8959,
      "wave": 8960,
      "##rama": 8961,
      "##core": 8962,
      "##comm": 8963,
      "##coin": 8964,
      "##cles": 8965,
      "##77": 8966,
      "##wella": 8967,
      "##inform": 8968,
      "tob": 8969,
      "inher": 8970,
      "##arter": 8971,
      "##arath": 8972,
      "##ality": 8973,
      "isps": 8974,
      "##isher": 8975,
      "whis": 8976,
      "##eline": 8977,
      "##ication": 8978,
      "##etime": 8979,
      "stages": 8980,
      "ama": 8981,
      "orange": 8982,
      "##chem": 8983,
      "trapped": 8984,
      "sus": 8985,
      "##agoda": 8986,
      "adm": 8987,
      "##aba": 8988,
      "##aint": 8989,
      "##avid": 8990,
      "cli": 8991,
      "##ived": 8992,
      "vish": 8993,
      "novels": 8994,
      "newer": 8995,
      "intu": 8996,
      "margin": 8997,
      "percept": 8998,
      "serving": 8999,
      "transplant": 9000,
      "remains": 9001,
      "blu": 9002,
      "packet": 9003,
      "legs": 9004,
      "legion": 9005,
      "##tek": 9006,
      "confess": 9007,
      "tryna": 9008,
      "singing": 9009,
      "module": 9010,
      "followers": 9011,
      "licenses": 9012,
      "pretending": 9013,
      "paste": 9014,
      "detect": 9015,
      "waited": 9016,
      "signals": 9017,
      "employers": 9018,
      "prompt": 9019,
      "2009": 9020,
      "males": 9021,
      "sunrise": 9022,
      "2014": 9023,
      "defend": 9024,
      "devops": 9025,
      "accessories": 9026,
      "beneficial": 9027,
      "versions": 9028,
      "sharp": 9029,
      "stronger": 9030,
      "deadline": 9031,
      "panic": 9032,
      "attempts": 9033,
      "threatened": 9034,
      "fireworks": 9035,
      "##asteride": 9036,
      "narrow": 9037,
      "plantation": 9038,
      "assumed": 9039,
      "halloween": 9040,
      "oceans": 9041,
      "inquiry": 9042,
      "measures": 9043,
      "tariff": 9044,
      "oversized": 9045,
      "spiritual": 9046,
      "african": 9047,
      "hungry": 9048,
      "troubles": 9049,
      "intimacy": 9050,
      "jayawarden": 9051,
      "lesbian": 9052,
      "unavail": 9053,
      "grandfather": 9054,
      "symptoms": 9055,
      "numerous": 9056,
      "refurbished": 9057,
      "portuguese": 9058,
      "95": 9059,
      "aid": 9060,
      "cad": 9061,
      "ds": 9062,
      "gi": 9063,
      "iv": 9064,
      "nz": 9065,
      "pel": 9066,
      "row": 9067,
      "somed": 9068,
      "tone": 9069,
      "vul": 9070,
      "yam": 9071,
      "##ius": 9072,
      "##11": 9073,
      "##point": 9074,
      "##paid": 9075,
      "##pods": 9076,
      "##zing": 9077,
      "##ingy": 9078,
      "##rel": 9079,
      "##otv": 9080,
      "stance": 9081,
      "##ami": 9082,
      "##urance": 9083,
      "alum": 9084,
      "shi": 9085,
      "unity": 9086,
      "uneth": 9087,
      "##uls": 9088,
      "colors": 9089,
      "seal": 9090,
      "spr": 9091,
      "arc": 9092,
      "peotv": 9093,
      "##osc": 9094,
      "wherever": 9095,
      "##alling": 9096,
      "upwork": 9097,
      "visual": 9098,
      "phase": 9099,
      "monks": 9100,
      "engaging": 9101,
      "overl": 9102,
      "##ensions": 9103,
      "twent": 9104,
      "##orders": 9105,
      "bla": 9106,
      "writer": 9107,
      "realise": 9108,
      "affair": 9109,
      "courts": 9110,
      "hardly": 9111,
      "musical": 9112,
      "addicted": 9113,
      "##ugoda": 9114,
      "15th": 9115,
      "facial": 9116,
      "poison": 9117,
      "welcoming": 9118,
      "stands": 9119,
      "excel": 9120,
      "defence": 9121,
      "##ews": 9122,
      "euro": 9123,
      "religions": 9124,
      "avoiding": 9125,
      "difficulty": 9126,
      "humili": 9127,
      "involving": 9128,
      "celebrating": 9129,
      "advertise": 9130,
      "roller": 9131,
      "calculated": 9132,
      "wealthy": 9133,
      "photographers": 9134,
      "libraries": 9135,
      "incredible": 9136,
      "disappointment": 9137,
      "jumping": 9138,
      "ambul": 9139,
      "pinn": 9140,
      "enrolled": 9141,
      "recipe": 9142,
      "concepts": 9143,
      "hookup": 9144,
      "hatred": 9145,
      "destroyed": 9146,
      "counsell": 9147,
      "estimated": 9148,
      "permits": 9149,
      "contempl": 9150,
      "pearson": 9151,
      "unethical": 9152,
      "',": 9153,
      "aint": 9154,
      "fds": 9155,
      "fights": 9156,
      "mud": 9157,
      "pim": 9158,
      "rh": 9159,
      "wax": 9160,
      "xd": 9161,
      "||": 9162,
      "##bor": 9163,
      "##ek": 9164,
      "##count": 9165,
      "##pic": 9166,
      "##wan": 9167,
      "##face": 9168,
      "##vision": 9169,
      "toll": 9170,
      "##aroo": 9171,
      "##str": 9172,
      "##storm": 9173,
      "notification": 9174,
      "alg": 9175,
      "shell": 9176,
      "plot": 9177,
      "bub": 9178,
      "##erson": 9179,
      "##uling": 9180,
      "sees": 9181,
      "allerg": 9182,
      "spas": 9183,
      "##ista": 9184,
      "slip": 9185,
      "evil": 9186,
      "workload": 9187,
      "sapp": 9188,
      "##bery": 9189,
      "residents": 9190,
      "intended": 9191,
      "offense": 9192,
      "poster": 9193,
      ")..": 9194,
      "drag": 9195,
      "mining": 9196,
      "questioning": 9197,
      "secured": 9198,
      "investor": 9199,
      "##azer": 9200,
      "##ashed": 9201,
      "imposed": 9202,
      "connectivity": 9203,
      "souven": 9204,
      "retreat": 9205,
      "landed": 9206,
      "meetups": 9207,
      "autism": 9208,
      "listing": 9209,
      "examples": 9210,
      "causes": 9211,
      "##engen": 9212,
      "snake": 9213,
      "organized": 9214,
      "sectors": 9215,
      "copies": 9216,
      "addressed": 9217,
      "periods": 9218,
      "amongst": 9219,
      "deeper": 9220,
      "homoph": 9221,
      "panadura": 9222,
      "turtle": 9223,
      "environmental": 9224,
      "threats": 9225,
      "odel": 9226,
      "clarity": 9227,
      "unpro": 9228,
      "kottawa": 9229,
      "administr": 9230,
      "##aweera": 9231,
      "separately": 9232,
      "podcasts": 9233,
      "unrel": 9234,
      "hustles": 9235,
      "inspir": 9236,
      "satisfact": 9237,
      "bamba": 9238,
      "consistently": 9239,
      "fruits": 9240,
      "travellers": 9241,
      "passenger": 9242,
      "reveal": 9243,
      "pandemic": 9244,
      "occurred": 9245,
      "implications": 9246,
      "##malana": 9247,
      "palestine": 9248,
      "advertisement": 9249,
      "constitution": 9250,
      "convinced": 9251,
      "aesthetic": 9252,
      "unemployed": 9253,
      "skeptical": 9254,
      "kangaroo": 9255,
      "intuitive": 9256,
      "twenties": 9257,
      "souvenir": 9258,
      "3k": 9259,
      "56": 9260,
      "80s": 9261,
      "cul": 9262,
      "dal": 9263,
      "dell": 9264,
      "dick": 9265,
      "ft": 9266,
      "hrs": 9267,
      "icc": 9268,
      "joy": 9269,
      "ligh": 9270,
      "nintend": 9271,
      "os": 9272,
      "pid": 9273,
      "tier": 9274,
      "um": 9275,
      "vid": 9276,
      "yelling": 9277,
      "##house": 9278,
      "##cr": 9279,
      "##cular": 9280,
      "##100": 9281,
[...]
